/**
  ******************************************************************************
  * @file    face_detection_data_params.c
  * @author  AST Embedded Analytics Research Platform
  * @date    Sun Jun 25 20:07:58 2023
  * @brief   AI Tool Automatic Code Generator for Embedded NN computing
  ******************************************************************************
  * Copyright (c) 2023 STMicroelectronics.
  * All rights reserved.
  *
  * This software is licensed under terms that can be found in the LICENSE file
  * in the root directory of this software component.
  * If no LICENSE file comes with this software, it is provided AS-IS.
  ******************************************************************************
  */

#include "face_detection_data_params.h"


/**  Activations Section  ****************************************************/
ai_handle g_face_detection_activations_table[1 + 2] = {
  AI_HANDLE_PTR(AI_MAGIC_MARKER),
  AI_HANDLE_PTR(NULL),
  AI_HANDLE_PTR(AI_MAGIC_MARKER),
};




/**  Weights Section  ********************************************************/
AI_ALIGNED(32)
const ai_u64 s_face_detection_weights_array_u64[56100] = {
  0xa049ffffa3d8U, 0xfffff5ad0000fd5dU, 0x82b200002542U, 0x13a140000000U,
  0xffffb1ffffffd6e4U, 0xc00000000000b087U, 0x84b6ffff8c08U, 0x2fdf0000293aU,
  0xffff64ebc6cd51c0U, 0x236cfffffe5cU, 0xffff673800001205U, 0xffffbb1d00003f43U,
  0x93cdffff9f6dU, 0x40000000ffffea02U, 0xffffd4ca000102e7U, 0x6e300000431cU,
  0xdb3fd0cf70f0cfeU, 0x8faf400a908fa05U, 0xf800fbeffd134681U, 0xf3f715fb9504fb2cU,
  0xe081fda33bec7708U, 0x11b811fdbdf01f7fU, 0x6fd027907070099U, 0x7f0d1a13b8f906beU,
  0xc27f908ec051afeU, 0xce9fdfda60de50dU, 0xf90102f4fb10dbccU, 0x6030dfd8102fb2bU,
  0x352efe03037ff981U, 0x2030dd8c0047fe7U, 0xff067f14fd167ff9U, 0xf817e00e2081f1c0U,
  0xb20b7f7f7f988171U, 0x817f7f7f818373d1U, 0x7f7f8f817f8109b9U, 0xa3788181ac024681U,
  0x17260e00f1e6dd0fU, 0xf5160ee9ca7fbdebU, 0x60af40c0314e5e1U, 0xf181df01167e15cdU,
  0xa904fbedf0f5fce6U, 0xfbfa0001bd060813U, 0xfbfc0105f90cc6cfU, 0x12fa05f6e9fc1b26U,
  0x7fea0cdd0502091aU, 0x5cebfe00a6ec24b5U, 0xf315f9f00414ede4U, 0xe3ee7553bcf9819fU,
  0xd524f7f3f3090400U, 0xfffafffbde14d803U, 0xfafc0402fa0607deU, 0x90f0efef20a0132U,
  0x1c300003199U, 0xffffff4700001474U, 0xfffff80900000444U, 0x4d3fffffc845U,
  0x24fa0000042aU, 0x8300000ba1U, 0xffffcdff0000447fU, 0x6bffffffa40U,
  0xfffffeabffffec05U, 0xffffe9f20000040aU, 0x3fcd00006b07U, 0xfffff898ffffc208U,
  0x13af0000a4feU, 0xfffff1f6000005dfU, 0x39500001f8aU, 0x27c00007bb8U,
  0x40094f8b903c100U, 0xe5def605000205b8U, 0xb0eb08fc81bc2400U, 0xe10cef060000fd3bU,
  0x2700e5f2e0e1f7edU, 0x3b08bc0f06e6f70aU, 0xf1fe83cfede80000U, 0xf75b22f400017fecU,
  0xec00e041df3107fbU, 0x48f91926fe1a0af4U, 0xf9ccd911ccf2fb00U, 0x9bde71100028102U,
  0x1000204e828efa4U, 0x34ee68fdff080101U, 0xf67f7ce1e6f40300U, 0xfdf8fb0000fbfc05U,
  0xfe001200fd030802U, 0xfe120305ff00037fU, 0x80600fc0c0cf800U, 0xe601f1010000040dU,
  0xee00ebfef7ff1801U, 0x407fae700fef881U, 0xfefa1101f0fd0300U, 0x1c0415f70005ee00U,
  0xf7001dd300fd7ffeU, 0xb42e0101ff14df2bU, 0x7fd00d20406f500U, 0x9a1468d10006d806U,
  0xff00fffefc00faffU, 0xffff01fffffd04fdU, 0xfefffcff7fff00U, 0x10102fe000100fbU,
  0x300fcfdfe090003U, 0xff0102fe01ff3ffdU, 0xfefbfffefef87f00U, 0xfe0002ff00fdffe8U,
  0xea00f02ceefeecddU, 0x2f090c1ef90e05eeU, 0xf2b2130ecff2fe00U, 0x437eb0d00047ffdU,
  0xfc000af3810408ffU, 0xef02cffefe010c06U, 0x10d503021206fe00U, 0x103050300ff00ffU,
  0xfc0000b602f07f0aU, 0xa764db3006ec24d4U, 0xe5fa0037e90f0900U, 0x79e98b3d0001fbefU,
  0x200d6fc05c5b6f1U, 0xf803f8f40af9f64aU, 0xe2f816fdd5fdfb00U, 0x81feebf900ecfdedU,
  0x300cf0d7ffff003U, 0x1afa0bf6fe03f3faU, 0xc80cf7f9c60d0000U, 0xf603040100fff8f9U,
  0xeb00f6ffe1f2f856U, 0xfbfd7ff7010a0af5U, 0xf526a606ebf20000U, 0xfbf7fdfe000219fcU,
  0x0U, 0x0U, 0x0U, 0x0U,
  0xe900180011f61101U, 0xd1f5f9ef0100f5eeU, 0x7fa0a8a0ffc0100U, 0xf807f37f00030003U,
  0xb00f3ede87ffcd8U, 0xf3f115fd023d02fcU, 0xf31b42f6de0b0300U, 0xdeec17fb00fd0affU,
  0xff0001fd000c0002U, 0xff0302fd01fb7ffeU, 0xfffcfbfd010cc000U, 0x60000ff00fd04ffU,
  0x800f92bf5e1de5fU, 0x1614f1b7fcfbfbf4U, 0xcef37f2efdf4f900U, 0xf107f600f52c0dU,
  0xf200fbd6caa1fd98U, 0xdef55e03ff93e2feU, 0xe57f5308e0f8fd00U, 0xb16fe000005bb00U,
  0x7f00ec1f05ef0ff5U, 0x4fafbb803fc0004U, 0xf102fd03eefa0800U, 0xfe0b05f300fc32ffU,
  0xf80001f3fa81fcecU, 0xf2f2eaf7fef512f3U, 0xfceb0f00f8feff00U, 0xfd03fdf900c5eeeaU,
  0x400f8fcf77f031dU, 0xf4f8c806fdf0eee8U, 0xf9e6ecfff8fb0000U, 0x1fe0701003e1ceaU,
  0x90085e2b004bb01U, 0xc9cfe703040163d0U, 0x93ed05eb81e60200U, 0xdf0cfffc000bed66U,
  0xfd00f904fd01fa04U, 0x204fc01fc02ff00U, 0xfbfa0205fc7ffb00U, 0xfdfd020100feff11U,
  0xef00fce3fbfef0ffU, 0xa3eaf57ffefd16e2U, 0x59f4fa4e29130400U, 0xd80af7880001fafdU,
  0xd001117f40be09eU, 0x80fd9a8fef8f9fcU, 0xaaf5811f0202fd00U, 0xece11ec0002a800U,
  0x2f00d60aced51b60U, 0x74e9c025f5c5fd06U, 0xff177fcdea03fd00U, 0xedb022f500f7a9e7U,
  0xf5006418671322ffU, 0x321b2d1500fcee0fU, 0x7310fd0b7fd51000U, 0x80b00f900f805a0U,
  0xb00fc30178119e6U, 0xf2a1b1000f56a20U, 0xfbe10efd1b364100U, 0x3014fbf700c1f317U,
  0xd9fb0946c824U, 0xeb04e1f6fe02f743U, 0xdcf9db02e1010000U, 0x81f5f3f3002000f2U,
  0xd380001e8caU, 0xfffff3a800002e01U, 0x2fc000001bd4U, 0xfffffa83000003b9U,
  0xffffb4f9000022ecU, 0xfffff42e0000083eU, 0x11fb00005228U, 0xc00000000000140cU,
  0xffffbb3b0000141eU, 0xffffb46300000958U, 0x2b5000062d8U, 0xffffc82300006f4eU,
  0xffffead500010848U, 0xc43fffffd577U, 0x20b6fffffeb6U, 0x85700003233U,
  0xcbccd9d1d1c32848U, 0xc9403e352f49c14cU, 0xc9394cc13547373dU, 0x3756473d44c83e81U,
  0xbaaed6b5a79b5661U, 0xba5e5b5a4564a87bU, 0x9d587fa152765f53U, 0x5d0a5d545ba658a8U,
  0xded0f3e3d4c73316U, 0xdc2a2b37232ad433U, 0xc43340d73132342aU, 0x31a0202328d619e8U,
  0xadad1ba9b6ab4d81U, 0xc04e4e4d555ab639U, 0xb24949b6513a4852U, 0x506c4f534eb85100U,
  0x81812e8181817f85U, 0x817f7f7f7f7f817fU, 0x817f70817f7f7f7fU, 0x7fff7f7f7f817f5aU,
  0xc9b709c7bbc646e2U, 0xbf3e37483c3fb942U, 0xbb4739c8424d3e3cU, 0x4d81394142c1333dU,
  0xd7d662e4dfdb2b44U, 0xa21a22232931e6feU, 0xdd2306e32a02201eU, 0x242e0f2418df1bf8U,
  0xc3be7fd1c7d03e55U, 0xa0332d37424cc421U, 0xcf3f04d139163336U, 0x3f01244630c7353cU,
  0xdcd945efdfee1f0eU, 0xa61d121c2923db1bU, 0xe52004ee16191a1fU, 0x27b20b2a21e2141fU,
  0x84fffffcdaaU, 0x57a10000d19fU, 0xf8750002107bU, 0x3d3700015c45U,
  0xa54fffff9577U, 0xe5200004922U, 0x117100000a99U, 0x6900000621U,
  0x1ee00001b31U, 0x166dffffe284U, 0x452000010fd4U, 0x180c2fffffe69U,
  0xfffffaec00003196U, 0xefb0000a0fcU, 0xfffffb3e0000091bU, 0x9f50000144cU,
  0x4a707fd080c041dU, 0x4f5e6087f0006fcU, 0x7010e091506f6fdU, 0xf3e9e9fe1df0f7f9U,
  0x12e236f9f50b0ae8U, 0x5f8ee06fa01feb6U, 0xd5c90202ff81f000U, 0x1300e0112fff50fU,
  0xd79d810c0a0711U, 0xfdeb02400811ef0eU, 0x180100170609fefdU, 0x34010afff80dfff6U,
  0xfa12d08100f7f3f5U, 0x406fb59dbfe1905U, 0x1ed20c0007f8fd03U, 0x5c0a15f9ff01fc1cU,
  0xffff0dfe07ff06fdU, 0x3020401fff60081U, 0xfcff02ff053700fdU, 0x8f803fe02efffU,
  0xfc2a080601aa5b0bU, 0xf7d3094ecb027f01U, 0xf0e111112e0de604U, 0x89fdfa88c9f90c11U,
  0x440fcdd83b23d906U, 0xffc5dcfc1e39362aU, 0x1fcbe36fe60b81feU, 0xe6fca6d4d7f5c7eaU,
  0x14ed0613055998f6U, 0xff08059c0bf28afcU, 0x3122f51dd00505fcU, 0x7ffc025a35fdc90bU,
  0xeb011fe707e60605U, 0xf805e7f7df06feabU, 0x110903f90e81fef4U, 0xe819f30d12031bf9U,
  0xfffb04fdfe01f9f8U, 0x6fff0fdfdff7fU, 0xfc060304b104ffU, 0x3ff0e0402fe2206U,
  0x80afd0e01fc0507U, 0xfa0cf24afd12c1feU, 0x9c9d7049706fa02U, 0xbafe13617f16fc03U,
  0xe7f6e9ef0ef31206U, 0x1f9f70b05ebf681U, 0xe7dff4fa1235fc07U, 0x5f5230604fdefedU,
  0xfe010121f6f8f90aU, 0x3fdfbdbfffe10fdU, 0x7f6b030807fbeefaU, 0xd7300bff0805fa03U,
  0x0U, 0x0U, 0x0U, 0x0U,
  0x61c0308055e81fdU, 0x40909e3e6febbf7U, 0xd050928bd01e701U, 0x2bf5f54f2ffef207U,
  0x1955eae8e507c6c5U, 0xfc407fdea1d3080dU, 0xf615e7c6def129b5U, 0xe8f7a2efdc34ffdcU,
  0xfdfdfa05060101fcU, 0x10c000109f80181U, 0xf1fffb00033efa05U, 0x30905fd0afaf4fdU,
  0xff4e13dfcdea0812U, 0x87de3c0ba66e7f5U, 0x2feff81100a6610U, 0xe528391707fa1707U,
  0xf90c0104effb09faU, 0x1028100fff60400U, 0xe618ff01fafd0e14U, 0x308f30601f8fe05U,
  0xf56303f4bda338ccU, 0xfabd01f98f0e94f5U, 0xea245b6659fb81bfU, 0x2f8f663361bfd09U,
  0x2903d0e90912e915U, 0xfec6f50cf51b1f1dU, 0xee70230f449eef6U, 0xf8d281e8ec04d906U,
  0xfe1f811ddb0ef20fU, 0x126e0f7ff2deb4dU, 0xd927fee3f56842dfU, 0xf7bb28fbfe12fce9U,
  0x5020002fd0001fdU, 0x2060000ff0081U, 0xffff0001fe0dffffU, 0x1fef60100fefd02U,
  0x3cfe08de0120d934U, 0x20617afee10f48fU, 0x35e7f404037fcf01U, 0x27fdbd0b060cbf19U,
  0xe4eefb04e40709f1U, 0x4110b190fdfd8b1U, 0xfa0a10e80f060d13U, 0xb057f211cf90607U,
  0x6f03ec2060303d6U, 0xfef9fffdeefcfef7U, 0x1a06f4edfdf8e4fcU, 0x141028f9f507fb7fU,
  0xd6fd0fdaeff20bfcU, 0x309eb0dfb03daf6U, 0xbefffe91a000c12U, 0x1df87f151af81301U,
  0xdbd3f418f3f20202U, 0xfdedc4033108eff4U, 0xcf106091708041aU, 0xcf87f1323f31500U,
  0xc45c71c2734bfb9U, 0xf7151316c30b5420U, 0xe0af7faa72a34baU, 0xefdc81bb8b09ead4U,
  0xfdb0e2425f917fbU, 0xfe2ef6382221f222U, 0xd44716eaee16350bU, 0xe057ffaf10f031fU,
  0xc0ef7f9fdfdf52aU, 0xf909f90203000aU, 0xf2fcfa0307ff0b00U, 0x90ce1fb020bef7fU,
  0xec4af0cff007d5d6U, 0xff677381cfced117U, 0xf159daaaeced64deU, 0x3d1509320e04f7f7U,
  0xfce3fe09e104fc03U, 0x32d7f070fb706f7U, 0x1f6ffc8d9f121d0U, 0x1f9b7fae422fb0aU,
  0xffb601430cdf471aU, 0xf8fba27f6843b6ebU, 0x9a78121b05f138dcU, 0x71215c38012b1bf8U,
  0xf88c030ef6dd191eU, 0x2f919117f27c6feU, 0x48c4dde8f810e1cdU, 0x1de2f212d43e020dU,
  0xfe19ff06fd619803U, 0x1110b8dd70b94efU, 0x1917f5fcb10808fdU, 0x7f05f3671204b800U,
  0x4fff9fa04ffff04U, 0x10005fe01fb010fU, 0x3000200027f05ffU, 0xfefbfb0303fdfd03U,
  0xc3dde19e06ee3016U, 0x1fbf73b07140303U, 0x7f7bfcf3161cfc0bU, 0x43db2c080604fee3U,
  0x183d17c7e90ce9d6U, 0xfe4d7fe5addb29f2U, 0xe2230cacdaff5ceeU, 0xea10a8dadb2d0afeU,
  0x6f75736f5f901feU, 0x4ffe807ff041bU, 0xeff3f80009810908U, 0xeb0102070b030903U,
  0x1c1e1d02091ded04U, 0x5e1f3eb4b0feaU, 0xf71be00ae5cd05f8U, 0xea0f81f0e715e6fdU,
  0xce0815eaf4ad54ddU, 0xfbee034dfd056cffU, 0xd1da05f932f2f204U, 0x81fa0cb0caf325eeU,
  0x866f57febef01c7U, 0x508392dc306d800U, 0x19eadef7e2070532U, 0x2df6ce07ccf1fd1bU,
  0x39fef700f9f9fff8U, 0x2020505f6fbfaU, 0xfb0305030703fe03U, 0x3010a0203fc8100U,
  0x443fcf9048e4af5U, 0x1db16f6c2178102U, 0x40a682e6009c1c4U, 0x7efef54301bf9faU,
  0xea17f781ef25d4e1U, 0x315fd56e6f3ed09U, 0x593a0a1ef603fef8U, 0xe43b0b1e1af506dfU,
  0xf54615affbba3ee8U, 0x75f631dbacc36eeU, 0x810f01aa12d845dcU, 0x82180be8eafc1f27U,
  0xfa29fdf0f6fff10fU, 0x10ed0fadf0a0502U, 0xefd05fb2809117fU, 0xfa12041e84fe0fU,
  0x5fb19f9fc02fd15U, 0xfee603fd007ffdfdU, 0xf604fb14f502eff3U, 0x3fff1fef8110012U,
  0x40efc02f8f40c09U, 0xfa7ff701f4fdfcfbU, 0xf00fba7f90132fcU, 0x31c040bfe04f401U,
  0x1822ed73070af4f9U, 0x5feffd418ff10e4U, 0xf1fb07e8fe05120bU, 0xd1fc1af9f1050e7fU,
  0xeef9d381181d0aeeU, 0x2ed1051b6f3e714U, 0xe18ee6fafef106e8U, 0x51f6fc04f001121fU,
  0x34f308f6f8eb2507U, 0x3f91710020bedU, 0xee0f00e60d1c1bffU, 0xf3072ff5fd0281feU,
  0x1dc12022045f30bU, 0x210160224235ee5U, 0xf80681f4cd060a09U, 0x102fecfd2010602U,
  0xfcff030cf9fa04f4U, 0x10805f700e105feU, 0xff501f611fbf920U, 0xf6027f0205ef0afbU,
  0xdddf2305c021f1U, 0x12ab80e1541cd01U, 0x7f81e5cf17f3dab3U, 0xf7a15526fe4ff80aU,
  0xfe3f0ef4eeef14e2U, 0x60e34e8d0d9d2fcU, 0x887ff60500ff69e2U, 0xf18f903e61a03e7U,
  0xcf5f0ee0b7d01a10U, 0xd4d7fd6bc9acaf0U, 0xa874f8a8f3f662f0U, 0x2231ab2fe82112f0U,
  0xfff9f90ef104f3fbU, 0x30705dc03fffeffU, 0x9e81f9010303ea01U, 0xe431f40213fefdffU,
  0x7f1f7ea0d040209U, 0xfef6f9270508f01fU, 0x7f5b0911fb06edfcU, 0xcef0c00fffcf616U,
  0xecf0021adddb1bf2U, 0x30dfd0915d6f7e8U, 0x1a161ef026e00424U, 0xa097f110ef114ffU,
  0x2fd02fe00ffff03U, 0xfffdfdfd01fafd7fU, 0x500fff802cc0200U, 0xfef6090203fb1903U,
  0xeffee8eff904fe0fU, 0xfd08f1fefffe03f8U, 0xb181fcfefdf7fffbU, 0xb4f13000bf8f610U,
  0x220020ec1b17f50fU, 0xffcbdf0201221d29U, 0xcf9fd35fbf9d307U, 0xf1f981f1f1f5dc05U,
  0x6a4b00006789U, 0x6ca300005d0fU, 0xffffccd800006b8aU, 0x4ca0000adcbU,
  0x1d6f00003a16U, 0xc94800004c3eU, 0xc0000000ffffacacU, 0x493effffbc2cU,
  0xa0af00008b5cU, 0x312500002545U, 0x3db9000079ebU, 0x54a500009f48U,
  0x27d9000070b5U, 0x703b0000c1ddU, 0x23534ffffa546U, 0x9f9f00000ca6U,
  0xcbe00000bfb8U, 0xa97a0000c484U, 0xae0fffffa89U, 0x69510000979bU,
  0x869a0000b055U, 0x38d1fffff4d6U, 0xffffbc9e00006295U, 0x32140000eeeaU,
  0x6b3100000519U, 0xe74200000b69U, 0xffffd14300008356U, 0x3f8c00001aa0U,
  0x1c2ed00008ff7U, 0xffffb4f2000087e7U, 0x107a00004d2bU, 0x3d6d000083aeU,
  0x2236f915fa1dfd06U, 0xf60123fde4eeca05U, 0xb4050611fcf20266U, 0x340aecfe0ffbf9b0U,
  0x141c7f017f0d01feU, 0x1eec604010e8104U, 0xfdfaefea4a00fe07U, 0x2223031216f711f3U,
  0xef50026d0e7f26e9U, 0xe601f8f251d37401U, 0xe3f217d91529f528U, 0x3df60b2df5bc21c2U,
  0x7f8190fbe5e104f5U, 0xe05123cf442b2ddcU, 0xdcfc2d0a96bafbe9U, 0xbce6e981f218fddfU,
  0xf025fe22ee0d1b02U, 0xf7fbcf0b3c0b4403U, 0x2fff050ef8f504f8U, 0xf407f1f70efcf90dU,
  0x171bdafaa1100100U, 0x2a060af4026108U, 0x1fbe7f2fc00000bU, 0x21f0fedaed050c01U,
  0x96f8e911f84d01U, 0xfdc4ecccee9cf9U, 0xd5e32bbe1615f024U, 0xf9c2051c34fdfbf6U,
  0xe0378ce4bee1051dU, 0xc5ca24d34b0432d9U, 0xd9021e03ce0706f4U, 0x4c7fbb54762f13a8U,
  0x81817f817fc78181U, 0x7f7f81818181817fU, 0x7f7f817f7f7f8181U, 0x817f7f81817f817fU,
  0x82f4be7f3f81817fU, 0x81817f817f7fb77fU, 0x817f7f817f7f8181U, 0x81e47f68817f8181U,
  0x1faae6e5feecb409U, 0xf2edc0dd57f671fbU, 0xfdfc1fbdfaf607caU, 0xe9dbfe2d39f3171eU,
  0xef3b55011bf416ffU, 0xfafdfaf307eeecd7U, 0xf0e80912ee021906U, 0x3dbbefe00d1f21ccU,
  0xef2efe01fde80201U, 0xf9fe28fe2c024601U, 0x24070510faf902fbU, 0xe603f6f609fd0714U,
  0x7e908b60ffff9U, 0xc3a040cf103540aU, 0x2fae4f2e9f8fd07U, 0xd1009cc0efe081fU,
  0x1b5ae918049d2405U, 0xdcea08f8c0f4b2d9U, 0xf8e51adbf1f410dfU, 0x1604023a03d03b07U,
  0xda071e011fd1cdeU, 0xf807fef40ff901d3U, 0xf6e619140ad20d0eU, 0xe6f9dd1dee111b1fU,
  0xf23fffb03e717fcU, 0xfeff2b04fa05f20bU, 0xd805fd13fb02fe34U, 0x1c02fbf00404f5d1U,
  0xf214e9033b0efc02U, 0x3e7e40eef00c20cU, 0x4ffe9f20806f505U, 0x9fa020ef5fa0125U,
  0x8f260000581aU, 0xffffce8500002f50U, 0x16b3fffffbceU, 0x26e60000159eU,
  0x145fffff3bcU, 0x3c00005e01U, 0x14000009b2eU, 0x2a8900000d9cU,
  0x7885fffffeafU, 0xffffe9d9fffffb94U, 0x424a00002a43U, 0xfffffa02ffffffc4U,
  0xd8400000011U, 0x118a00000559U, 0xffffbc9400001cb7U, 0x67bffffeee1U,
  0x4949ffffff4dU, 0xfffff0c6000041efU, 0x125c00001654U, 0x20300008ae8U,
  0x9eb100001a2eU, 0xffffc736fffff999U, 0xffffed49000050a5U, 0x6f41000005c6U,
  0x67d600002091U, 0xfffff0d6fffff713U, 0xffffa54700007f9aU, 0xf61700000fc1U,
  0x437800003b3fU, 0x97dffffd1ffU, 0x986fffffe12U, 0xfffffd05fffff679U,
  0x233f0f642019ecabU, 0xf70bfe01f0f149faU, 0x180de5bbd9055d0bU, 0x3501081f54e8fd48U,
  0x372019d718c1d481U, 0xc2282300d4a349dbU, 0xf887140f115a34f4U, 0xfb06fb26e9f22156U,
  0xe53ae6fee71ae9ecU, 0x8fa0f11f5070106U, 0xf50d15cef4f00308U, 0xe9170711811cf9ffU,
  0xc139f0f48bcb08e9U, 0xe2ed1bf5e4d7aa1dU, 0x7eeffef012014f2U, 0xeceff6e8f4e924eeU,
  0x7f0253dcf5faff01U, 0x2db6faf30abeebf8U, 0x1fee3e1f2fcf31cU, 0xe30012fc30f2f8faU,
  0x5e5fcfb011d10fdU, 0xf03def05fdecfc06U, 0x15eef3f6fff6ee0bU, 0x40f0af01cfd82e9U,
  0x4ff01f3f901f4faU, 0xfdfdfdfff804f207U, 0xf87f0af8fcfdfaf8U, 0xfe02fff9fef904fbU,
  0x30d0104fdfff604U, 0xfb0506fb10f6f3f5U, 0x1fefffdfffef6fdU, 0x80d09fe010012f8U,
  0xfb0b03e41c48d5d8U, 0x2a0200c5250f09dbU, 0x11eb010a0a06fb1fU, 0x1fda29fd9f4f01ceU,
  0x4f12c03e6e8981cU, 0x191d30f9eef30cb0U, 0xb97fce172310b550U, 0xfa1236b72a2ebf2eU,
  0xf6c8f0fce7f319edU, 0xf6e5f80cec1cef01U, 0xe3f5103ed2cf19ecU, 0xf9f6f8e74805fff6U,
  0x204e30d05d5c47bU, 0xf0fbec30fcd32c0cU, 0xea7ff7d9e600cfebU, 0x11f0ee0dfcf61407U,
  0xf9030f07f809fdc0U, 0xba2307fdff11ef00U, 0xeb02ff1613fece07U, 0x1f50e0fbf01f9f5U,
  0xf913f9f0fb00f981U, 0xf160d100ce5f628U, 0x37071401faeb2eebU, 0xf6050dff0a044e0aU,
  0xf804f5f83a4d1af8U, 0xfc030282211f0efdU, 0xf102282ad5134e21U, 0xfde9ef0a0c290cf2U,
  0xf070d0711142e19U, 0x7ff1734190c0b01U, 0xd8cceee6f0f7fa2dU, 0x1b09dff0067f20f7U,
  0x1916dd511804f381U, 0xd6f1fef3f3deeb11U, 0x5d40bcde0e81331U, 0x46e6183c1f00231dU,
  0xf639eec735b6ded8U, 0xbd3e29299ebdfc02U, 0x1902e91bf44a0bd2U, 0xdd221c49e4d3e458U,
  0x12e50bf70ef8ee14U, 0xf500070401efe80eU, 0x107f0312081305daU, 0xd0023f5fe21001bU,
  0xf510f73c110a0ee9U, 0xffffff409f3181bU, 0xc0012f901f50602U, 0xedffcc1c0602f303U,
  0x1f1f804f5faf1ffU, 0xcfb02040bfdfffdU, 0x643f00504fffcfeU, 0xfd0b14f6f00ef203U,
  0xfee8038102f8fcfeU, 0x101ef01f70f16U, 0x401f9ff0401f30bU, 0xf6e004fa08f6e105U,
  0x3f1f7f97fdf0409U, 0x2df30d13f60fefedU, 0xfefc286b02202ffdU, 0xe2fc0fedefb982eeU,
  0x1b31c204050613e6U, 0xfbd74de0f5f1ec0dU, 0xf2cff6f706f8de36U, 0xfa0918fc01fcbce6U,
  0x91d071befd1d3fbU, 0xf909fb0c02f7fe15U, 0xd0a81bd04080f0bU, 0x130bfb11e21b23f9U,
  0xcd820330f00f2f7U, 0xf61af1f9ec0e19abU, 0x7f4eaf01dd9dbeeU, 0x45114ed05d9f70fU,
  0x4ebef0afc0aede5U, 0xe403051bf7f30dU, 0xf1feec0af9f0fc0aU, 0xf90df80200f80517U,
  0xbfdf6de03edca2bU, 0xe70bfbf1ebf403f6U, 0xe97fefe00c0ce712U, 0xfffe14fefcf8fcebU,
  0xd614c1e3d9fef2faU, 0x29160aef171d1bfbU, 0xf6fae2cef7ffe2f0U, 0x220f17f152f5f8fdU,
  0xf0e408ec240223d8U, 0xf6f1fbff12e83600U, 0x14d502f913fcf815U, 0x1316fefe110781e9U,
  0xf7360ddd28e9270cU, 0x190dfefa060ef4e2U, 0x9f60e30122e0e04U, 0xfa0108ddd2dbfec5U,
  0xf6e4d6101340763cU, 0x3ce5170545451d11U, 0x398108dceee9f114U, 0xf70614d5e3dfe2c8U,
  0xfe0ef8e703e550f6U, 0xc000af2fa0000f4U, 0xf47feb0ef70a05fcU, 0x1008fb06d804090dU,
  0xf9000b4906f5d501U, 0xf90907ed1c11fadeU, 0x211f8d7fbfcdd1aU, 0xfeeec1fbf90bf107U,
  0x21214110c04150aU, 0xfd0ffbf8f506f4f0U, 0xfe7f1109fef009e1U, 0xafbfef0f90ff903U,
  0xe4fb053b0b0e14f4U, 0x6000a071dfa0511U, 0x100918daf6ed0600U, 0xf603c40a0410fa14U,
  0x68f05207fe08f4faU, 0xef8108f7fa27f3f6U, 0xee02fd1000ed100dU, 0x22070714f109000dU,
  0xf4fef5f919effbf8U, 0xf8f8fe0afeebf30aU, 0x9f0fd10fdff1ffaU, 0x3f90af70202071bU,
  0x6dfe411d70d07d9U, 0xfeecf034f811f60aU, 0x702fd27be2d64edU, 0xe10e2f02032afa14U,
  0x16f41f110d01811cU, 0xf2e2f6240e31027eU, 0x1aa0cbe21c14f841U, 0xc60324fc04c5a6b7U,
  0xeb0eef292fe4070dU, 0x809f8cb67107ff6U, 0xcb03eff7fe01fd9fU, 0xd60eea190d150cbfU,
  0xf713d80c021bf706U, 0xe49bc04f3ffd4faU, 0x2d702ff42131a13U, 0x2329106a0dfe36feU,
  0xf3fff700d5080800U, 0x1af70c35f4f2e7f7U, 0x2fa235914170c19U, 0x80315e51205fd09U,
  0xd1bf8f715ff7fe5U, 0xffbe7f4fdedf512U, 0xdcfef508fe15f518U, 0x8f91e0aecd026f4U,
  0x43ef47f1754eeecU, 0xbe0cf606e61105fdU, 0xf1f9df01c604feU, 0x5f0f073c00665340U,
  0x4ae8faeff2f4e418U, 0xd85f091c2affe2f6U, 0xfbe1ee000977f7d3U, 0xf7f8e63f07ee1e4eU,
  0xff07f6fa02e9f505U, 0xfafa0313ecfbf2fcU, 0xfbaef9e9010404fcU, 0xf9060a010003fbfeU,
  0xc04007ffb030df5U, 0xfef4fcfa02fcf404U, 0xfd01fb10000f0304U, 0x70e0402edf2f901U,
  0xf304e97f0f26ddc1U, 0xd7050c13f3de1d13U, 0xb71f3dfcad923e2U, 0x29f0fd1342ebf74cU,
  0x322021d8e2ccb6dbU, 0xd723fc05e4bd01f8U, 0xcc0515ff193440e6U, 0xf51cd434faf5473dU,
  0xfbc20610f9bb46f3U, 0x40d0007eb09f8ebU, 0x1d01c47ff10b0fefU, 0xf4150c0426daf1f6U,
  0x231e17100e0e43f2U, 0x1af7f2f7110606e5U, 0x9c4edb10a3e1d07U, 0xaf6f5fff504d5eaU,
  0xf4065ce8edf1ec3fU, 0x4d58fff61a0a0cffU, 0x807f9fa27ee0d08U, 0xe4030b1a2ef0f30cU,
  0xe8100709001b0210U, 0x3e004f8044af3e8U, 0xae2e31910f2e808U, 0x91e1f0af6fa81ecU,
  0xc2f5810cf717fa08U, 0x52030914f41ef4U, 0xe01f0fd0ae5f600U, 0xfaeb010c0201f5f0U,
  0xf6fa0dfe3bf1f1feU, 0xf4071306010b1114U, 0xcebf80a00fdfff9U, 0x4f7040e0f000b00U,
  0x950c8f2ffb0efdecU, 0xe27f0b1224fd3df6U, 0xd4eefb2802fc0caeU, 0xd9f901180409f3d9U,
  0xd08e60d0dfaf805U, 0xfe1105173101eb1bU, 0x61809f9180f04f6U, 0xf0f30b25fd0e0d10U,
  0x109fee8fcfb0200U, 0x4fc00f90706f7fdU, 0xcfaff0101f700U, 0xfd000206ec0a0401U,
  0xfef9050f00fdef00U, 0x3fb05087fffff0bU, 0x301bc030605fbU, 0x60301fafffeeb06U,
  0xf80d000cedfdfdd2U, 0x40d08f40a05f4f4U, 0x5fcff0002087ff6U, 0xaf7f0ee1113ecf3U,
  0xf91d0df507dfdcbdU, 0x413fff402f0df41U, 0xa17f4020ef83c0eU, 0xecf009f70807fe20U,
  0xdd44f4fc160734e0U, 0xf805f51bdd03f6e2U, 0x1c03ae7fdcf50e1aU, 0xe0504d3a000e7feU,
  0xf959020fd4fa2229U, 0xfc08f816fd0dbc53U, 0xecebfcecf7ea38f0U, 0xff0e21e1d3fd620aU,
  0xef14563c2302ec26U, 0xf4bec3f1c3312edU, 0x309bffcc49c4e16U, 0x2516fb0bbe211d2bU,
  0x200de201d12e687fU, 0x7231f7e11ea1a2cU, 0xe630fe4ae51845b2U, 0xe3a0622f2c6ff5dU,
  0xe1411937245017a1U, 0xaef9ffdfd32bd5deU, 0xebe00130235a3df7U, 0x27db1712050f250aU,
  0x1b49fafbd4dce90bU, 0xc220a4232e9aa3fU, 0x2f23eaed295efbU, 0xb80a3ae0d620197fU,
  0xe9058fdc03f623fcU, 0xf28102f5fc06f9fdU, 0xfe03e8e6d9f6c70cU, 0x60fbfcc08091511U,
  0x6dcff09d3112616U, 0xf9f81010f9f0e7fbU, 0xdb3214fdf1fbc614U, 0x34f7ec081307fcfeU,
  0xf512fdf91a1b13ebU, 0xdff6f7e20304f7f3U, 0xf504ef13e913f2f4U, 0xf7f6fb020efa01U,
  0x1900f80a2943adU, 0x81fe0c1af90ff222U, 0x3f2de8e6fee9ef21U, 0xfc02000b010dd8eaU,
  0x306f91c0d034e14U, 0x1efef61206fa09f3U, 0x29a81a06dffcfc00U, 0xfb2c5209e5fd0d1bU,
  0x160af77f1412efecU, 0xfcf209cd050424U, 0x8000724fbf422fdU, 0xdffee04e70b00f1U,
  0xf91ef10928fbfef2U, 0xf9e302cd080302fdU, 0xf02f6fc2f04070cU, 0xff010bf9de00f30fU,
  0xf27fc0cf1397f1aU, 0x18fd27f20cdde9f6U, 0x9c30d90e0202fce5U, 0xfb1e040004350719U,
  0xe42bc007cd04faeeU, 0x4def022db02ce01U, 0xfedbe3cddbfded12U, 0xed28f7338127ede5U,
  0xfc68010d95de2cfcU, 0xddbee11e6e696cbU, 0xdebdee8fa0d12f3U, 0xf51b27edecd6f4e5U,
  0x6f1d9dd00f00417U, 0x17e8f8f92b0200feU, 0xe805fee5f1d3a814U, 0x1510081a010203edU,
  0xe9eaebfbd219e80dU, 0xe813f67f0df105dfU, 0x51adc7f000debbebU, 0x58fbeaf7411b82feU,
  0xe1c07d2ed0dfdffU, 0xffcf50bd506c9fdU, 0x6306f7e8f90c0b7fU, 0x3915f700050b0371U,
  0xef34708ec1bed10U, 0xfed8510ef106fa13U, 0xae3f8f4e2160713U, 0x120c08c91f122804U,
  0x4150f7f1d4100f8U, 0xf80cff0d00f80902U, 0x408f8d8fef505ffU, 0x1500f80e04031812U,
  0x5af12a020cfc00faU, 0xfc13090a0217f80cU, 0x50507fc211e06fcU, 0xf6fff911f0f0fd03U,
  0x1b1111fdce47db0bU, 0x807eb2e0ffbecf7U, 0xecfe01df04c898f3U, 0xe41c2b2d0a570ef9U,
  0xe78ffaf847f840ebU, 0x8f4ddd604f74981U, 0xfd24e0fbda36f5c6U, 0x28140def1adcc917U,
  0xf0a4ccb3041de707U, 0x43eb05fff902f20cU, 0xd6e1e306dde49e24U, 0xf01c17e518ecec01U,
  0x89a1707033b6a61U, 0xf9ec0118e1f7202aU, 0xefbfd523fdd0810dU, 0x1f12151b0f11c3a9U,
  0x3a0645032321f401U, 0xf381fbd71b48f9fcU, 0xf3ff01142c0325ffU, 0xd9ecf615bd2af6f1U,
  0xf720f606f1e20b04U, 0x5d5c2c4f71dd113U, 0xed07d7ea1a06e424U, 0xfd06053706fbda01U,
  0xeb06f61201e02218U, 0x63f30bd3ed0bfbf0U, 0xf5f6f11b260c140aU, 0xd6001ceed4dff200U,
  0x197fff09b1ff1612U, 0xccd0505f8f2d710U, 0x24c104edf9301115U, 0xf0101305eb2fde00U,
  0x2de544e7161101e4U, 0x1e24fe12ed1934eeU, 0xcead5f1f7f3010aU, 0x271044d907fbeedeU,
  0x7011bf42cf9e2b7U, 0x210c0b0710023b41U, 0xfd81160d201b63f3U, 0x1a1a0df8202f061dU,
  0xeaf2cb050d04019dU, 0xdef60adff5f9fd06U, 0xfcf81342bf2309f5U, 0xe0f50c18d817ee13U,
  0xfe23e5eadbc1d5e2U, 0xeef61a40e481f50eU, 0xddf6e1ebd3fbc417U, 0x2030f308151ac80aU,
  0xf902fcdde8030708U, 0xe703fffc3e0d1700U, 0xff07fdebfe0a012cU, 0xf3040004e9f801faU,
  0xfef22dfc1cfb1d0aU, 0xf7012b0a00fbe8fbU, 0xfb1206fd3bf1f201U, 0x266108057ff6f30aU,
  0xf60ff83ff9ed2f03U, 0x1f40900ee0e1fd1U, 0xd9ddedf301ff0515U, 0xf6f3e0f6f705fcefU,
  0xdf08fae1f8061204U, 0xaf7f70af8f30a09U, 0x6fb0bdcf3fb10f6U, 0xf7e37ff7fa06f710U,
  0xef06ca0913140004U, 0x2e00d1f2c9f2f4U, 0xe0cef1839067f04U, 0xebeee81fd941f733U,
  0xe310d1611fa3839U, 0xfbf923a0f104e509U, 0xee29a9f5f2f6d648U, 0xf6081411fa3add09U,
  0x2080dd0b3e9effeU, 0x3727032a3429070fU, 0xfcddd6f4188109U, 0xd108da10d7e2fa00U,
  0x7d90304221da5d3U, 0x2fe8fdcbfab6f1c1U, 0x68d4f3142402cd2eU, 0xb73efe014bcdf2aeU,
  0xafc190a0e130fU, 0x5faf0f9f0f4e70bU, 0x518fc02ff1906f6U, 0x10b19151efef911U,
  0xfd0afe81130ae206U, 0xfb05ffeb0107ebe0U, 0xdb36fcc6f7fcf711U, 0xfcf5071ff20704faU,
  0xfbf4d0f6e7fbe212U, 0x2ae00a0c17fd0e1aU, 0xfcf60316ddd88112U, 0xf911e4021d101017U,
  0xe8ade8e4ef09ce42U, 0x4eaf540d6d1f6caU, 0xf2181df1f5fcb216U, 0x21011a0b2308bbd2U,
  0x4ebf8d3dc2af8f0U, 0x33fe090403fa07ecU, 0x17ed24f9ebf00107U, 0xf6ff08dfe3c06ff2U,
  0x8144e8e3de00181dU, 0x410fd0df806d57eU, 0x28dce0ff0c9c1307U, 0xbe7100110e8fef3U,
  0xf9e416e211f62801U, 0x231305e7000bf0caU, 0xed0a113d0ff803fbU, 0xf51bf9ec29f30510U,
  0x20405ea09081b08U, 0xf7f900f7f8fc077fU, 0x1daa04f1fb06ff0dU, 0x9f2fe0c07101110U,
  0xea22aaededee0a0bU, 0x13d2030a19350cecU, 0xfbfccddfb41cde22U, 0xebecfff10513f30bU,
  0xfba5e202e5114e2aU, 0xefe4f84fe981cb40U, 0x13ce12fefcf3a1f0U, 0xfa0e08f1040be826U,
  0x10afefc03ed0608U, 0x40cfefe0406eafcU, 0x6fc02faed0a0408U, 0x3fbf407ed0e0201U,
  0x3eafd2bf7073ceaU, 0x1ff6051f33180e28U, 0x12812a0407fc1cefU, 0x1fffe08f9070bfdU,
  0xfd07020405f705fcU, 0xff09f9f7ff05f6U, 0xf981fff701fd01fcU, 0x40208fefa0e00fcU,
  0x4f702ce09fbee00U, 0xfffe07031efefd01U, 0x700f9eb010c0004U, 0x7f706f602ffeb00U,
  0xa02f9edff0c2bf8U, 0xedf901000aff0bf9U, 0x32734e1f9010c00U, 0x10ef902e50b1205U,
  0xf0f1faeff8f7f108U, 0xfe000904f90a1219U, 0xf410f8e003feea07U, 0x8d481ff10ffec02U,
  0xdd71ed4ee43a20ffU, 0xe0f034df523ade9U, 0xacfc06cbd13f23acU, 0x3592fefdc87a30beU,
  0x2fdb0104f8fa487fU, 0xc3fab38a92a0845U, 0xa9b709f5e917826aU, 0xa39e48a2b3a5ac47U,
  0xd050509df1ed013U, 0xf00ffb3811fefa0eU, 0xd0fe0781e2c2e408U, 0x182f1137e22c09eeU,
  0xcaa08f616f0d311U, 0xdb13fef9e9ef1fe6U, 0x34d2dd0e1a37eae0U, 0x19eb010519db0c04U,
  0x130984f3fb0ec1f0U, 0xbf89010411ff0811U, 0xff02e79fccdae3fbU, 0xfe11fd3ae412fffdU,
  0xf30010fde0dbf114U, 0xfbf906e8ebe201cbU, 0xed33cfff1cf9aff7U, 0xfbe902effff481dfU,
  0x702faba02e817f9U, 0xeef0b04ef0b16e7U, 0x20ebc10f7050704U, 0x804fdf4e6060707U,
  0xc08101d01091607U, 0xff06fb0af30a0fcdU, 0xf5fafbda0cf301f8U, 0xfe1581fd010ae401U,
  0x449c00004d72U, 0xffffcb1e000032fdU, 0xffffc34d0000f124U, 0x21ee00000bd2U,
  0xffffd2f30000ca92U, 0xffffc3e000003d0cU, 0x7a9400007ce1U, 0x297b0000654bU,
  0xffffbb83ffffcc0eU, 0xfffff472ffffef6fU, 0xffff2eb700007410U, 0x980000037c5U,
  0xffffa2d60000bf97U, 0x142effffd9f2U, 0x526b00004b24U, 0xffff68b3fffff49bU,
  0x1260ffff68d6U, 0x1f4b000111b0U, 0x3c5ffffb116U, 0xa2f400008813U,
  0x980000008cU, 0x630d00002dbaU, 0xffffce3d00006d55U, 0xd24600004608U,
  0xffffe19200002ca1U, 0x13858ffffe53eU, 0x11274000049c4U, 0xffff6dd2ffffbcc1U,
  0x44ed000069f0U, 0xfffff24b000079feU, 0x35ca0000bcb6U, 0x22eb00013892U,
  0xb7484644414a3be9U, 0xb13d83b835411963U, 0xbfc446ca40bab84cU, 0x413fb9c84848c8d0U,
  0xba413bb742b79eb4U, 0x4265433e3642d0c9U, 0x37c4a5c2bc3da4daU, 0xbfc54bbdc93d9845U,
  0xa15b5260636a54d8U, 0x306006a84f58b07fU, 0xa3af60ac539e5c5cU, 0x5c53b2326b63aebaU,
  0x985d5ea561a73ba0U, 0x5d7f52485258b9b2U, 0x5dad81b0a15783a7U, 0xb1a962a9b55c8156U,
  0xd8272729332e29f4U, 0x253542d528373f39U, 0xcedf26d426df0c25U, 0x2c23e35b2e3ae2d3U,
  0xbc322bd82de618cdU, 0x2d3d251c242de9dcU, 0x28d7c7dbd226c8caU, 0xddde31dadf2fc52fU,
  0x9c5e6162614f5c6bU, 0x815581a2545932bdU, 0xa69e63a964a78166U, 0x5c629eb9685aa7f1U,
  0x955e5c9b5ea081a0U, 0x65d15f535863a4bcU, 0x4fad1a9b945f97bbU, 0xa9a65c9cae5d1466U,
  0x817f7f7f7f7f7f7fU, 0x477f36817f7f81a4U, 0x81817f817f81697fU, 0x7f7f81447f7f81daU,
  0x817f7f817f814e81U, 0x7fb17f7f7f7f8181U, 0x7f813081817f8181U, 0x81817f81817f2e7fU,
  0xc5373b2c3d404b49U, 0x3c4166ca3a4448c9U, 0xc6ca3ac83dce1a34U, 0x3938cc7f2947d5e4U,
  0xa84d45c03bdd24c2U, 0x35c939353c42d7b6U, 0x32c01ccec73babb5U, 0xc6c43dd1c6371843U,
  0xd3302f31382535d4U, 0xba2cc5d4363422f0U, 0xd5cc2dcb37cfb52dU, 0x2f32dbde372dd756U,
  0xb82a38ca30dac5c7U, 0x36eb26222a30cae2U, 0x29d824c4cb28cce1U, 0xd2d330cbda2b3f3eU,
  0xc43b3c3f463e4eb1U, 0x1e4a1eca4543bce8U, 0xc5ba47b23fbc313eU, 0x3f41cf2a3e39c67fU,
  0xa9414cba3ad823bcU, 0x3fda2e384238adb2U, 0x44c73db5c838b7c3U, 0xc0bd39c0cb375d4bU,
  0xe41a18172c252bd4U, 0x192330e8172c19f4U, 0xe3e223df1ee3191fU, 0x211cea411322f23fU,
  0xce2727e91cf80fdaU, 0x1de315211e1fecd1U, 0x20e222d8ef16d8e3U, 0xe2e71fe7ea1e252dU,
  0xffffff00ffffe44aU, 0x32d50000039cU, 0xffffbd4c00000594U, 0x1a65e000005e4U,
  0xfffffcfefffff563U, 0x9b500001795U, 0xfffffb430000b9ddU, 0x9aacfffff9cbU,
  0xffffeb8c00001982U, 0x3c0000ac59U, 0xfffffe1100022d21U, 0x178f600022c71U,
  0xaeb5fffff210U, 0xcdab000003c6U, 0x18acf000041deU, 0x5760000218fU,
  0xc0be0001aecdU, 0x10eb000231d7U, 0xffffe8b90000bc88U, 0xbcb1fffffe2cU,
  0x1703300021375U, 0x29c00000757U, 0xfffff5fbffffeca8U, 0x12ebffffe1fbU,
  0x7f5f0000ac17U, 0x25a5600000203U, 0x758700019473U, 0x104e000111f5U,
  0x2d0ffffec5bU, 0x8a3d000003e7U, 0x6b40001bad2U, 0x74f700011569U,
  0x11ede61cfdfc23dfU, 0xfdfd110f0b020efcU, 0x503fb04fbfd0611U, 0x17faf32efa030cf4U,
  0x6fafafffdfb1eecU, 0x1610030900f501f0U, 0xffec7f06f1fe06f2U, 0xf21af421e9fafedaU,
  0xede781ca27faf909U, 0x4f8f4ed06e1e9fbU, 0xdf0cf4faeff309fdU, 0xf910fe050803f0f4U,
  0x6af12240639e70eU, 0xbef329cefd400004U, 0x35111ee2f1aa03e1U, 0xf747032a18da0912U,
  0xdc079badfe05f6fbU, 0x121acd08e70de30aU, 0x180a0a1f0e01e402U, 0xfff881fe05190cebU,
  0xf5ddf212e91e0cb5U, 0x10101070cec0e02U, 0xfe060b3014e62fffU, 0x8e4f9e6f8e7d21dU,
  0xf8051af408081700U, 0x20804010ceef7fdU, 0xf900fafc11f401e8U, 0xf70781f807f7fa0dU,
  0xf2faf5050cf0031eU, 0xfef9fe0304f604fbU, 0xc0506f1f70511f2U, 0x3030800fddff4feU,
  0x4c16f981c8f1fae4U, 0xf0ccf64910e0fd1bU, 0x6e50ca1d0c0be6ddU, 0xe2f7d12fe116dfe1U,
  0xf2dff52a1fd11116U, 0x57fc054846fa2ef5U, 0xf7190d4e1a551fbaU, 0xf523f09b2809d43aU,
  0x6f8eb1a1bca02f3U, 0xb2d24fa0e0602e9U, 0xf7131a96286cfdfaU, 0xd2b505667f1cce06U,
  0xf8e0fdeaf6fcf14bU, 0xe6f506acecfe0576U, 0x13edde25fe33e8d8U, 0xe9e81205db1f0812U,
  0x16f8e408fbe70ae4U, 0x7d20c1810fedfeeU, 0x30e017f0ae1e6ffU, 0x8f905e80200fcddU,
  0x6020a08fbfe090fU, 0xfeff04a913030583U, 0xfd080a0c013df10dU, 0xeff1f60ef00701f5U,
  0xf317cffd6605f907U, 0xb0c08e4fae51d05U, 0x5dcb0af2f8e4095bU, 0xd037fea1e010727U,
  0xf6041dec02260adfU, 0x70602f52eeef706U, 0x20d165f1f1d16f1U, 0xe5031ff5f6142209U,
  0xa0e05e8af04f303U, 0xf7041fef0a272ff3U, 0xb50bfaeffdf911a5U, 0x90ee703f813f3f1U,
  0x114093403090804U, 0xeb0208f5ed02faf6U, 0x70704d5f4e9ddf0U, 0x906011b2f7fe80cU,
  0xe005c2250af80ff0U, 0xcd178f21f806cbefU, 0xfa5521fed226e025U, 0xe52701e8ee27f0f4U,
  0x279012fc5230e8d6U, 0xefe61c0bf822650aU, 0xbb050f022f28fd29U, 0x1312eed505f5815bU,
  0x1a0200f601fbe709U, 0xf9fef6037ff904feU, 0xfefaf103f305040dU, 0xfcf50203fef3e7ffU,
  0xf2fb10fefaf00ce8U, 0x7fd01fbeff702U, 0x1eafe0b04f4f409U, 0xcf20b1501030afdU,
  0xe03ee1201f7f300U, 0xfce4f2fbf9f50007U, 0x41305e7030b0903U, 0x308fb267ffa0afcU,
  0x1e3ff0000fdfe02U, 0xf9fcf2081302fe29U, 0xf9f6f6fefb0d03fbU, 0x3e8f9fefcfe04f1U,
  0xc8dc39f2fdecedf4U, 0xf303f302f7141902U, 0xf7d60f0a3835fdfbU, 0xd9811913d0c01301U,
  0xf31bcee188cd1babU, 0x8e0ffb0d52fdf505U, 0xf503fa08f22bf611U, 0x3d913e9faf2f3d4U,
  0x6fbe0110a810cf8U, 0xf2401309ef0b1105U, 0xf80613ba10f9faf6U, 0x4f4e4413e1ffa03U,
  0xfffdf80c0ff8f707U, 0xecff021d170cf920U, 0x5fdf20eeafef0e5U, 0xfdf808fef413e501U,
  0x1f2fcd60122fe20U, 0x201f3f2020ffd19U, 0x11cc12a9e034f522U, 0xe42afc0f3cecff25U,
  0x5e503ff0331f6f0U, 0x21ff3ecd1f7d27fU, 0x900f1f70120eff7U, 0xf4fefd02fafe02e7U,
  0x81ece4ceeef0e916U, 0xf6d8f5ee1f01270cU, 0x21ddfcea580a1febU, 0xf0f4f8fbf40605U,
  0xf602d3fdd6081373U, 0x28f41408f8f0e0f7U, 0xd91a12f6eccac2faU, 0xfe0105f4f30d04f9U,
  0xf72d1df2f410d506U, 0x1a0bc1fee62a2312U, 0x2507dffdec00011eU, 0xe6a5f9f1fd221602U,
  0xa2ea01f7c9ec81f7U, 0x2e6f245f9fd0fU, 0x1030a0a03f000e9U, 0xe7f7f7f1f90cf603U,
  0xb0cdc090b0203f9U, 0x7e2fb12ff0602feU, 0xf91002f60d1bf404U, 0xf1eb050633ea0cddU,
  0xf9fee902f2230303U, 0x15f80b8104040305U, 0x7f30802e84b0306U, 0xfff4ee12fc0b0d06U,
  0x40cfa3f6723ce1daU, 0x7320fe5fef41dc7U, 0xe410f91973cb1dd8U, 0xe13200234c47e809U,
  0x71d5bcfcffe80912U, 0xa8f2ee2119e9b411U, 0x43fc10f78146f086U, 0xf84b2372bf114b85U,
  0x220aebe804e01005U, 0x6ebe5070dd3ec12U, 0x1d2f80bdb16f3fcU, 0x177ffb140f0e0428U,
  0xf501ebf417fb1b00U, 0x45fc1702f606da09U, 0xfa0414f93dd21f0bU, 0xff0dfed8ecf1050dU,
  0x1b125a0e1503ff07U, 0xeeec12eb090bfa05U, 0xf9e50bfcfbef0236U, 0xfd150a060502fb14U,
  0xde200e47f06ffaeU, 0xb6f2f0010602ff13U, 0xfcf3f610fd691cfaU, 0xe910161bedfc190bU,
  0x8bf651c4040cf250U, 0xf825f83fd8d1213eU, 0xefcce9fcda5af8cdU, 0xe896f01a9de50f1bU,
  0xd6ff311a43a308f7U, 0x6de95ea857c67fddU, 0xe10a0c4162c2f2f1U, 0x341ef8ef03d823feU,
  0x20006eef6ffec02U, 0x7f07e000fc05f402U, 0xfcfe0e0d08050219U, 0x90104f5f9f8f602U,
  0xf4020302020af50dU, 0xf703020dff06ff07U, 0x1fe01f50bf807fcU, 0x2fd0e000102f3f6U,
  0x3022df2f4021719U, 0xf8ebd813d2ece309U, 0xeb26f30386eeebf5U, 0x441219fb1a29f21aU,
  0x11faa1d7f4813b8U, 0xd6fd17e809df1b25U, 0x9ed101e250e33faU, 0x3dd13fb34ecf514U,
  0xeeffdf13e46ed30aU, 0x2ccb060f16dabcdfU, 0x25240254ee81f60bU, 0x15ef0d43c8dd0811U,
  0xf5e1f9fcfa35c632U, 0xcbc8d94913fbd7bdU, 0xd004d18cc1ff70aU, 0xe5fc2221dbeb0beeU,
  0x32fbe40ccdfab1f6U, 0xf2fb1db7e50905fbU, 0x29d936d608032114U, 0x1ede811000259e4U,
  0xf50ac2d70e1a0dd0U, 0x2c08ec08f5e9c7d3U, 0x2181fef70703ebdeU, 0xcec8adfa0909161bU,
  0xfaf804f1097001dfU, 0xecffeeeefe3ddfcU, 0xec17f13df9f3fbedU, 0xf31d1881c2e7fc05U,
  0x710fefcf311263cU, 0xf9eff33de208f7dcU, 0xfd0ae3dedfddf3e1U, 0x10200f14fbdcf60aU,
  0xfeec04032234fd00U, 0x13eeeae9f80bfafcU, 0xf62b082f0bc80503U, 0x1d93bcfac120302U,
  0x1c001befe0e70c2eU, 0xb604007feb0b12d8U, 0xf9e01d0111d31df0U, 0xf2f11306fcf20afcU,
  0xe681d22511fc20c0U, 0xae50509f51c0ae6U, 0xf461f70b0800f4fcU, 0x20a6fbeff3ffe8b4U,
  0x1d25f607f8040236U, 0xe0efeefad5f81321U, 0x70fecfb9917eae3U, 0x2d8f5210d09fee1U,
  0xf2f7f7f7a8f80202U, 0x30702050afdf604U, 0xd4fb0301fd0703a4U, 0x30812f8f8fafa0fU,
  0xfd05f40ffb0af900U, 0xfaf108f8fb05e2faU, 0x9f5fdf4ffeaf6f9U, 0xfa020e05167f0f05U,
  0xf3f802346107e9f3U, 0xfe10fa06fb1f16f4U, 0xfd10efdb090d137cU, 0xffe37ff60606fd06U,
  0xedf4fb12fef9fceeU, 0xfcef04ec06f30ae7U, 0xfcfcec1af2ec0b09U, 0x5eee91ce527f606U,
  0xebff1500f0fbfc02U, 0xfe0ef70b0404ff0cU, 0xfe00fbe4092611f4U, 0x9f0ecdf1ff6f71dU,
  0xf713000c01127f14U, 0x11ef09e0e4fdf322U, 0xe100506fb08edfaU, 0xaff0a0e0313f4f0U,
  0x1e04e10005f322f9U, 0xf4eb107ff90012feU, 0xfc00dbf10309f7fdU, 0xbf80c050203c30eU,
  0x111300100efa0fefU, 0xcf91b09060df6ffU, 0xf85c04f4f81003f2U, 0x608170e4405fb0cU,
  0x6faf7030afbf8e7U, 0x5ff030bfc09f9eaU, 0x71cfe960711ed02U, 0xe70ffc0ffe0aeeddU,
  0x8f4fb0000e905f2U, 0xfe04fb5ff8f20d7fU, 0xd03ecfdf9e1fcfbU, 0x1edfbf501fe0001U,
  0xfbf70afb03810905U, 0x63bfb01f7000508U, 0x6ff030902cf0701U, 0xaf4fffbf10b0403U,
  0xf1feff070804fafdU, 0x1050208140903fdU, 0xfefe010ef9f003ffU, 0x4f2f7fef2fd02fdU,
  0xe9131f03ef05U, 0x3020aedfb13fd02U, 0xfefa01f9ed000430U, 0xfafa7f00f9fe030cU,
  0xf6faff0902fbfdedU, 0x502fc00f403f2f6U, 0xef9fefff5f7fcf8U, 0xf5f5fe07f74303ebU,
  0xc9031f81ebe5be0cU, 0xe336c3d511fef7d6U, 0x223ee6012b21e4cbU, 0x2058b427e9b3f0a7U,
  0xe33044be101fe3dU, 0xc0060dd894f30c1bU, 0xda0ee364c5eeae46U, 0xf925ec98e428a3f6U,
  0xd1ec143113fb0ef2U, 0x30901f0e87f0ffeU, 0x200111fdf916100cU, 0x7eb0504f1f6f802U,
  0xfe18033f01f4071fU, 0xfcf3fffcf5e9fe04U, 0xfffe039405f1df03U, 0x9000127050a040aU,
  0xd6cf5bdbe31941d7U, 0x4f2100f1c090af1U, 0x193c04f677d53513U, 0x77f4050045f20d07U,
  0xb390fde9f97ff8ffU, 0x12ff0904007ee1f7U, 0xf4e7f716d7e410b2U, 0xf059b31cebf7ef67U,
  0xff607fa49fcef09U, 0xf9fafafcfed71113U, 0x59eafe0806000d7aU, 0x1fc0601f4010b0aU,
  0xfaf709e906feff06U, 0x407eb09ff0b0713U, 0xf708015911201bf1U, 0xf706f2fafe81f7f0U,
  0x556867e01707030cU, 0xddffb11f81f1ce8U, 0x2533a7032f030d04U, 0xffecd2100c50f4f5U,
  0xdceb41fb0f22f450U, 0x270f140b327f00eaU, 0x4f5fe19dcb3c715U, 0xe4603cbee9072a17U,
  0xfa3b1ff5e8fbfdf5U, 0xeff80404f30df5f2U, 0x17dae704f9f80e02U, 0x28ddf9ec131809e8U,
  0xf9ccc703f2140b19U, 0xdf2c0106ddef02U, 0x2ce6e730f8f0f406U, 0xf481f612f310f4f9U,
  0x9fb7c6fe09d67ff2U, 0xadf15be1ed11703U, 0xc3fe1e4383cdbe5U, 0xbc28ecfdd10f05f8U,
  0x74bccef765a30561U, 0x7030dc653e6cd3dbU, 0xe00ceee6eb608fd6U, 0x2a4a54124ced3485U,
  0xdf21390af800fb1eU, 0x3f118ed16050f18U, 0x8efedee1d1619edU, 0xe19e23fdfe030807U,
  0xd102e60beaf9f51aU, 0xd9ee19ec7ff02fdeU, 0x1dfeb0907da07e6U, 0x9f8ed02f4f6210bU,
  0xf21e53bbf20301f1U, 0x724221b19041ff3U, 0x262fefc09085708U, 0x491609e8fad539c5U,
  0xce201615a20102c8U, 0x69d00e1fdff07fe8U, 0xe8e8f041043fffefU, 0x9051a2601fd9c0bU,
  0x31b88117f3dd15ebU, 0x6dff9fc02ece8e7U, 0xf64f150a2bdbff0dU, 0xfc0fec1228c4f7d4U,
  0x3f17f0ffe748fd54U, 0xa00ef94bb8fff506U, 0x121af8e0f86506f6U, 0xf70828ec0b016cU,
  0xcddd1dc0eee022efU, 0xab2ddfe21c5b5e6U, 0xd781f7440d03b1feU, 0xfe9f1e0f1c0f0e25U,
  0x2febe7fa16f0f88fU, 0x444113552dd5bb45U, 0x10f1fd7e029fb43U, 0x2c090ea80efb5463U,
  0x81f332d61621c722U, 0x1b176fee0a163708U, 0x8f6e3cb03fd2914U, 0x16f3cb261b33ed28U,
  0xd35c62cd4949fce7U, 0xfc1917f70be126c8U, 0x26300323dbf23643U, 0x64d6028d92e38d6U,
  0xef3611c80d2d7d4fU, 0xfa3c5a4ce2d34235U, 0xf3e321c937c2600bU, 0x2629cfc0343ddc23U,
  0xf116b8f3d528efceU, 0xb6f859d2fb2d37daU, 0x7fff19ca06fccc3aU, 0x2bbe3856c2091139U,
  0x813906c41eec16fcU, 0x11fe352e04d60001U, 0xe9f48dee4406f2d4U, 0x1fc2216e0c83bdeU,
  0xd908441e362409dfU, 0xec191fe70168e9fbU, 0x251afbe5d6ef26fcU, 0x1a0cda2516eb3cefU,
  0xf404131e0e00e6e7U, 0x5cf72df2d93502eaU, 0xffe170eefd7017fU, 0x7b82f2117f3ffd3U,
  0xedd203eae9da4716U, 0x16de000c01fbf8U, 0xe9ffe1e2e9f1fb07U, 0xd5d9436dd60911eeU,
  0xf0fa0727f5fb0605U, 0x701ff2ded7f15f1U, 0x3b07fdfe09fd0fcdU, 0x25fafb01edf8f70dU,
  0x331fe24ff06ed12U, 0xfa0126fcef0ff3fbU, 0xfc071ed814ead500U, 0xe302f81cedd3fa13U,
  0xed08ddfbf4ff041eU, 0xe8140c00061f0326U, 0x11d1e114f8f5f7daU, 0xf77ff8f0e424f817U,
  0xfaf008e723f5fdd6U, 0x4918ffd4ce02dbfcU, 0xfd0802215cbee714U, 0xf600e1e90e0bf742U,
  0xfaf7fe040dc3fe01U, 0xf614f60200f60afdU, 0xfaf608b4ec19fe11U, 0xe91a01174212fe01U,
  0x10e9f0060c1b0ef6U, 0xbf4f8091b02017fU, 0x602eae30202f5dfU, 0x11106f6051a1211U,
  0xfff902fffefef3f4U, 0xfb02fe13ff0403faU, 0x20011feff09fe01U, 0xfdf9090804041bf9U,
  0xfb0bf900fe0000fdU, 0xfe0afa0002f904feU, 0x1f8030efbf4fbfeU, 0x81030b031c07fd00U,
  0x44e468f71414e8f5U, 0xfbfa1801fb1edf00U, 0xf11815dffa0b10U, 0x114100b0b0f1a07U,
  0xc0204177f0e08d7U, 0xcd05f212310c0a12U, 0x4fc072217621ff6U, 0x8e3123409edf51dU,
  0x402fef7fd7f08fdU, 0xf8bdfd05fc02ff07U, 0x7f9fefe083a0afdU, 0xfd0c050c02eafd01U,
  0x8030002f70a05f4U, 0x19fe05f7ec010809U, 0x9fefd15f00a04fbU, 0x5f9fb0200fb0305U,
  0xfbf405ff150ffc03U, 0xdcfce50df3f6f702U, 0xf708fa2408d8fcefU, 0x2ed0954cdf5ea05U,
  0xf6fceb1cf2167f0cU, 0xeefc0c3504f2ecc2U, 0xdf30deeebee04f7U, 0xb0c1520090614ebU,
  0x8fe0d3015091005U, 0xb0a23fefb5e0710U, 0xd8f90cfa08041005U, 0x20220fa0cfbccfbU,
  0xfa09f335f60e09faU, 0xf30804e4f7f6f7f8U, 0xd050681feddf2fbU, 0xff09f22b02ff28f6U,
  0xf70bff12e703f204U, 0xfc09fe0e0d0d0107U, 0xffffc0305f2020dU, 0x407fb060e0025ffU,
  0xfe01fcf7fbf9010eU, 0xf801070802ff0f01U, 0xceb03f9ff091c06U, 0xd8f50cfc7f090010U,
  0xaf908f1e1c2182eU, 0x43616ea1bf4f7ffU, 0xdcbfc63d081f142U, 0x22903dedaf50050U,
  0x1aecf9db0a46ea1bU, 0xde140a03e00f9cb9U, 0xf9f80bd304f60906U, 0xf9fe12f8041706e5U,
  0xcf20d7e5f400eefbU, 0xf7db0bdd1bef0eedU, 0x1fd7dae541e803fbU, 0xf2fdebfc14f625f2U,
  0x216f50e8127eb35U, 0x1bf6fe05d4f3c1ebU, 0x908e2edd9cde4ebU, 0xe2e7e80f1724e0bcU,
  0xf2f6232512fb08fcU, 0xfffdfe07fce1faf6U, 0x81f708040104fc17U, 0xb02f300f703f0ffU,
  0xfd14fdd2f4030e1eU, 0x406f9fff9fb00f7U, 0xfa00ffed0bed0906U, 0x5f71304f90afcfdU,
  0x1cfed5b0feef16f3U, 0x7fefa0b0feaffefU, 0x7ff3140709150a1aU, 0xea0e2dfb020bfaf7U,
  0x5ec05fc18ee0fd6U, 0xef5e11607fcfa02U, 0x516fc51262dfb0bU, 0xf80df8c10cfdebf4U,
  0x10f37f26ec0d0702U, 0xf9031116f212fbf0U, 0xdeadece0190721b1U, 0xfaf01efe04e4fb03U,
  0xef1cee11fffffb20U, 0xf60f02eafbf4c0d9U, 0x11050fc108edf5fbU, 0xf810da34f40936eeU,
  0xc6fc1fee02fb00fbU, 0x8106eafd032227dcU, 0x619efbffdfb2804U, 0x18c12502f7e4f9d0U,
  0xc3f422ea00f38d30U, 0xf9f6ffe802010fe9U, 0x1c0d10cdf50acfeeU, 0xdbe61a28ebfc0ecbU,
  0xfcf613fc01d705feU, 0x933f40e0c120afeU, 0xf7e6f5d50c7ffe01U, 0xf0f3010eeffffffbU,
  0xff10fd01fdfa01eaU, 0x230a0fd7eff70430U, 0x70600091eff0301U, 0xf81bfdfd0102fb1eU,
  0xc817e9c30126cef5U, 0xc30ce602fdfe3124U, 0x4431a3d1100fa2aU, 0x1dba81fcd7040707U,
  0xf8f228c422eae7d3U, 0xf602080538033a20U, 0xe4ede96911421a06U, 0x12f3fba600bee223U,
  0xa4fced003e40ae7U, 0xf5e93d2ddd02eff3U, 0xe4f6fe20950aeefbU, 0xe6c6f40608f5e410U,
  0x5df150f371e04b9U, 0x31c1e212e7f0413U, 0x79ea05de3c331b1bU, 0x1aefc945fede2d21U,
  0xfdfd06faa2fa09faU, 0xb0a0c13f2120bf8U, 0xd90a0609f30800afU, 0xfe051700eef7f907U,
  0x7120806fcef03feU, 0xf6fcff01f5ff0ffdU, 0x3fffec7fbfafc07U, 0xf5f3f1f50f7ff9faU,
  0x1f0f9db0dec1cf2U, 0xfde60d1fff0bfaeeU, 0x15ead8072704ece1U, 0xf3060008fafd0be8U,
  0x87d20ec190d0712U, 0xebfefae7e326130eU, 0x7f08151918defc1cU, 0x18e2ea30fe01f6e3U,
  0xf70d7f00e70dee00U, 0xf0f9f5e4ffe9fbecU, 0xfcfeeae9a100ecceU, 0xdfca0d02eef20813U,
  0x7f60c2c07e61f2eU, 0xe2e303e419f320fcU, 0xf70906ef07fb0e22U, 0xfbefe521d9f1d0U,
  0x3507112af7f70fe8U, 0xfaf7fbf1f9eee70bU, 0xd9f90bfc29f4deebU, 0xf4e5fc0d0508f3e9U,
  0xf1f41fee811dfae1U, 0xf904f9190eff21e8U, 0x25f209e5fcee2b02U, 0x2ecd3c6e7ef1cfbU,
  0xfdfbefe820fd6afeU, 0x621f3f5e729ffU, 0xfbc3e3cb50f41fcaU, 0xdd07b6141bd0f2f1U,
  0xfb26ff1910e5f948U, 0xc5ef0a1a103abcc8U, 0xdf2508eaf81581e1U, 0xe7482049031636c8U,
  0x2d08495623feed07U, 0x140607ebf4d8fb0cU, 0x81fb0f02f2010013U, 0xf8ff0bf7070411fbU,
  0x6fefbccf204fc0dU, 0x9fde8ef1319f604U, 0x6ecfdfd16e90e07U, 0x6fc120bf8f00d02U,
  0x1ff4f6fae5dcfed5U, 0xf4f902fff00bf7daU, 0xf7241bff1bebfb20U, 0x58115e73ce60001U,
  0xdcff1014e9322326U, 0xb805db1436080e0eU, 0xeeedf4995213d9U, 0xebee1915efeefad5U,
  0x7fec2574ef0529e1U, 0xf7ff153907062504U, 0x4df1cca180208c4U, 0xf3be570228f2deeaU,
  0x2af6cdd1e3e30d37U, 0x30e7eff1f007f3d3U, 0xfc21f2d5d9cd0706U, 0xf4c6c1fa080441baU,
  0xaf3f02b0bf609deU, 0x1219e300edf7f9f9U, 0x5e2480f6021fdeaU, 0xee2cf7f9d8eec3dcU,
  0xf201040251edf9cbU, 0xd21cfbe0be81bbf8U, 0x8ec0602f1c4f0a8U, 0xfa071424effcf414U,
  0x601d9c15ea2af4e6U, 0xf626f7f5d2202909U, 0x3626ff2ff6e50f06U, 0x43712f00e4302e2U,
  0xede7eff77fe9044cU, 0x45eec5d40e170d13U, 0xe21df504d6ab03daU, 0xee05f91af9eed921U,
  0x19bcd7090a1af726U, 0xfb1f350df6eaf91cU, 0xdefc7ff5d6ee07f5U, 0x19fc150b0907eb22U,
  0xb06f0090e14f6ffU, 0x1af503f718f618f9U, 0x2cf0f7e706dc28f4U, 0x7bd3b1f24f040efU,
  0x8de7df92ec03220bU, 0xf8fa041e3c0f05fdU, 0xfce8e5d47f0e02aeU, 0x112cf60af9eb0fefU,
  0x423ff2ccfecef7bU, 0x2911161bec03afd8U, 0xee0fef0fd2ea0bd1U, 0x318fe13f62ef4d8U,
  0xe006f9e109fbfbf0U, 0xf806ed130d010bf1U, 0x460af7010bfa2debU, 0xeef131e4090816f2U,
  0xd0ceff60610f30aU, 0xdfcfd09ff07fb07U, 0xeefff9081106be08U, 0xc6f80aec027fef08U,
  0xe9145ac80bf64633U, 0xecf6f710ebfbef1fU, 0x981fef110f2d5e7U, 0x9180bf908d7f70fU,
  0x9efca11cdf801efU, 0xf41c0fff39a9faU, 0xf509f1121750f928U, 0x1c08f8e22bff1205U,
  0x1905162d1d0104fdU, 0xf3fffb06fbdaf6fdU, 0x81050b0d0300ff1aU, 0x1080efc00f113f4U,
  0x60afecdfaf5fd01U, 0x8fef800020a0bfbU, 0xf7fdfceeffec0ffaU, 0xf0f8070902e9020fU,
  0x26f82c47f10a3ee1U, 0x120d170018e340dcU, 0x905dfe41a0123daU, 0x29b30b5517062900U,
  0xf60ff51029b0fe2cU, 0xfbf6121e7f0211d0U, 0x1605e0f7ca0208d0U, 0xfad60d26f5e80e03U,
  0x1a2ef4150d331109U, 0xf8f6fdfd09f92723U, 0xffddcf080df120feU, 0xaede51317051105U,
  0xcc0114fb381cf00bU, 0xceeefe097f18f2f8U, 0xaecfd081707f9ebU, 0xf537eef3f2040f29U,
  0x10fe11162afdff01U, 0x1108f1fe06fc1607U, 0x10fffbf300fe0e15U, 0xff77ffefffb0afcU,
  0xd170700f60a00faU, 0xfc10f9ea08fdedU, 0xfd140217f1f7a10cU, 0xf60af1fb072d0af3U,
  0xf9fce8fb090f07fdU, 0xaf70bf8f5f91efaU, 0xf5fbf30b05030aecU, 0xfa07057ff90bfef1U,
  0xefdea0af80de912U, 0x706f7f3f400f709U, 0xf7140af2fe09f900U, 0xfd01051d0211ff0aU,
  0xff8f30b0df7f9f8U, 0x2fbf5fdf4f8000bU, 0x7180a03f40f0007U, 0xf7ff7f02fd0e160bU,
  0xde9060608fe0705U, 0x1bf6fa0507f00403U, 0xf409f9350312e9f6U, 0xe40507ebe2f1f009U,
  0x10fce31e0a7f05fcU, 0xffce0103f2f7fa08U, 0xd0c0313fdedf2f3U, 0xf91314f7eb07f4faU,
  0xf40afdff00fe0304U, 0xfe0b0b23ec04f7c9U, 0x100106f7f30dfff1U, 0xa050407fafd0bfaU,
  0x8af960f8000c1fe5U, 0x60ef2f802e42efcU, 0x4202c2f9610b1cf1U, 0x1938f807ecfa0ef4U,
  0x3310c074915dfb7U, 0x81ea190eef1dda0eU, 0xd60e151a0d71bdfeU, 0xe4381d68e908fef2U,
  0x30da2e1b1d021ef6U, 0x28483520fe1d3d03U, 0x3101107322448f2U, 0x1a2cd16c9a70ee9U,
  0x356d51bf5bcf702U, 0x7f170c3022e2e4e5U, 0xe22cf80cc7f5dcebU, 0xae8b706f60804f7U,
  0x1a037f53e0e524f5U, 0x9d6f904e41305feU, 0xf3cef1fb1b11ffceU, 0x11fe04101c07f5f4U,
  0x1c1c0e0536d21e1fU, 0x43082f183aff01f5U, 0xd01a00baf946d7ffU, 0xbbef50efd0af31cU,
  0x7f541c0703140132U, 0xf33f053ae1e9e51fU, 0x2b331f4d600d1faU, 0xce6e2ff1fe2021aU,
  0x5192c1ac319ecd5U, 0xa21a06fcf02d10eeU, 0x161117e24c1358f2U, 0x3eed3c7fedcf22eU,
  0x5cdc5b27b7df16d8U, 0xf6061336061eebe3U, 0x2391408b205e5b7U, 0xd618c5f6f717ed15U,
  0x171721273adef27fU, 0x37f9121c000b3b1eU, 0x538f9d0be453d13U, 0x106e2bef8edfef5U,
  0x141213d7fd147ff3U, 0xa2adde14bf60216U, 0xf007fbfd140409ffU, 0xc60620fdfa0704f9U,
  0x1908dafc11ed03fbU, 0xe8ddbaea0a3a0703U, 0xeccffae6f1ea1ff7U, 0xb34e4f63cf5f7d9U,
  0x1030ece618ebd909U, 0x2ccb352053f1e422U, 0xe1e4e418d1ccdbfdU, 0x330c091006457f02U,
  0x4829090be41e11f0U, 0xff2203181407fe28U, 0xd2fcf4e3f3240c14U, 0x11a8fe003eb3cfcU,
  0x81490c9918f8fd0cU, 0x212e33eb141b1606U, 0xeffad6b70625eaU, 0x37dcccd10537f720U,
  0xfc3415e6f310e4c6U, 0xea0833f70512fcf3U, 0x3ada1456ef0a26dbU, 0x192f256f3217e40cU,
  0x5c4f20dfe3803dcU, 0x11423f3eb0361c1U, 0x62e13e808fe6f0bU, 0x46f9fdef0e7ff3ccU,
  0xeacbe407ecb9e1fdU, 0x30e0c5fc0afb4af9U, 0x5f5260bf3f415ceU, 0xeae01718eeffef37U,
  0x4b027f3ef8f9f2fcU, 0xf3f8e5f71f21e60aU, 0xfb0a0d08eaf6ebffU, 0xfcfd14fcf9fb0b05U,
  0xa0c0f2c17ee0a27U, 0x1d081107fc01150eU, 0xe30dfddced2b0a06U, 0xebfbd8e510c10009U,
  0x1314fa0e0bf21056U, 0xe03ebfce804057fU, 0xde611ecfafa07f8U, 0x8600f706ef16314eU,
  0xe0d93cec20eef7feU, 0x3d0271e5d3114deeU, 0x3d6ec1509e806e6U, 0xa35c21bfc00f423U,
  0x10180ff0fc2f7fffU, 0x84de91e02ef10faU, 0x11d4230a2cf0ff0bU, 0xcffc0cdf1320ccf3U,
  0xef21260c01fe0dd4U, 0xec2abdeaf988eefdU, 0xf00010bf9fdf3f2U, 0xf3a4bad3ed05021aU,
  0x15ed122ff7f011edU, 0xf7fd032a0c7ffcfdU, 0x4a14f1070604f5ddU, 0x707f4f7faebf3f3U,
  0x80d0612fffb0f0fU, 0x28fcf400ebfe0706U, 0xef2006bd000fd305U, 0xfcf80f1224efe801U,
  0xdd21014f318ec0fU, 0x1c80d1b05f4011aU, 0xe8cbf5f021f4d0e6U, 0xf87f22f826c7ff08U,
  0x3802ec1ed3100270U, 0xd50de000c1f2c31bU, 0xe8030dd90d2ad923U, 0xffc504cd1e203bbaU,
  0xdc0d20f300ebff00U, 0xfec61601ff0e0cf7U, 0x1a012af5232e1604U, 0x24dbfa00ea7f0cf5U,
  0xd9e909f1319e13e4U, 0xff13c9edf1f8faeaU, 0xfb1ef71366a90504U, 0x1cde8f3f709e5e3U,
  0x7b7dd093affe50dU, 0xcbafce038f6d01bU, 0x3fb0d1e0a97ee13U, 0xe072fc125b292220U,
  0x1dc108fc1df3fb39U, 0x13dfd72a81e59e37U, 0xf90405fc134c24f0U, 0xc714fb33f9ea0e97U,
  0x4f54fd1e7f714f1U, 0xf80cf6010d100befU, 0x2703d1f0281707edU, 0x8f7b8f6f5f20f06U,
  0xf6f5fc3925d2fd7fU, 0x4eff0d1114fee4f1U, 0xc80bed41e127e9f2U, 0x420040503f3e8e6U,
  0xeef2182a10070d03U, 0x20219e5f3da0a02U, 0x81f208ed1910fffbU, 0xeafcfef8fdfcf101U,
  0xf604f6d5f1f40510U, 0xfcf4f7f7f6e9f3U, 0x6fafee1ebf600e1U, 0xd04fa05f509fdeeU,
  0xd62081ff0cf420f1U, 0xe4f73827debf14f8U, 0xc90dfeddfe0c063eU, 0x2f2e51ffb22e31fU,
  0xf51e089abff506c7U, 0xff141fdb05221aefU, 0x22191011009e1201U, 0xf4fa25db111b0317U,
  0x3c04f6c73006ebfbU, 0x105cf2715a009e4U, 0x8118e5101106d6e6U, 0xfe059d0aea0afed4U,
  0x3d2e1553040e00f8U, 0xdd0b18f2e71ce20aU, 0xd55f277d32bd311U, 0x152014eb46d5b60eU,
  0x4824337f04f43cfcU, 0x1af8fe13e90407e3U, 0xc9d5fcf9fef71fe2U, 0x11b1af912090b10U,
  0xe1ae9f104f1ed01U, 0x54ec09f40b15f307U, 0x70a0dbdfce20afeU, 0xed3ca1804fe1dfeU,
  0xabdcfe0bf002c01cU, 0xf60af0e38106ff3aU, 0xdcf19db10f8fdcdU, 0xecfa072721f30bf9U,
  0x18b823c101f50939U, 0xd3200cf501fecfddU, 0xedde4a0cf7da0c0bU, 0xe6f70c110103095aU,
  0xdf4f51a12fd08faU, 0xfcfbf814097f07f4U, 0x3b11fb0706000505U, 0xded0cf5fbfbebfbU,
  0xfb040624f4f905f2U, 0x30008fc14f302feU, 0x60efcc809f8f908U, 0xfc0f0d1310e5fb0eU,
  0x57f65425f3e2ec14U, 0xde11efdf707ed04U, 0xf2d50c06dfe7070aU, 0x29292cf406fe05ffU,
  0xb13e2f87f32f8a7U, 0xcb001b04f70a031cU, 0x33040722216b0116U, 0x4fd03692aeef8f3U,
  0xb3054fb0018b509U, 0xf50c06e9dbece62cU, 0xdd0eef3bbcf6cdddU, 0xfa7ff6f7f8e2e208U,
  0x31d15e92814fdeaU, 0x5d0810f0f9fd060aU, 0xef0e0aff7a9e2d20U, 0x1218f5d723f9e912U,
  0x4192508f9e9061cU, 0xeef71106f7fce8ceU, 0xf5bc04f8df03f0dfU, 0xf9470818fbb50a7fU,
  0x8140405e31aeef3U, 0x251737eba6f1b808U, 0xe602411038e2d728U, 0x1efd011320afd0aU,
  0xdfae31702110ae8U, 0x30706f1f5fde7e7U, 0x3e12206ff040102U, 0x157fff0cfe04dfdfU,
  0x1006040119020c0cU, 0x27fbd700fb08f612U, 0xed1ff01302f60107U, 0x5f924f507fdfdU,
  0x2d00f2dfeff0130eU, 0xe8f004fe06fbfa2bU, 0x80cf9f4c4df08edU, 0x191defe1132cf8e8U,
  0x151ef9301d15f27fU, 0x5fa200ceefb1205U, 0x7fb0202b727f107U, 0xd0d060bf20ae6U,
  0xf402faf7fe060003U, 0x18fcfd0bf6fbf7fdU, 0xee210dfa02cadff3U, 0xec0507fad9dbf1f1U,
  0x5fff2000e1df4dcU, 0xefff157ff6f9090aU, 0x601fe00fbd2fb06U, 0x10efec020bfa0903U,
  0xed1d52ee10dadffbU, 0x1ecbe211e412fcf4U, 0x2ff2f00a3af2fb0bU, 0xedbe362a15170700U,
  0xffee0f0fc41201dfU, 0x9f0c13502d0dec29U, 0x50f2b3f167ff807U, 0xe2fcef0bf0fcf1U,
  0xb1bd6f9061a0d03U, 0xf5fb1dec06d5ed1eU, 0xe3d10c11db03e4e6U, 0xf57fe906ed190d23U,
  0xf9fff7f912fd9ad6U, 0x48f72af8dcf0ed00U, 0xfbe81af52ce20705U, 0xb0affe10ff9ed1dU,
  0xfcfe0002e4fcfd07U, 0x207ff05080a12feU, 0xa010a01f90410f1U, 0x3014bfef90006fcU,
  0xfe04011801fbfaf9U, 0x5fb04fdf8fffc09U, 0x4fef4f9fc01eaffU, 0x104fe08f37f09f6U,
  0x50e5457f471b01e3U, 0xe00e1518ff31ff04U, 0xd50a00f3ffdd291eU, 0xe9c15ad40ef40036U,
  0x12f1e31af91ebd26U, 0xe5f2ff033801dff5U, 0x26fcfbb39303fbf6U, 0x1d6fd3fc1d61fe4U,
  0x25384a16edeff4fcU, 0x17fa0a44030100e8U, 0xb0988d47ff50c06U, 0xc50719e40246f80aU,
  0x1b2dee0b0ff8e009U, 0x160a12e9c138fec9U, 0x234700b1d7ece1b6U, 0xcfebe4f725df18efU,
  0xc238f2e16f64617U, 0xf9f303edf823dd20U, 0xd1a7dafc2cd7154cU, 0xf2e7241c2b220413U,
  0xf30fa810810cfdeaU, 0xf00c1fe33c08b7eeU, 0x27c706c31cba1cccU, 0xd0b5f3ebc9f10417U,
  0xee04f70a0204f2fcU, 0xf9fd0a0bf005f9e8U, 0x6ebfbf6ef0205ffU, 0x1415f9db011df41eU,
  0xf5fc05021005f51cU, 0xfff8f604dcf40802U, 0x1ea810b030715feU, 0x160afbe7fb1018U,
  0x2f0e4c7fe0cfdU, 0x7f7010e060304feU, 0xfefffbf40c00f2d2U, 0xfeff22000303fdfdU,
  0x11001fbfc02fb02U, 0xfd050504f9f4f9U, 0xff05ff07fd05eef6U, 0x10df6010c7fff03U,
  0x538413d8ff0c8c00U, 0xe6f9a41afc01fd28U, 0xf9e401fa7fe6d9faU, 0x5d33f90010bc6bdaU,
  0xca43de081fe515f9U, 0xc70352dcd8defc02U, 0x940bf600bfd3f135U, 0xe3f4fff09d0bdcf0U,
  0x2521ffff9fdeU, 0x7afe00011034U, 0x1cc1000001beU, 0xffff425000000467U,
  0xffffc705000067a4U, 0xffffe10b00003b5eU, 0x28a600014585U, 0x782700002eb1U,
  0xffffe5a30000c5bdU, 0xc09ffff799eU, 0xcf3300002248U, 0xe0afffffee8U,
  0xd5a100000cdbU, 0xbb4d000087b9U, 0xa3980000546eU, 0xffffc284fffffeaaU,
  0x1186ffff7a0aU, 0x2cc600003303U, 0x3e21000075eaU, 0xffffbfe100003b63U,
  0x6343ffffc2c3U, 0x8d7fffffb4a1U, 0xffffe436ffff8a19U, 0xfffff90400009d09U,
  0x6b9b0000cd9aU, 0xfffffb72fffff8ebU, 0x97400008d3fU, 0xffff7dd400000b91U,
  0x23e1ffffe4eaU, 0xffffc8d300006156U, 0x118630000bf58U, 0xffffccaa00009990U,
  0x100380000615aU, 0x17f68ffffe848U, 0xcaae00003decU, 0x9f75ffffc944U,
  0xffffb99b0000da27U, 0xcd81000069abU, 0xa9d700003296U, 0x77aeffffd37aU,
  0x24aa0000619aU, 0x808e00008f49U, 0x4e2000048bfU, 0xffffe8b8ffffb242U,
  0xb07ffffbb96U, 0x305affffc123U, 0x149400004fe5U, 0x4998ffffae26U,
  0xbf6600006e76U, 0xffffe0d400008bb9U, 0xaa3600001320U, 0x9ac7ffffbf33U,
  0x32a3000071dbU, 0xe94fffffc7a5U, 0xffffefb000013312U, 0x113e6000028b9U,
  0xffffa1f1fffff362U, 0xb7c800002ac9U, 0x1ca5ffffe0cbU, 0xffffd7b2000068e3U,
  0xffffffd70000df9fU, 0xb60c0000f5cdU, 0x9ac700021614U, 0x257600001f61U,
  0xf8ff3507e31df0f7U, 0xf715e3fcf602fefbU, 0x3fefa1f0300050bU, 0xf7de0efe3505f8faU,
  0xef0819fb1909180dU, 0xe40705f213f11802U, 0x1dfb7f18f7fdfa01U, 0x1c1516da08f60307U,
  0xf30be4fe1f0de9dcU, 0xf4dc0204000853f2U, 0xfaf70601feff0517U, 0xf7140bfafff7e2c8U,
  0x12f9130313fc0408U, 0xf8fe001908e20efeU, 0xe9f9f6012afff510U, 0x11f7fa09000717ffU,
  0xe70c7fe9e57ff9d8U, 0xebb0d32ae722f8f0U, 0xf6f2f600fcf219e5U, 0x581f9f47fe7f6f5U,
  0xf91d7fe6f20b0c24U, 0x8106071a7fc13ee1U, 0x7fcde8f2f30cf8e7U, 0x7f7f7fc11ff50022U,
  0xda109108e41a0ff4U, 0xdff50eccecf57feaU, 0xce50205f3f406f3U, 0xf2ff0809fdefc57fU,
  0x5d327267f010305U, 0x1112f2f9d9867f0cU, 0x811ae70f7bd6ceeeU, 0x1ffedff0f3f47ff8U,
  0xfa112b06151df0faU, 0xf5eafc04fe01fd04U, 0xb0219e2fff7faf7U, 0xfae7fb002203fdf6U,
  0x190219faf305fe08U, 0xe1fc02f011e71c02U, 0x27fa92f5f7f8f901U, 0x1e181919ff12f10aU,
  0xf607e2fefaf9fd2dU, 0xf32006030d033bf4U, 0xfc07030b01feebU, 0xfbed0301fdf4f735U,
  0xe7f31303140a0406U, 0xfaeb03f001e407feU, 0xeafff402220016fcU, 0xf0aff0803061904U,
  0xfe2af0f3c7eb0008U, 0xec0dbf01df11f5dcU, 0xfc1d817f7fe20b7fU, 0xdbff7f05d77ff1dbU,
  0x8b16ece47f051c21U, 0xa31f0a1806d745e9U, 0xfbc31c7ff3dcf1ebU, 0xfafd0b272e91ca2aU,
  0xeb1b01057f20a992U, 0xe4810ed5e37f48f0U, 0x7ae703fe8efc067fU, 0xf47f128800ee1d01U,
  0x81e4240e00bb060dU, 0xef16ea7fe4fbea11U, 0xf51bedfcd8e6e57fU, 0x22810bf9f87ffbfdU,
  0x7f7f9c7f7fa07f7fU, 0x7f7fac7f817f7f7fU, 0x8181fcef8e817fd4U, 0x7f188a7f9a9b817fU,
  0xf77fbf7ff07f7f7fU, 0xd67f7f7fee817f81U, 0xdc8196ae7f7f8181U, 0xcce3e97f7ff17f7fU,
  0x7f7ff67f837f7ff9U, 0x81077fb39fd6387fU, 0x817f7f8bf18181f6U, 0x81ed7f7f7f7fa044U,
  0xfc27f7fef81817fU, 0x816b7ffab902927fU, 0x177f7f7f817f81afU, 0x7f097f7f8182df91U,
  0xe915d7eff9f7f7ffU, 0xeb17f902e20bf806U, 0x1197891f4ec0cefU, 0xe4fef70900dcfddfU,
  0x7f0ee9e692151517U, 0xa8170e1e0be52ae6U, 0x7cd1adff19cfbf6U, 0xfbf80506167fe011U,
  0xf10dfe06fb1cdd7fU, 0xe97610dd7fa74af4U, 0xce306fc7f03e885U, 0xfa9213f202edce3bU,
  0x6de61a0fffce0f05U, 0xf181e385e5faec14U, 0xfd10effde0ee0bdaU, 0xe7205eafefbfd7fU,
  0xf925eb04e6fbf0f7U, 0xf1fb40ff03fd00f2U, 0x1fcf51c0ff9f312U, 0xfd1f1306e20ffaf2U,
  0xef03f9f71407fd03U, 0xf60500f9e2ec1600U, 0xe9019212f0f9fff6U, 0xf3f0e80b09eefe0eU,
  0xef031a0414f7efdbU, 0xf5f2fd20ff1232f6U, 0xf7f9fe04f9fd0516U, 0xfb1806fafef44bd5U,
  0x71511fdebfd0906U, 0x1703fb170f22fefbU, 0x1df5f908fb022317U, 0xaecfa0d070dee02U,
  0x30ee6e1ede0f4dcU, 0xdcd97f0fd905fae1U, 0xebf005fcf8f300e9U, 0x372f0ffeb1b04fbU,
  0xf822bed5fa150e20U, 0x99030e1893c724e8U, 0x91cb13f6e31903feU, 0xb39588d608f90525U,
  0xe5ff7f0504250ef9U, 0xeb00097ff5f244ecU, 0xf7de037ff4fbfbfcU, 0xfef81601fbeb7fdbU,
  0xf47f101a93eb150bU, 0x7810e6fa7f7ff918U, 0x7705f3f807ef63edU, 0x19fcebeb0ae69ff8U,
  0xf600e30018faebfbU, 0xee121a030502faf6U, 0x8ff1ae7fcf6fef9U, 0xf21cf704eaeefefdU,
  0x1701f6f5ef061efbU, 0xe60003fce8f218ffU, 0xeb036bffeff3fbfcU, 0xf1f2edfd0314ff0cU,
  0xf20324fdfc01ff2aU, 0xf61c011e10fd2ef5U, 0xfdf4030211fef9e5U, 0xfbf20706fdf20cb3U,
  0x61a0fffec010b08U, 0x17ecfdf0152201faU, 0x20f9f606f7fd3cf7U, 0x514fc080805e906U,
  0x25e4fffff17cU, 0x30c000001f30U, 0xa100000541U, 0x189affffe14fU,
  0xdfc00003efbU, 0x9aa6fffff326U, 0xe6ffffca39U, 0x239fffffe112U,
  0xffffd7e9fffff8afU, 0x450000b19dU, 0xfffffb9e000001fcU, 0x82b8000041eeU,
  0x67b0fffff7a2U, 0x3900004b24U, 0xffffffb600001915U, 0xffffef25fffffe84U,
  0xffffe33bffffd60dU, 0xfffffe92fffff47cU, 0x59500003ec7U, 0xfffffe60ffffc622U,
  0x1b4f00008746U, 0x32600009dccU, 0xffffa1e0ffffd475U, 0x12a3bffffdba6U,
  0x94a000004ab9U, 0x1612fffffd8fU, 0x4ed6000023e0U, 0x733000078c7U,
  0xffffef6effffb64dU, 0xffffc18d0000006dU, 0x353ffffd985U, 0xfffffad2ffffff28U,
  0x47d000024ceU, 0x20d8ffffc1c6U, 0xdcffffe2d2U, 0x2536fffff5a0U,
  0xfffff1b6000029ecU, 0x69b00000092U, 0xffffca9800000298U, 0x9fb1fffff98bU,
  0x357500000519U, 0x184000078afU, 0xfffff30600000fa4U, 0x49d200000105U,
  0x120000040cbU, 0xfffff9d600001a6cU, 0xffffc25f00000270U, 0xa15cffffff7dU,
  0x45f0ffffed5aU, 0x1da00006540U, 0xfffff998ffffd9faU, 0x1e500000781U,
  0x7c0ffffc7f3U, 0x225ffffffc3U, 0x2dcefffffba9U, 0xfffffe90000002ddU,
  0xfffffc37000007c8U, 0xc570000166dU, 0x1370ffffd91bU, 0xfffff823ffffd397U,
  0x14400000035U, 0x49d900000445U, 0xffffe0e3ffffe5acU, 0xffffebf9000002b0U,
  0x10360a09e7fae8c7U, 0xfe0b09f12bd80126U, 0xc3fbc3c6fbfc25feU, 0x5cbf92f01a93ef2U,
  0xf612000ee2022e3eU, 0x15b4c2d01d68f42U, 0x67f1205fda8f64bU, 0x1908df0e31eff939U,
  0xccf60321a83cbd16U, 0x3fdaffe5d2012409U, 0x2bd1c0dd0e050bceU, 0xb6ee34fd1b17fc14U,
  0xe0e6e21a15372a3aU, 0x39d53afff304e2ebU, 0xf2183e4e0224fbe9U, 0x55c826f606a5f000U,
  0xef40d0706fbfd0fU, 0x5f500f3fd080a06U, 0xf314080a070bfcf4U, 0xf905edf006090a01U,
  0xf1f7f90a05f70314U, 0x306f6fdf508f40fU, 0x408ed101cebf601U, 0xef80103fc1900f8U,
  0xf50a0008fffa0c0aU, 0xf5f003fe0315f9f4U, 0x6fdf8f7dcfc0601U, 0x5ef020bf50809feU,
  0xf2f605fd0b00e003U, 0x4f609fcef080b06U, 0xfd021507030481U, 0x4f1f90804fdf7f3U,
  0xd9d8091dfa1ed204U, 0x7f1f2a0ae008d52fU, 0x49d8e4fa23fd060aU, 0x1108f9f409f1c0f3U,
  0x1cb180f0fc5de1bU, 0x5a3b5d803daeef2U, 0x8f5fe10fe22f0a2U, 0x14131f170b0b0fc5U,
  0xf5fa08bb1be8310bU, 0xc5eed212fa29e3f2U, 0x92debe713aa0df9U, 0xf3ddf103faf91dfcU,
  0xd3f201dbf0eaf1dbU, 0x20818eee5150997U, 0xfcf606fce9e610f5U, 0xda0ef1d40a010ff9U,
  0xf015a3050200d5e1U, 0xf2e195f8fd0a04f5U, 0x180aed1b0b0d3b02U, 0x12000508a324e2e9U,
  0xf6f8dff2182a1310U, 0x51904ff8102f401U, 0xf71108f4fa44160eU, 0x50ec3ce03fc142cU,
  0x39050e27fd0818f9U, 0x161410ae10190103U, 0x5e0f8e20e000a0dU, 0xe11406361f14830aU,
  0xf7edf6dffbb807ebU, 0x9b09eb331b19952dU, 0xb0351422d5e2dce8U, 0x2900e8f20a1de920U,
  0xfcff0d06fe0401U, 0x1602f5f4fbfe0a09U, 0xfc1becf608fc0dffU, 0x10afdfb06fc0105U,
  0x9e7f517fe021205U, 0xfe02fdf705f3fb02U, 0x404df050bda03faU, 0x607f206fd030c18U,
  0x1310f1011f0afd40U, 0x17f6ebfef9810d01U, 0x3f7f9f33bf104efU, 0xf0cf052ef70c0601U,
  0x12ff09f91a0efd0bU, 0x16e50b0403041208U, 0xfdf7140d0d190012U, 0x1f514fdfef5f1ebU,
  0xfc23e6f0120e053fU, 0x93a0711cc0100f4U, 0xf13114f710f86504U, 0x19f92b21326cf190U,
  0xe3fef2f109ca0a04U, 0xfe0a15160f16f9f2U, 0x1cf8ddbbe5ecf500U, 0x60b00d819e34214U,
  0x261020171e05e428U, 0x6041d1181f20efbU, 0xbde10df0f7161dd3U, 0xfb17050ce0e4f417U,
  0xfff5073c170c6e02U, 0xf0d1fdea0d171115U, 0xd0d0130aebe308faU, 0x17fd22132c2cf955U,
  0xbf5c321fee91203U, 0x4e9f7ee1cf52021U, 0xf91bf4d7f10ee5f5U, 0xe4edb3c8f80ce9f4U,
  0x8115ed06ece9f110U, 0x3c2af1de0ee8010dU, 0x82ae1ecfee106ffU, 0xf50709f4018bdd07U,
  0x330601fec0f0df1eU, 0x41c329f29d080906U, 0xf6f1ebcff2d301d4U, 0xece0f49f3a3ab1ebU,
  0x8f0390f052ad6f3U, 0x70a1fe5ff0efc18U, 0xf2ee373a1c121419U, 0x228a0d0fdbccdee7U,
  0xdc2c97070c0c1cU, 0xae050801b5e442c1U, 0xac08edd82306e5f4U, 0x1ccff4c9303a4233U,
  0xe3fc02b9ddf3d128U, 0x1be3bdf7e04f0017U, 0x1512dcfee6fa2408U, 0xa0a1a221d0b0abeU,
  0xc9b70d171ac5010aU, 0x5dd0309ded9e605U, 0x1a431d1ccf8115daU, 0x6ed229dffd30fbe6U,
  0xfffa340e1dbfe8caU, 0xe4f4eccbee1a02e5U, 0xf6d1cee1f60cf9e9U, 0x23d8f3671dec1327U,
  0xeefef31101fafbf8U, 0xe82829f60605e20aU, 0x408f9e20eeb0715U, 0xf6fbde1655f108eeU,
  0xeff4110fe403f500U, 0x13f30cfb14f8040aU, 0x311d38104f90203U, 0x4f3fae5fa1004f3U,
  0x80bf7001a13da04U, 0x307fffc860b1a0eU, 0xf0fde3d909fcf3eaU, 0x905101400faf009U,
  0x1603f406081717f7U, 0x402fefc0106ed0dU, 0xa0cf0fa070901U, 0x40b070a0806fb40U,
  0xfd9dfdbf07081c11U, 0xe5ed303d9eee41bU, 0xbebdad112ef60c8U, 0x8df9b710006dfcdbU,
  0xfb0b0c31fd04520eU, 0xd415ded90900ea29U, 0x1ef4812230d8e803U, 0xf3eff9d72adcba00U,
  0xb20e0ae7ba133bf2U, 0x19f1100b3a020f0cU, 0x15fff0fa0de605f0U, 0x8cd10d501431f1dU,
  0xbeef18db210ce8eeU, 0xd80ef5fc1f0232b8U, 0xf0bf56e1c7ebfcfdU, 0xf201d3f6d8b1db0eU,
  0x5f005f41218f20aU, 0xc190904efeeeff7U, 0xdeed0117fdfe09feU, 0xf0309f206f80c0eU,
  0xff09ec1efdf7fdedU, 0xbfffc000b09ec02U, 0x81fd0af0072c111cU, 0xcfdd120f0904f7f7U,
  0x15ffe502f8f4fdfeU, 0xf904df1ce901fee4U, 0x10ebfb1a02ee07eaU, 0xff0f10172c1213f2U,
  0xf012fc1ba9e5f901U, 0x91609f704f017f0U, 0x270721f705f249e3U, 0xd605f2fbf30605f9U,
  0x10306ea08130b0dU, 0xfc0401f9fcef01f6U, 0x30c0b020006f510U, 0x1306090a07eb0407U,
  0x1105e7120307fd12U, 0xec0506070702fa02U, 0x131403ffabe503fdU, 0xd1e0412163702fcU,
  0xeef60a080e01e308U, 0x7f8e62ef614edeaU, 0xfebf9f90ff40e03U, 0xeefd0b03f6f604feU,
  0xc7ffe10ed0100f0U, 0x304fcfe001b1bfdU, 0xfdeffcf919f9ee2fU, 0xe009f8fcf20d1007U,
  0xc2e4fed00608e23fU, 0xd40f00111808b5f1U, 0xc2af54a2033f637U, 0xeee33c1de2f713d2U,
  0x58d6c7e02410fdf0U, 0xe1bfe137faef06f0U, 0xff07d91b3e5a11bfU, 0x26f7fcfbe55a2715U,
  0x273ceef52b14300dU, 0xfe2dcb171ffa0cedU, 0xdf1512c4280ae94eU, 0xf521d1537fd9091dU,
  0xeb0527f21000eb26U, 0x5655ba360200f421U, 0xeff618fc03fbe704U, 0x293403fae719f64bU,
  0xfcf4fcfd9512f4U, 0xdd415f6f61fdae7U, 0x1504cc090205171cU, 0xeedeea090f030c00U,
  0x6fff31ee8fefffeU, 0xfd0e0deb071e01e7U, 0x7f0dc1f1e903ea1cU, 0xe0019ff010fe24f9U,
  0xeb09fdf9f7ea0312U, 0xe00ed3dc1a181409U, 0xdbdb2fe222fb1bedU, 0xfcf21322f15fec09U,
  0xdeebdc013efe300fU, 0x618edeccbc33602U, 0xc123fd0cfadff4e5U, 0xda040eeefa23e013U,
  0xeafc0cd90204f714U, 0xf6040ffffa02f005U, 0x70cead21003ffedU, 0x719f0070cf8eefdU,
  0x81000b0dbb03f801U, 0xfbf7f90907ebf906U, 0x7efff07fbeb18f5U, 0xa1505faf9a1f001U,
  0x17fd0204f8fce708U, 0xfda0e09e9b80fe8U, 0xf61c06f090fef4b4U, 0x12bffd0225f10604U,
  0xec0e130608f2ff05U, 0x5e5ee9b0911fbfcU, 0x6fcf60b0df30bf8U, 0xfeb303f8e9fcfdf8U,
  0xf1fdfdfefc03f511U, 0x3ff02f6fa020f7fU, 0x703f7fcfbfd0801U, 0xafac7fd0107fcefU,
  0xe3f4070aee0e030aU, 0xfe0307f2f8f005f9U, 0xff02f1fdfff9faf9U, 0x306fa09fafe0ef1U,
  0x1102f3f41506ec0cU, 0xcfbfb02fbf41701U, 0xf71201fc03f4b6ecU, 0x600f5fd1205f903U,
  0x10c0803ff0016feU, 0xfbfc16ecfa0d0304U, 0xff05010cf40103f5U, 0xf213fffbfbf6e106U,
  0x1210de0ff10a120bU, 0xfbe6edfa0be60d08U, 0xc35ea04ebab2301U, 0x40a0a00ebf71df6U,
  0x4fde035fe0c0416U, 0xea1107f3bf14f50eU, 0xf0da9da0e04ac08U, 0xd4e281e6eae802f7U,
  0xf90dfa0d180aeefcU, 0xf70904063315371eU, 0xdccef61a1ec90615U, 0x8e1ef152014e214U,
  0xd410eb28fe111c0eU, 0x24200efe0dfc200dU, 0x543908e0e20d12cdU, 0xee0e01fb14faeb0bU,
  0x2ef0216250638cfU, 0x78eeed0bf2fe1a17U, 0x4608fe11cbc709eeU, 0x20b1111ee070af6U,
  0x3420837e1f6dc05U, 0xfdddec25af81fffcU, 0x20fbec1311d0a120U, 0xf8eae9e9d7fdf9e2U,
  0xf5400bfffcecf6f8U, 0x3adc5fecee013fbeU, 0xdeecfc0520df0f0dU, 0xf6f9c402d62713f5U,
  0xdbfbd017d3fae7f9U, 0xa35d614fad408U, 0xf4f8dfe10bc22800U, 0x2df7e451c7da01edU,
  0xa9b82c7ff9461869U, 0x34d44ee9130df3fcU, 0x2413221f1038010eU, 0xedfae12902a9afe2U,
  0x40bb3ee13d5a3d8U, 0xa3dc28e9f7dd47U, 0xec2f5081bf038d4U, 0x4ffdd6ec050721e1U,
  0x3ff3efe8fd0fef13U, 0x2a0235f6e2d7d918U, 0x3d695847ec39f424U, 0xf37ec206a173df9U,
  0x4e2811dce70bea20U, 0x46fb0e19f70c4df3U, 0xd2f61f0ae8efeeedU, 0x51fdff051a94b8f1U,
  0xeef615a6eafaef33U, 0xddc5f008d518e3ffU, 0xc47df09c6372e00U, 0x113d6e0f906af1eU,
  0xe506e5e60ad3b00cU, 0xe60202d8e17263bfU, 0xfbe1810a12e70ea0U, 0xbbd091012e814cdU,
  0xdf13e4cf13e0cc01U, 0xddf4d45c26fb6c2eU, 0x172c40c4fb9cf716U, 0xe8ee040223f4e3d6U,
  0xf7f61404fcfe320fU, 0x322fe2e6e903380aU, 0xf7290c081d15fcf7U, 0xfaf7ef31df25d8faU,
  0xefd6c20801eef31bU, 0x1ee2d0c4fdf7f641U, 0x8f2ccd68170f0bdU, 0xee06cc20b9e8d4e3U,
  0xd711db0ebbe8bd0eU, 0x439f5220cf20003U, 0x16f1e5f101be350dU, 0x18f813fe1cc4eed6U,
  0x26ec02d5f9fee502U, 0xf2bbf712d0031ceaU, 0xe1e2d2d6f08a0dceU, 0x39e0ff11cdee0ffbU,
  0xb007c73f04431514U, 0x24ec16f6eafa26d3U, 0x2207d8262c5b0efdU, 0x14e2bfe8a2bb0491U,
  0x45ece05504c904f5U, 0x4808fae3e9c3e9e5U, 0xf201fa131c21fb0bU, 0xf2dfd9eddfd0fbfcU,
  0xc0ffd7faf8efcd16U, 0x7f0cfcc8e43ce534U, 0xc80a2c23c2f6f628U, 0xbfa1ad0926b9fffcU,
  0x19e0f81806f6eb09U, 0xf2e325e3c1f6aa3dU, 0x100c3e1add5800ebU, 0xf2143cf12a36fb10U,
  0xfdf52cdf0eede4c5U, 0xf606fe1d12eeacfaU, 0xfdf24b15ea14cb13U, 0xeae8252803c9d8f7U,
  0x4a7190bdadfe217U, 0xf4dbd2077f0903f6U, 0x8fed0e131776fc1aU, 0x90e0b833600efa7U,
  0xbcf2d6fe09f3aa0eU, 0x250d3b070032ddd4U, 0x1a0efc06e2e98eefU, 0xae4f4e517f2bf38U,
  0x1e203c8d37f0a21U, 0xdff4f5d6dd3ca7feU, 0x2c13671017c2edd7U, 0xe714f9de32f6d4faU,
  0x25f432761001c8daU, 0x4e41e0fdb303e48U, 0xc5dae13d27391721U, 0xfaf9f9160101fdfaU,
  0x2fcee540603cbe9U, 0xd5f6f933ffee2003U, 0x1d5e0e3e651fe08U, 0x12fd0b49dd074909U,
  0x8e10c08f1e7fefdU, 0x804ed19d5ebcd28U, 0xf008c9f000d6f329U, 0xbfaf2001f030ddcU,
  0x45cc0015e307f4fcU, 0x23e9f2dc0815e6ebU, 0xc028fde08dadff6U, 0xdb09fceb14271004U,
  0x3102e1bd8037f4dU, 0x21ce230cfc1701d6U, 0xdf0b36fa17f9e305U, 0x1905f4c023f2fad1U,
  0x1ef515fcfa27bd13U, 0xd5ea2c0502f1d5ddU, 0x1417190cf605fcfdU, 0xeeecf20918e3dc14U,
  0xe606dbcbf9e5f734U, 0x180addfc102a062bU, 0xf422bbf314ff12eeU, 0xf5e4f6f21ce709e6U,
  0xfd38fa3d2304e901U, 0xfbf30edc13f0f845U, 0x1e19d7d1001a0adaU, 0x1a04241e2af00b14U,
  0x605531b0de67f37U, 0x1d12111608e90df9U, 0xfb0a03da001afbfdU, 0x18f3170b13c5faf6U,
  0xee38480407000706U, 0xfa1544d4ba06f508U, 0x181bf912db81fae5U, 0x9fdf36f3c15ee78U,
  0xfadd03dbf7381a18U, 0x209c5cbbaffddf2U, 0xd11d3ec16fa2124U, 0xf000ff29ddf92c17U,
  0xc7feff00fea8ea00U, 0xf6070de308063443U, 0xf405f7d21aedea03U, 0xd8f8f902b9fe3103U,
  0xea0100e9f90ce62cU, 0x80f0512f607edfdU, 0xe7042f11e3aff5faU, 0xe5e5cfdfd9fdfdfcU,
  0x1ee0f3527f3087fU, 0xb8faf10c354038ffU, 0x19fdde0c0738f52aU, 0xe5dff939174f31c5U,
  0xf12e38fa1229e92bU, 0x1f2a19eacedcb7e1U, 0x10031d01e7f30d3dU, 0x121b2327f2f52521U,
  0x2efc1f2de5401a02U, 0x13edf915d512053fU, 0x19db3d620ae90afbU, 0xe501f4002435e115U,
  0x1f18332a08264d3fU, 0xe50608041824100bU, 0xcfe9e7d04da21808U, 0xef0a8c2e42b9030cU,
  0xfe02f8160c060c19U, 0xfe011ef004080721U, 0x9ff09170af10103U, 0xe0de5fc1eeb0703U,
  0xd9040905fef900fbU, 0xfb0512f60d07f307U, 0x90be80d10de0b0cU, 0x213130b091f0606U,
  0x23f309fd6bfffc7fU, 0xf4ed04fbe9faf310U, 0xfef308f0e7effb06U, 0xff03fa090f0efafaU,
  0x9fd020204faf2ffU, 0xa0aef03faf50dU, 0xfeff030e1400190fU, 0xfd0f09040c0e0df1U,
  0xe9eefe4818010304U, 0xfffbe4f4e9f8ef05U, 0xb111fff0f8e30816U, 0xf7fb0b211010faf8U,
  0xf080420fce1fcdcU, 0xfef3eacaedfd01feU, 0x8171d0ddcf7d2f3U, 0xc0d1ef9eb0309eeU,
  0x180bfdb5f5fbe0f5U, 0xf0f6c6f9f514e782U, 0xae00ae808f6ec17U, 0xe405d602f77fee12U,
  0x4fe15eb0310e1efU, 0x110329fb1905eddbU, 0x111312ef04c8ed0cU, 0xb5fb01fea40dfc00U,
  0x77d43020d2706fcU, 0xeab122ed0700e1f1U, 0xf3e12319fbf4e8f8U, 0xec1c11d6f41b0713U,
  0xfb16fdd7115781faU, 0xd20d3110200bf9f8U, 0xbf93411e7dff006U, 0xe0df9630b0d10dbU,
  0xe3ff0f04fdd9f40dU, 0xd7ed0c06e5131522U, 0xe90d050dfff805d5U, 0xe31302e6ceff00f7U,
  0x1e0709ebef5308f9U, 0xd030900fcf12bd9U, 0xfe40fa220b11050bU, 0xfb15f7f809e90fedU,
  0xfe2efb04f608f6e4U, 0x3ca2ffffcf509f3U, 0x7e5ff06fffec5f7U, 0xe9f705080be5092aU,
  0xf41505090752e101U, 0xefff0cf60b080b00U, 0x100004150de6f609U, 0x8f41018fcfce1e8U,
  0xf60ffb02efe2f0fcU, 0xfe02fe1015fe0a08U, 0xf608f7fbf60107eeU, 0x4f1f5f2e21d81fbU,
  0xfded0bf3fc1108e9U, 0x14fd10f4130d03ebU, 0xec2c1dedc303f8f7U, 0xfd05230708f605b1U,
  0xf1f0116e9fc19d2U, 0x2bdec3b21fc921fdU, 0x1917fff1b2fcf4fdU, 0xd700e7d426085018U,
  0xed23e315edf00b2aU, 0xc1f73b0204d2f5f9U, 0x72de105c1d6d0ecU, 0xd109f8e8eafbd119U,
  0xd202f6f8ce100b07U, 0xccebecb706264106U, 0x7d781e2ffdcfacbU, 0x7e6d2e7af12ceefU,
  0xe8cb6794f0f8f23aU, 0xf0f803dc020ce9e2U, 0xdae82627edf10bffU, 0xf1e9402006cefcdfU,
  0xfbc9f7ef02fa0dffU, 0xf10e0105f1f6021cU, 0xa06eff902daa201U, 0x320f809f4260d05U,
  0x16f00403f814330eU, 0xeae6040b06030af2U, 0x81ae1d419f8e1f2U, 0xf90b170ee815fde3U,
  0xba060dead7fae601U, 0xfd1ef608eb042b2eU, 0xefeef040cf4def6U, 0xf0e8f01510f6f308U,
  0xe900e9000a29f5f4U, 0xafa07e903010df2U, 0x1a7f04ecf9ed01e1U, 0xe70cffd0e4f90712U,
  0x7faba391de0f51fU, 0x8eff3df260822d5U, 0xcce522eaf175d715U, 0x110bfaa5c11a1fdfU,
  0x4f201e521230ef1U, 0xf22840370a430c06U, 0x11906fb01f89b00U, 0xa1005d415fdd043U,
  0x2f000f0822331af8U, 0xedc90702f204ff0eU, 0xfc046c13e8d106e4U, 0xe8dd03e4570fdbe4U,
  0xf703fd55f807a708U, 0x2aedebf2eefbeb7fU, 0xe0ce0c3224471107U, 0x4f0ff1834edf2ecU,
  0x9fd0918e9f5f1f7U, 0xbbffd400fe93832U, 0xffffe41f00e80a11U, 0xcead822e83c2de4U,
  0xfadcf50a02ddf14fU, 0xfaeee8d59cdfdaebU, 0xcf44fdec0803c309U, 0xcdc1ccbc00ee2817U,
  0xf426ee06ed090c0dU, 0x37072a1b0c395f48U, 0xdedee519332dfd11U, 0xdfedea2b7fdef205U,
  0xfb0726eed4fbe0d0U, 0xce0f222f11fa2106U, 0x130124fad0080012U, 0xc04dc1406dbd7eeU,
  0xec0520870905f126U, 0x404090cee2227d3U, 0x12decf30ddbf8efU, 0xe4e8dd130e058116U,
  0xea0419dfed03ff97U, 0xf3ffe9f9f020f612U, 0xf0c6e510f2f92115U, 0xf4e30625c5f0f301U,
  0xd2a8e8120bf8e904U, 0x490919f8f7fb4321U, 0x201a2510f203f901U, 0xa8f5f1ebd53ffbebU,
  0xf9e36231f6121c05U, 0xf6fbdd03dcf5e60aU, 0x9efdd0104d5f2f9U, 0xf5fd321749e7f6f9U,
  0xe408e5ff0b0ed41eU, 0xc70bf21000dbf3e9U, 0xf50c03130a3700e7U, 0xbfff103ea00ed08U,
  0xe5e8d30ee7ea0eU, 0x51705e5e504f308U, 0x1cdf150ae9edd5ddU, 0xfef3fbfdefecea0eU,
  0x2d21f615f217f1e4U, 0xbe4f9e501ec4832U, 0xf0faf8dde2d70dfcU, 0xe7ed0d0e0e310105U,
  0x4ea7fccf5f95efaU, 0xf51af601fffe1207U, 0xff031c101108fa09U, 0x9fcf60606ee01edU,
  0xfbf0eb11f7f70914U, 0x4bf9f3002203e017U, 0x14f5f1fdcbf71c11U, 0xeee8070df507efe4U,
  0x6b402290a04eb04U, 0xf9f60cd4d6eafb15U, 0x500e104f5f6f7efU, 0x90c0405d506d01bU,
  0xffe5f6b1e108ee06U, 0xd1e7d4d1e90ffcbcU, 0x1cf92df708ddeb07U, 0x42eae0d7f0ff031aU,
  0x4eafe1edf16d281U, 0xeaf0effcfb192fe5U, 0xe626c60b2ed40714U, 0xdd0df11340f3e8ebU,
  0xe35d081af3f9f1e1U, 0xf320efe97500e4f1U, 0xecef0f000d07d805U, 0xe80aff0ee8ff0e3aU,
  0x314f328f6a481f8U, 0xe30cfd13221119edU, 0x9f84efc04ef0cfdU, 0xbed121b08150a54U,
  0x1117f6dff794fa07U, 0xeb1cf308f8fef90aU, 0xf51b11221a0c05f6U, 0x1214f4fde609f10aU,
  0x1cf40020f4e408feU, 0x15f811eef0fef0f3U, 0xc3b26f9f4ffea0cU, 0xfd030e141a100d0fU,
  0xf30343fdfe00fef9U, 0x16eb02f914f703f0U, 0x5120dfe1bfe16e0U, 0xfa01fa07e5f105fcU,
  0x9f60ff402fdf101U, 0x30909f411fffa0cU, 0x30cd97f03eafdfaU, 0xf8070413011cfe0eU,
  0xf08f5fbc4f50809U, 0x4fafffb5dfc1111U, 0x1305f5ec0bfcf502U, 0x12f8001c02f51804U,
  0xed06ef0a05140f04U, 0xf514e402f7fbf504U, 0x13091800f90902f2U, 0xde0b0204e8faf2U,
  0x2d7120015f11cfbU, 0x51d0ef23de00d523U, 0x214f90becf73312U, 0x1c2d0904fce0c141U,
  0x22fe18340238f5c1U, 0x938251a1ac0bc07U, 0xf983f0d1e1aa06U, 0xd726d9d1e3120134U,
  0xe0571cf317e5fdebU, 0x281fde143a23de06U, 0x33509c0fdd41118U, 0x81e1e9e41d1e0524U,
  0xe614e53ce6c2f852U, 0x220f29f71c211a0fU, 0xc4e1baef902360cU, 0xcd180d2a672608eaU,
  0xf5feece7fa15000dU, 0x2bfffe1f0afffd12U, 0x1125f6ff0705ed0eU, 0xff5030d0404fff7U,
  0xbf503fdf7fc0418U, 0x20803eb0aeaf8fdU, 0xfbec09f61302e21bU, 0xf5e4edf3f1ed12fcU,
  0xfe0ff4f6f60cfeffU, 0xf705fd100003081bU, 0xecee0f1101070300U, 0x380cf214f97fff16U,
  0xf905f7f60112ea29U, 0xf3040af1f0f9fd09U, 0xfaeaa1f4f4e3f8f6U, 0xf904fbfcf20ef417U,
  0x10f1e74c1ba3fafeU, 0xf8d3ffe5093e2cecU, 0x14e401e41cbadf43U, 0x4bc1deee2007a03U,
  0xe72b1918fad91015U, 0x5d9161d0c107fecU, 0xf0704e9c405d7cbU, 0xe3c92dc3cbfe0525U,
  0xee30a802d221d3ecU, 0xd30a1df907047810U, 0x1bc0f8f6ffd8c5f8U, 0xadb0aeff0e80237U,
  0x1008672a08fad3aaU, 0xfee610eaebb3ec54U, 0xaaf3e77207d0dc01U, 0x30f6fc060c3dd0ecU,
  0xe200f4f4fb15e7d8U, 0x4fee5fd12340407U, 0x6ea0fe4dde3fdfcU, 0xf90b0a0cecefe7f0U,
  0xa16f50f05e5f301U, 0x11f5e9f702e10400U, 0xf6f311f10c161af4U, 0x50effeae51202eaU,
  0xf8e9fcec311b1af3U, 0x1eebec07061513f3U, 0xfb0b81fe0ef7ff0bU, 0xcffd7152b09ebfdU,
  0xfe0df0e312f916ddU, 0xf50cf8110f07eaeaU, 0xf3f4ed28f009f503U, 0xe09f6070b0910dbU,
  0xe9bff3beddead0fbU, 0xfcf0f610c1c6d5b8U, 0x371407053504ddU, 0x18b127f410e30915U,
  0xf6dd15d7eddfeb0dU, 0x42c1f6eadf4b7113U, 0x4510b2ee28fd3af0U, 0xaf0d3e9cc02f6e4U,
  0x91efe1836dceb01U, 0x122123f001d2fc2dU, 0xa0c28bec0810fd6U, 0xc4ebed083fbab713U,
  0x1cf2771939ea27c0U, 0xff18d010ffde30e2U, 0xe21f00041018ea11U, 0x18f0610b081a0ef6U,
  0xcf623c215c8f6f5U, 0x515e03d613cb01efU, 0xfce00410e9f814e6U, 0x19d0f61202facfdfU,
  0xf5fad7d6f01ff4ffU, 0xfe0cfeb8da110006U, 0xf3fd16ff1c0f12dcU, 0xe3ee2d440d08f317U,
  0xf70bf6c8f0101305U, 0xcd0108e3eb0be9faU, 0xeb0f9a0f810d0eU, 0x3a09f3e8bf2602feU,
  0xebedfb06e94019eeU, 0xe4f5ff0ac0e508ebU, 0xf01c171ff92508f1U, 0xed032c00f3effd00U,
  0xe72edeb6bf4bd62bU, 0xa103f525ef1cc1c1U, 0xe8e9f0f0f3e834f9U, 0xd844e8450e1ddfffU,
  0x2f30450ce7582dd9U, 0xfaef1e3201bde0d1U, 0x5eb4aaf3e9f3fd03U, 0x253c15fcf00d0536U,
  0x2c06430a25df1bf9U, 0xc708071850ef1cd8U, 0x7184ed82b2012f8U, 0xdf11fcfb81ed0519U,
  0x3d2ebcf52083105U, 0x3202c5df3a0f3c41U, 0xe72803f236f44ef8U, 0x4842eaeaff0e3728U,
  0xf1fbfef10e10f908U, 0x3ecf8f50b070c14U, 0x5f7020d10f609f6U, 0xe3edfef5f5eefe05U,
  0xff0721050207ef1dU, 0x6e9ff041a0904f3U, 0xf816fc0181effae9U, 0xefb02f101f6010dU,
  0xf0fcf2080306fc11U, 0xf404feef060cf422U, 0xce30bff2a0b22fcU, 0xee10100dfce20105U,
  0xe9242a02f4f5fa02U, 0x12ff490b8ff70204U, 0xfffaf607ff0d0400U, 0xfe04fbfa06fb02f7U,
  0x5f004f0edac0af3U, 0xdfeb05e0ea1af40cU, 0x1a2b0e1007eff9f8U, 0x1cf5030707f8bb1aU,
  0x110c4a1f15f3dc46U, 0xe4f7061e15fdf009U, 0xfc1b0609f5ddd7e5U, 0x13330e80c40cf08U,
  0xe009bb110ce5f109U, 0xe0c08811d121bf8U, 0xedfcfff9fc0be001U, 0xf5fef53665e016d4U,
  0x1db4f41eef0a0b02U, 0xc017d7d5b6d615ecU, 0x4cffedfe18210418U, 0xf5ea2d00e0fff501U,
  0x881ee1018fdf3f6U, 0xeb46e5db8b03f40fU, 0x20c11fb1f0a38efU, 0x1d01f92807ee14d9U,
  0x202f81cef3f6efbU, 0xf6050a171d1808f0U, 0x9ffb2fb1303f900U, 0x4f907f71303d7c6U,
  0xf619f2e5f359eaf1U, 0xf8f9e8f324130830U, 0xf9e30224f924050aU, 0x6e5f612d41ee40bU,
  0x1505f810f10206edU, 0xf9050600ecf6e7f7U, 0x16d226faf0efdbf7U, 0xf8fc06070a01e811U,
  0xd512d6c700061119U, 0xf6e5cd0132f81bedU, 0xf908dfe108eb28f3U, 0xdcf2f93dcb0661f0U,
  0xffffd90ce7290b23U, 0xe1fe240ce4d41801U, 0xf00a201ae3f002efU, 0xf8f6eaf6c4d9d520U,
  0x107012fda30060aU, 0x16fd1ce1f0f726efU, 0x7f719f7f77ffce1U, 0xdcc603e43103daf8U,
  0xc704fd0f0a1a2012U, 0x1d030d00e232f517U, 0xf62aed31f6e0ffecU, 0xd09fe0aabef0ff9U,
  0x74020d24040ff400U, 0x30204f0f7071481U, 0xb0bef01090409f9U, 0xf62101f515f0f80cU,
  0xd006f2f303fae6d8U, 0xfef9fd0d03fc0c07U, 0xa5ec0402fe130aU, 0xe00ceee6d4f002e3U,
  0xeefde6effbf909faU, 0x260bfc0403fcf4f5U, 0xfb53ecf7fbef68ecU, 0x13080df814111c0aU,
  0xfdfaf80003e8ebfbU, 0xe14c00c0df4fd00U, 0x7f7ea0a04050403U, 0x130a09ede411f100U,
  0xd20efe210eeae0ecU, 0x35c1f01e06f936e4U, 0x480ff707b2ebc4dcU, 0xf8f2fc05e5f0ef06U,
  0xf801fc730ae0fed8U, 0x207dae1a42214faU, 0x7ecb1f405f3e2ecU, 0xe6df07d6cd00ebefU,
  0x432cdb001effd8d7U, 0x18dcf2d5f1f31419U, 0xf22ab9c9f2feee12U, 0xfa11e80f0df0d72fU,
  0x1106f2e10fe55aa0U, 0xf9fc421405bfc6c3U, 0xdfe52927b7fd3907U, 0x1cee07f3d711e181U,
  0x6fefb0705fdf4f7U, 0xffef31cfafcff06U, 0xae74efc0b2107ccU, 0xf2fbf1eb0619fcefU,
  0x603eb07fee2f0eeU, 0xf710f726130507feU, 0xf5f3170a10fdf00eU, 0xf300f5dbece1fcfeU,
  0xde3090381140e08U, 0x2f6e7fd1f04ff16U, 0x3719f900f90412fbU, 0x7d9fb23223b1ffdU,
  0xd9fe080bf5df0b08U, 0x8f503f60b10fbffU, 0xfef803edeb01f902U, 0x1608000af40bf90bU,
  0xcd232105f50c0603U, 0xcae82d143b02f4fcU, 0x126fc0205249efeU, 0x10d19f6f011e733U,
  0xf7e5ea03f70ed708U, 0xd6f8ff03fc0501ebU, 0xbef211e0aefe0edU, 0x1e021f01e02109ddU,
  0xf9190c051981221aU, 0xf7fdd62a0df624f3U, 0x8e0b1d00f800ecf5U, 0x9f6ef231bfdea08U,
  0x20fa07eb0bf80efdU, 0xedfb160a00050cf9U, 0x9610eeb21f8f1f9U, 0xf607e70915f70515U,
  0xf704ff2610f31614U, 0x24f8fef40a7f0710U, 0xdf3f5f4fcf608eeU, 0x607fc0307060ef4U,
  0xffef030cf90b01fcU, 0xfb0307e6f9eafa03U, 0xfe041d000af8e00cU, 0x40f04faf801040bU,
  0x71101fbf70ffc01U, 0xbff0402f9120f09U, 0xeff5fa0707f50f07U, 0xe3f1df090512f500U,
  0xf80df00118fcec39U, 0x3fc17f1fe0702f4U, 0x3040e0a070bfef7U, 0xecf6f900dc010d05U,
  0xf2703603f909f511U, 0xb09219be0022edaU, 0xfc511d0cfe3666f1U, 0xe802f38146201107U,
  0xf6160afc010d621fU, 0x83c2261f3172213U, 0xf27cde006d99811U, 0xeed2000921000313U,
  0xb9baf20436dbe9f9U, 0x3a04f6122b0409b5U, 0x2b15f6da0a65ff07U, 0x5812ef04a62b0fd1U,
  0x1bd9413b0cda0e34U, 0x1d1aec10e80cfaedU, 0x15612b23f577b211U, 0xeafb1f0204dad022U,
  0x8ee70710f52a02f2U, 0xdeb01f3ff0509fbU, 0x15f20d0f08e30e0eU, 0xe02d10ffde2f0fcU,
  0xf1d071307fdf2faU, 0x11f70af303ce330cU, 0xefebf7ff0d09fefbU, 0xb8fffdf7e1eb0905U,
  0xf20627f005ed06fdU, 0x12f7030eee1b2901U, 0xff5e170813fcd20bU, 0x1f04fc17220bf9b5U,
  0xffecfe00f2f9e2daU, 0xe301fc0f00cf190cU, 0xfa16f9f8f9f7f607U, 0xf8dff2f5f5e181fcU,
  0xffdded7f18eeffe7U, 0x12fcf3f3daef08c0U, 0x2dcedae0e1cef2f0U, 0x4d0c7d5ee20c527U,
  0xac0af007cbfadf16U, 0x3ee5e6e6cd0a070bU, 0xc81ef5182fe50c39U, 0xdec2a9162ac7d0deU,
  0xfcbace4c4ce0306U, 0x2dead4e301fc3d35U, 0x13d709f5bedf00aaU, 0xbebfdef22a08190cU,
  0xbfc98eabff45497U, 0xcb0d0db2c1ca0fedU, 0xdf0d15bb21eefdc2U, 0xbc1e8caffb1b7feU,
  0xe60bf2fdfd1dd5b5U, 0xf10f56d4ce20daccU, 0xeae53e09ddd8fff1U, 0xfd170bcc13d1f0eeU,
  0xe5ee00e42bfce1bfU, 0xae7e1f40eb22bfcU, 0x1df1f5ebc8fc51f7U, 0xccea1d10e70808e9U,
  0x49d000daf1e01104U, 0xf0ef0212e8e8dbe1U, 0x1e3a0981fce1cbe4U, 0x1fe7bae214ef270fU,
  0x10fe4d0a05ee23ebU, 0x12edf60026fab7c3U, 0xbd3b515c1a922e5U, 0x7fd4dd8b90d06edU,
  0x31e1fe7efcaecbbU, 0x12fdd7ef5ce5e83dU, 0x4c13110218e5271dU, 0x23c4123427e74aecU,
  0x33103652060a2215U, 0x1f12232e9df0fdeU, 0xe301e3cbf7e3d5f3U, 0xc0eaca07e3fcfb21U,
  0x3d0eede20e2eecf4U, 0xfbf8f504472326f2U, 0x330e24f008dbd010U, 0x1b31aef70f3f0af5U,
  0x5f1a01ac12ffe03U, 0x7f33fe0cc8b7efcbU, 0xdf372a050432f206U, 0x110a0fc8d21accfaU,
  0xbd5e0000c0afdfcU, 0xf70ee1f6060cf9fdU, 0x9eaf902eb020e04U, 0xd8f7f4f30d7fee07U,
  0xfb04f30c0002e001U, 0xefe7040c14f90a03U, 0xb010812fa0e0ffdU, 0x15f0fefb06ff1803U,
  0xfddf0eee02160a00U, 0xfbfbf7ee1ef9f3fdU, 0xc60216fff5030cfdU, 0x1f2fd00fdfdfe09U,
  0x5f2040c010006feU, 0xffcfef706fbf602U, 0x1f60c070805fbU, 0xfff61a0cf4f6f7e2U,
  0xe712e7e56616fe06U, 0xde00f9d43805f25bU, 0xeee61206d6082d2cU, 0xf9fdbe250ff633e2U,
  0x1feeedeffa0d2818U, 0x1d26ef20f0d6f2edU, 0x1ce905e296afff06U, 0xfa042de205e6f51dU,
  0x5e609f6091bdd0fU, 0x903e909e0b9e321U, 0xe7d501c20ccde3d5U, 0xcad6c7463be7ed06U,
  0x1ee5e33b0e273917U, 0x2207ff823161fe8U, 0x2f15ef1440350c7bU, 0xdf13fde72e0df1cbU,
  0xfdf616fbedf3f3fbU, 0xf9030702fd06f3cbU, 0xfff905f605fd02f5U, 0x1edf9fa0b02fdfcU,
  0xfefc06fefdfd03f7U, 0xfe05fb0303f60dfeU, 0x1e5fe06f008fd03U, 0xedfbf6f8f8fa0bfeU,
  0x120307000afbfffdU, 0x10fefaf00ef20a06U, 0xef2c0600fcfa05f9U, 0x7fcfc0d18f60c7fU,
  0xb04fe0504fa0e03U, 0x11efe20204060504U, 0xf904f60508060609U, 0x12fcfff406fd0008U,
  0xca511c33ee0bf705U, 0x19230cd9fe33d917U, 0x33d604f0b6e704f7U, 0xd70bf9fb1a6df0f1U,
  0x1afce932290943e5U, 0x121f3ec4304eee1U, 0xf5d611ebe6fdcd17U, 0xed11041a0d0c7de8U,
  0xf4d510ed11f6f0f8U, 0xe60400d73cdbfafdU, 0xa2141b44d8dd05e3U, 0x13f8dde481212df4U,
  0xe2bf5d70b48211cU, 0xd9d4010029f60dd7U, 0x2ff228f52630e308U, 0x50517054824feabU,
  0x160c0208df9c02c8U, 0x4202206f6d8ca03U, 0x47cd08f125aa1432U, 0x46f01e420eb9201aU,
  0xef4f0740020af80dU, 0xf2e8cc171216f122U, 0xe6f222f20d09c902U, 0xf4f5dbf523e3f6ffU,
  0x17d23decf1e21507U, 0x14f92bbcfafe02faU, 0xf73828e2ff1a1e0bU, 0xce80af1b32924edU,
  0xe411bde5d5cdb1e0U, 0x33eb1d16fe1feeefU, 0xe087fc2bc5b0404U, 0x29070c2dd9fe002fU,
  0xebfeffea040bf502U, 0x25020209f7f1eed0U, 0xeff8fefe0bf21205U, 0x7fef5050909db04U,
  0xfdebcf140e0b05f8U, 0xfaf6fee807030102U, 0x50dfbfe7ffeeef4U, 0xf506fdfcfcd907fdU,
  0x1a1a060000edf903U, 0xf605e60ffc00ed1aU, 0xf309f9fc0501ea0aU, 0xeb110212fef3070aU,
  0xffe3ff0105f92123U, 0xff0cf000070afefbU, 0xfc1a07f9ff0c03ddU, 0xfe1505eb3cf80a0fU,
  0x1767fc42da15b8faU, 0x32eefd779726aa32U, 0x73d2d2d6e9af2f2bU, 0x7fb0108eb22fdf8U,
  0xe1db1017fe044007U, 0xe668ee2bd7fb0c12U, 0x251c06ec14f40a3fU, 0x282216d631f55bdbU,
  0x1fa60015fdace3f7U, 0x44f0ec21f9e6df48U, 0xe411dc0df8d305b0U, 0x5bdd0f29e6110cebU,
  0xfc1005de1414ae2dU, 0xd81011d62aec2a1fU, 0xff7e1881fac8e622U, 0xe1ec27f3240c12f7U,
  0xe6f92423e00c20U, 0x13c904b67f090208U, 0xca0b3bf90b2bc230U, 0xfc06579b040a29ceU,
  0x18f4cf15ef3c1f06U, 0x1cff20031a0bdc0dU, 0xe809e0dfff24abe1U, 0xd40a18ccf6e61a21U,
  0xdc1b07fa2d7608f6U, 0xfdee073655270dfcU, 0xcb021f04fdbced2cU, 0x4d1aec22ea120514U,
  0x50dfc33101cc921U, 0x1f043803fa14fd60U, 0x14eed82d311a031cU, 0xecfcfdd9f9241f48U,
  0xb9f507faf21dd50fU, 0xd5f8020503090229U, 0x30f8e6eaed31ecf2U, 0xfd1ce003e9e9e0f9U,
  0xeefa062af70de4daU, 0x15d7fe0700eaecddU, 0x2dbf8ef0b06452cU, 0x7081202bfd1fbfdU,
  0x28fdf52c0a00fcfcU, 0xf702fb0c0dda28c9U, 0xfd3cfaebfaf3cbf7U, 0x53ebbd194d4f0300U,
  0xf9ed1adafdfe7f12U, 0x20424def7edd52fU, 0x2ee1711f5ed09fdU, 0xbe8e2c1e91903eaU,
  0x110a1106211025feU, 0x91a2bd3fb0513ecU, 0x134620f316e90217U, 0x10060bf02a0efdffU,
  0x1bfcb40b031318eeU, 0xe22f818250ad7d7U, 0xccfe5e1020429cbU, 0x1fe9e601fbf327f1U,
  0xa46f1021f26f00cU, 0xd41cff2d2d232922U, 0xc7f20f251eff0a04U, 0xe3f7f04ceff631e1U,
  0xdd9f3ecfc0410f8U, 0x362603f27ff317e5U, 0xededff050f31f0fcU, 0x1408ff29f6150f00U,
  0x1ad7f5f4dd0c10f8U, 0x10de0602f70dfcf9U, 0x1314efee1d0df406U, 0xf8fb0f0ded0a2908U,
  0x20e11c1c22b9dbfaU, 0x11cec4e10ffe3708U, 0xd9ffeffce30813f0U, 0xf60bcfe7191109c4U,
  0xf4e7032b0ef7f2f8U, 0xbecc2ea03170525U, 0xef1b32f11bec04ebU, 0xff6f0f615020f09U,
  0xe2e1f00ef7d2811eU, 0xfe10ff04f3f00de3U, 0xf8ef49e7f9fdd716U, 0xad11220b03f3f60cU,
  0x186c3d9eef6ff26U, 0xd929db208722fb10U, 0x3a0416f0dfef7a20U, 0x180ccd3a3c3900d9U,
  0x37e412071f4e3fddU, 0xe3e0f8eb1b142fd3U, 0x23d90de3fc3113e7U, 0xf40df71eaaf1f381U,
  0xc82204b0fe6d06eeU, 0xb0c1156fcdf4d16U, 0xbe0414f91641ed27U, 0x201dd2ee25201aecU,
  0x24fefcd31ef7e7b9U, 0xfa1922fc2616f800U, 0x38ae3d9db4c10bf1U, 0xea20e1c2f414212cU,
  0xfae409570ff70adbU, 0xf50000f9f909ef01U, 0xb300f1917d3d6b5U, 0x4cf7131b25700923U,
  0x3001d020eeee5faU, 0xfefd0cdafdf0ebffU, 0xfc02f112e6151204U, 0xfd0105ee0806cff8U,
  0x150307ef040b07f0U, 0xe4f7e703cffe13f6U, 0x81fb34e9ea380809U, 0xf80e18f70e08eaf5U,
  0x23fa13eff5f31efeU, 0x9032006ed0de1f1U, 0x2f9dc1707cbfefdU, 0xe3ff1617fefff944U,
  0xd03ecdffc0e2102U, 0x909ecfe87fcee05U, 0x9ff100505d4f6ddU, 0xf7f5fa2ef3fcfb1fU,
  0x9f2f9cd0c131007U, 0x13d521f203f41df3U, 0x1019f8ee09f5bfU, 0x211071605f61609U,
  0xde1d0cfb128efdfbU, 0x6021f0fd5fa2044U, 0x90def02fa0907ffU, 0xfe00f208b40af0fdU,
  0x28050d030733260dU, 0xf806f40bec10f203U, 0xf5f17239fc810407U, 0xede0827c6f605U,
  0x16e2d5ef19e9e4faU, 0xecf2e4f8eaf8c004U, 0xe31f00cf0beff06U, 0x902e1e3dcea04fcU,
  0xf1cc01fa08e8d309U, 0xe6cafefafb62e3e5U, 0xb39cc02dfcb01deU, 0xfdfcf9ef03f0fe16U,
  0xf74beee413f6c308U, 0xf2efefffef270516U, 0x1a053af717d40bfdU, 0xc2e71a0f23ebf312U,
  0xd20f7ff502f8ed12U, 0x101d07f1f71412d5U, 0xe80d0114131a04feU, 0xeff116f4bee7eff0U,
  0xdff6f2ef18020f1aU, 0xee2102ff1b1100e5U, 0xe30c2e2d331206f9U, 0x13fc7f3d0715070fU,
  0x22e6f60d22fc0a03U, 0xe3d10600040021f2U, 0xfc1f4604de68c5e7U, 0x1cfe082c016d3613U,
  0xe1d306ed5f102ee3U, 0xc020d7f51f37f700U, 0xcbd7053833231064U, 0x372bfb590dfd09eeU,
  0xf9edf2f608eaaf18U, 0xf24fd134fd0517f7U, 0xfef7f5e011f9f036U, 0xc045f8cf4877fd50U,
  0x15231b060b19f30cU, 0x2e3eafe03ecfdU, 0xea0107f8ddc106e6U, 0xe20cd32c0c09eff4U,
  0xfa051bebfb1414eeU, 0x12faf312f61ef7f3U, 0xfb26e6087fddf611U, 0xfc10e80fd5ced8e9U,
  0xe90f010b19020418U, 0x21fdff1d0f3b00c8U, 0x2e8defc23f1e405U, 0xaf2fce40205eaedU,
  0x2ce1fd00103215U, 0xd9f4aa22e909e406U, 0x70508d8e70beabfU, 0x29ebfa030bea01ddU,
  0x1303e82a06ed065aU, 0xdd9f7ec15fb0e0aU, 0xdf1bf3f32acc0f10U, 0xe6f70c10e13bfd14U,
  0xf7ff1a1216f217U, 0xf2fb0c03a71f1612U, 0x10deceb1d081601U, 0xfff4e5d01b097f12U,
  0xf31714eb3510e4f3U, 0xffe0e7ec2b12ef39U, 0xe9efe924071cf5f6U, 0x15f3fef3f329f906U,
  0xf0e4e4e6e9eddaefU, 0xddfb02faf2f55007U, 0xf010607eea0ae216U, 0xd03adf8f01afc20U,
  0xfc37341be4fc52f3U, 0x1d330c026301ec00U, 0x360336584609a41eU, 0x22d1b4efebd5aefU,
  0x3eff25f1120d19c9U, 0xa5e813f7399e9dfcU, 0x13cb45f71f11ddaeU, 0x140053bd004e715U,
  0xfa1c2f0bbd752806U, 0xeb13c6ea36e510afU, 0x1c1e31090958fb38U, 0x2a4c0f1a8ad918ffU,
  0x57e0b2ef591ab819U, 0x471cfb1c351d0526U, 0x45a61c812bbf3e08U, 0xa72a1eab60140842U,
  0xf50cea0716030209U, 0x1af823e10b3b1e2eU, 0xe70f2bfbfdf6f2d5U, 0xfc04ebdcddff2515U,
  0x22cdfc0d02ee371fU, 0xf3400f1028d2dbeaU, 0xf4f002fc15ef3526U, 0xd709d4fb171001e6U,
  0xff1a0ef0fcfe050bU, 0xf909f217fb1de0f4U, 0xfc00dd06f50bf007U, 0xef403fc81081bf6U,
  0xf19eccefe20362dU, 0x21fb021212eadfd2U, 0x7f0d83c92fc06fcU, 0x111006da0503000eU,
  0xc7e7fcdfffe40902U, 0xe7fc2181da24f801U, 0xf822e514210de9fbU, 0xfc08f9cb1021f11cU,
  0x1bf6f71d13d4f7e3U, 0xe4d9e00510e81ff9U, 0xd8ddf523e019d6fcU, 0xf14e3f8ff281ce2U,
  0xe22007f102d5030bU, 0xf511e508e51555f8U, 0xca22c0ea382b0818U, 0xfd12d94111c90706U,
  0x172deadcebf52505U, 0x1c44190cfb2015d9U, 0x37e5105a05d11a0bU, 0x925f8d5fd14071eU,
  0xcb1ff9e8f819ea02U, 0xdfda03301a1a07f6U, 0x13b8f6ec1e115457U, 0x4be5e817f5f10c33U,
  0xec1500b7fe30fae0U, 0xfe221013133119eeU, 0xf4d618100806e8f5U, 0xfdfae701e9ea3427U,
  0xf408f9e1e4ec4412U, 0x150cf20ce2b4eb5fU, 0xe427f07c73af4edU, 0x121d1915210322f3U,
  0x2301eba6f6ac44dfU, 0xd3c3ee0b00e90444U, 0xf966f69a05c9fed3U, 0x17fc0ef02cf7edfbU,
  0xf20eefd9dddd111bU, 0xeeffea05f0ef0627U, 0x1509cedd05be3cf5U, 0xee21ff24fd01073eU,
  0x6d81a0bec00dd22U, 0xb3d2feff05fa01ffU, 0x1efde4f131eae0e6U, 0xf5121920e007eff9U,
  0x81070dc4d8d8ef00U, 0xfb22eb2505fa4effU, 0xfa00e71021c9e3d4U, 0xffdbfc17eceff1f1U,
  0xc302e6f0041c04ecU, 0x310b1ada0e2efc04U, 0x17d508dbf4eafad2U, 0xd2f1f1dcefca1f08U,
  0xf5fa131012f908fbU, 0xf614e3f9fb0815f9U, 0x1f8ed0af4000109U, 0xfb0e04fafbf901fbU,
  0x140308fa030b04f4U, 0xf0804ff0007efffU, 0x1f6f80b0f030406U, 0xecf8070002f2f406U,
  0x5f7030fcd03fb81U, 0xf4f00801fef2fa0bU, 0xa0404faedfd0512U, 0xff15fae705021800U,
  0xf907eefaf8f9f301U, 0x313fae30002f90aU, 0x120c06fd0bfd080eU, 0xbe804ef05040204U,
  0xfb01f81101fc0401U, 0x4fa01030008faf9U, 0xafe0408fcf40603U, 0xa11fc08f7fefe07U,
  0xbf30efafcfbe6U, 0x5fb00faf9fb19f8U, 0xf9f8f802030d0c07U, 0xe9efeef6faf2f9f9U,
  0xfafb810306f90b05U, 0x6fffcf5f7050903U, 0x2120300fd0700f6U, 0xafd040a0c0105dcU,
  0x1effb02ff0001f4U, 0x603f2fd08e2f806U, 0xfd0900fbf506fdf6U, 0xf3fd01f903fc0efbU,
  0xfc0413df07f9112cU, 0xff2219d6010909f9U, 0xffeaf2d5f1170cf1U, 0xeb2af4dd100bd018U,
  0xe1ea29f4e511ec12U, 0xf70a03e726f1dd12U, 0x122adfdf8d7ff27U, 0x430431b2cf718fcU,
  0xb5090f02e5f7bcf2U, 0xdefd0242f7f604c0U, 0xf60112f1e80c1fc5U, 0xf708df810225f1U,
  0xfa06170c28264f0cU, 0xf8e306ed07160505U, 0xf912f422fbe10400U, 0xdf82602032835e8U,
  0x4e023f3fc13e3d0U, 0x1a3082e096da11e8U, 0x716f481005016U, 0x47f5e301f0f40fffU,
  0x1c1709fe04b36a1eU, 0xf00c3de2ddf50a08U, 0x1735c8aef3f60003U, 0x16ff1d9cfff8eb75U,
  0xeb4c0707f1eeb8faU, 0xeeff0823b3ed2029U, 0x41f01c8ff0f1115U, 0xf80ff80fc62b4b03U,
  0x2cf603ea010a3adbU, 0x140b1ef3fd2323e1U, 0xdace40f0ab3e0606U, 0x16091dfb2503f927U,
  0xdbde04e01706d90cU, 0x7f07140284f6db0bU, 0x2eade1dcb5fec08U, 0x444ae103e640f05fU,
  0xfed6fe19fab7dbc3U, 0xe79cb100c620efb9U, 0x179a08ef140aedfcU, 0xdddb14efc1eee7b8U,
  0x12d1d5e3109102feU, 0xc0d190107e639ebU, 0xc827db36ffcc0b12U, 0x3a32e60ae1fc48e3U,
  0xf2ca29fa00e5fbU, 0xe3f706380aea0b98U, 0xfaf669ad1210e3e3U, 0x1510dedc881d0de3U,
  0xee7c0fb0d0af4dcU, 0x1117d6ecfd09e311U, 0xfc0ffa03da03184cU, 0x7f23230f07d7facbU,
  0x1001f81807faf5ffU, 0x6f5e9161e010808U, 0xf7f805b40cf20900U, 0xf70d02ea020bebe2U,
  0xeef601ea15371bfeU, 0xfa03e9ecca17fbeeU, 0x6009f51303f4f208U, 0x11af125f7f52bf3U,
  0xf6ff17ee02f0d9fcU, 0x6f1fced04f3f8fcU, 0xec7f013102ce015U, 0xf6eef6e7fc2202feU,
  0xf32906030104ef0eU, 0xc7ecff1f1af719faU, 0xf90cff00e632fcecU, 0xe70800fbfb20c7f9U,
  0xeff4f107ed060811U, 0x6060517f2e4f7f9U, 0xef0f309e9021716U, 0xfd0101f738f9f000U,
  0xff7ff413080c0f06U, 0xed070401fd02fae9U, 0xf5018efff8170afbU, 0x29f50701fce402f7U,
  0x7f4fd13eefa0bc2U, 0xf9fd18f5050605fdU, 0xfcf6e6d2f4f2f401U, 0xdcfdf2f41200fbe4U,
  0xfc81ecfff813000dU, 0x1048ece6c80a070dU, 0xf220f905082e08U, 0x272eece926ff0202U,
  0x71cfdf201d253fcU, 0xf30f07ff140806ddU, 0x14f52013f801e1fbU, 0xfe10f5a30102093dU,
  0xdeeebf6f915f3efU, 0xf61009fefaf6110eU, 0xe2ee030f15f70b0fU, 0x6f9ebececfa1ef9U,
  0xcfef9f0f94a1ae8U, 0x14fff7050bf10bdbU, 0x10e2fc190c07fa17U, 0xe80408f716e7fffdU,
  0x3eb02d7052ffa38U, 0x14fd0a20080addfdU, 0xf82de7fb25edfef7U, 0xde7efff08ece400U,
  0xecd3f3e2e8eae310U, 0xad8d2c729f3d4daU, 0x180802051a1108e3U, 0xe1ddfcf2e9de09edU,
  0xcf23f6d60903fefaU, 0xfa17130902da0f0dU, 0xf61ef5ef0ee7eff9U, 0x1101fb497f15fb08U,
  0xdb0236ab350420d8U, 0xa25d715f4e4fddeU, 0x13050c08cc15cff4U, 0xc4e71c3fbcecf11cU,
  0xb0104f47ff9fb03U, 0xfffef8f9f507fdf9U, 0xfdf50afcfcf703faU, 0xfcfbe8ff03f306fbU,
  0x3fd08f908fe0300U, 0xf8fcfcfe08f50403U, 0xf600fbfe01ef01U, 0x12061000020500faU,
  0x8fb03f8f0f001fcU, 0x708fc0907fa0d02U, 0xfcf6100005f9f0f3U, 0x6f7fef8f903fd06U,
  0x203f60308f600f9U, 0x40501fc01fcf504U, 0xf902fa05ff04fa02U, 0xfd04fefffb030105U,
  0xe8c8d3eb08f8fbfcU, 0xec1ae104810412faU, 0xf70e08180efb1f14U, 0x391a2104f5d8dfe7U,
  0x304f5041c0913c0U, 0xedcceb0709f00ef1U, 0xf9cbdbfaf316fdfaU, 0xf7f1fefbde0c06bcU,
  0x12e908dd2717fb01U, 0xcfdec06f4f7eaf9U, 0x16fef80ffa22f909U, 0x1917f607f7e938e6U,
  0xfafbfee3fbe9f9faU, 0xfafd180a041102U, 0x40225eef6e3f90bU, 0xcf707f30e28f718U,
  0xf6f21009052ae2feU, 0x191d030a00f2ed02U, 0xf7f9f0f9f6e304f9U, 0xf81afc170cf5f70aU,
  0x2123006fc040911U, 0xefff00fc08f0feU, 0x150817fa1e0403fcU, 0x7cce422f80a04ffU,
  0xc090d0007fe00faU, 0x4faf60000fdee14U, 0xe11f50de5fb02f2U, 0xf1f7f30606fa0009U,
  0xe6fb140d11f606U, 0xf403eafd7f24ff0fU, 0xfafb09edfe051009U, 0xf5f51cf0fe0d15f3U,
  0x3efee109fc0936c5U, 0xdebea140c24e014U, 0x314152116e0e327U, 0xc001bd7e3d0ce3eU,
  0xd12fbe60b010c11U, 0xec00170de802f302U, 0xef05fd05404fe913U, 0xfaefdbe418fd2810U,
  0xddb4051ef6094f03U, 0xdeff26f9ecffdad5U, 0x17d34fdb097f252eU, 0xd9090526540df70eU,
  0x1000183206e3d4b9U, 0xf0afc06e500fef1U, 0xe8c3fb0df8b91bfdU, 0xf31c1eff0503eb1fU,
  0xf8210a21030ef90aU, 0x7ff0f7051cdadc07U, 0x1e05fa0110e2fbebU, 0xdc03fc0e050cddf1U,
  0xf6c70c1c06f71cf1U, 0xf30afad4f9e527eaU, 0x5d7ff0a08f8df07U, 0xfe1107f903f3f3f6U,
  0x16f9fbe11219dbf8U, 0x35010a02f4fd1d09U, 0x50614f40b110be2U, 0x3f3ec0c7dcbeaf4U,
  0xe0912f513045df6U, 0x301290efc0bfcf4U, 0xfdfb05eef5d400f8U, 0x8fc0125a3e403eeU,
  0xcdfce2ee2b6ff5feU, 0xcfdfe10d14b7e414U, 0x9181a1513240213U, 0xc5bed909fa1536dbU,
  0x40af0e6f8fbda1aU, 0x180204f3f1c40ee5U, 0x1b32b0e9ccfd2719U, 0xc9c0f8d7f7380aU,
  0x60c0803350bee09U, 0xfdf0f72205226e24U, 0x5bbf2dc1dc3bb29U, 0xd3eef51d7fd4e12cU,
  0xfa30faf4a4fe1ce7U, 0x1303fff52ef10913U, 0xbc0605f0f91ade07U, 0xe4f2efcdc806a6fbU,
  0xb9e9310705f6ec0eU, 0xc3f31e35a0ad5fdU, 0xb3e2e4e80831dedfU, 0xcef4f1813415eecdU,
  0xeb0c210ae50018U, 0xf61d1dff1ff30111U, 0x3001f020df599beU, 0xf5121519bc1a1ce3U,
  0x16041e0bf84d110aU, 0x2fddd28f5f6e1f0U, 0xddec132512a6d3eaU, 0xf905d5f468003816U,
  0xa0dc33e023b10e6U, 0xe61d32e628190c32U, 0x33dff50d0a43f609U, 0xfc09462af713162eU,
  0x51147540f1fd3e5U, 0xc709ef612bf8d5feU, 0x1a023507facf6edeU, 0xcfeeffec340bd8e2U,
  0x17dffce4000219e7U, 0x131424fd0d1f30d6U, 0xfcf60e34da07210fU, 0x4f8fa07e80dcc1fU,
  0x26e7f1290c2bdd0cU, 0xf42c01fb0d0aee6bU, 0x13daf9ed08ab0f20U, 0xd932de00b006e70fU,
  0x49e91b30f2d966ecU, 0xd9ed06f7ca02e142U, 0xec67813d090a20f3U, 0xe1070020b11af5f0U,
  0x11cbfc49e30306b1U, 0xb621f977ebed05e5U, 0xfd1ce33b2360e451U, 0x3ca0006fcc154bdU,
  0x2fcbc7f4fe0af411U, 0xddd2fe0ae8ff0a25U, 0xecfd7f1ce71faefdU, 0xb03df18f523fd14U,
  0x471301ff2607240fU, 0x10f9f1e2f01812e6U, 0x413402850d946U, 0xd4f8d7213adffc22U,
  0xe2fffbf4faecdafeU, 0x2d28241cd9dec9efU, 0xf9e719e1c9c8f004U, 0xf0233c0c10f3d227U,
  0xedf00088f517c90cU, 0xc12fe1f210210ecU, 0xea0903f5d0130cf6U, 0x2db122af2e581f6U,
  0xfeec06b5ff24fa08U, 0x7fb14fbe3f3fe23U, 0x10201df90118ebb1U, 0x280a1e0a20f4e118U,
  0xf47df8262a1c300aU, 0xbce21205edf6fa08U, 0xde0b14e5e8301cf3U, 0xf3dc1d2d30f011eeU,
  0xecde221b0b1ae5fcU, 0xed19c3fde5effffcU, 0xdafaed2ef10416ddU, 0xfe0f1a1f110af0U,
  0xf0b00effdd3fdefU, 0x191413c8f90404f8U, 0x25d11905d3e01005U, 0xc61ef0e10f7f04fbU,
  0xfa200efaf6000b17U, 0xfd4003db00e9d61eU, 0xfbf7d4fc06f21afaU, 0xd0e060b151f43f8U,
  0x2fe6151d18ebf10cU, 0xfaeb1904fb240af7U, 0xb0e7273108ed04f3U, 0x8061bebe110ffe8U,
  0xedf9df0d050c4422U, 0xe1effe09ee1435c7U, 0xf00afeefff01fb22U, 0xfe0a0c18cf0816beU,
  0xf9f8f7ddffbded0bU, 0xf604f8000112faf2U, 0xb0ff105f00bf503U, 0x3a000fff9f8edfaU,
  0x104b1ff04f90011U, 0x91503e5c3e6fa02U, 0xec00edfcfaf60af9U, 0x9381b600ea0908fbU,
  0x110aa7ff0b04ed04U, 0x40001d5090e0a00U, 0xf60123fa01ecf505U, 0x2fbf91003f7ebfbU,
  0x2f707fba5001d05U, 0x10fbfde0a9eaf0U, 0xcc04fefbfe0cff04U, 0xfa07f613eefc95feU,
  0xee1d3e0050dfe07U, 0x110481e30df8f301U, 0xf1f90afff8fff6f6U, 0x1010fcd1d026e102U,
  0xea01eceff50ccb00U, 0x1503ffdd140e0701U, 0x903f6f800fd1df4U, 0x12110c1815f90e0cU,
  0xe6f4f4fe0900f400U, 0xee00032008fafb14U, 0x100e72403a1fefcU, 0x32f5f70cf0239b0bU,
  0xfa02f5ff241fef0cU, 0x1efefd110614dbeeU, 0xf2fd06e628e5ed00U, 0x19f70d17ef1212ebU,
  0x1c7f0d3723e8c5e3U, 0x1cf0011121ea14e0U, 0xdbdc21fbe537100cU, 0xc82811d8f1f809d2U,
  0xf6e9f813f8085d0aU, 0xf531762fd2f5af9U, 0xffd05f5d0067eb9U, 0x2eef9fb0b00e1f7U,
  0x185210ef210cc802U, 0xb0a28f017fae53fU, 0x1eea1d601e7d910U, 0x98fa09e7eb02f900U,
  0x712d80307421fcfU, 0xf1f9ff02fa020a35U, 0x2907f10deee5ff17U, 0x6d16e61d2c090515U,
  0xa816d7dd03180be5U, 0xc4c9d923ed104cb9U, 0x1ef331450200ea0aU, 0x17f8f523b621d225U,
  0xfbf80ed610f405cdU, 0x80918e8d3d31ce7U, 0xdde02ceafb0a1ff3U, 0x1d0c0be3d3161de1U,
  0xca0b14d206ea04feU, 0x2917fe655851ec52U, 0xd8fce6131fdfe15cU, 0x302fb821d8f9da08U,
  0x1d16ecb822f9380eU, 0xbd232c471c7ff103U, 0x59f2efd505f1f6f1U, 0x19f4e8bff9020ff5U,
  0x30daff085ae71754U, 0x9e9f2e2e5feebdeU, 0x1a06120238a83981U, 0xd6faef5d5771efd7U,
  0x2bff18f93e497224U, 0xdee107f9b6dce10cU, 0x3101a72109a7e0e4U, 0xe9e8140215030ae5U,
  0xbe110df3fe0c00eaU, 0x13ffe0fb76f12931U, 0x60d1e92cdb29bce4U, 0xcabcec1eea4ceb20U,
  0xf9e90015dbf70701U, 0xd1f3f01c131c79e8U, 0x14b9772e18a3ed02U, 0xc5d2c0e4ee10f2faU,
  0xe4091a0c08f8fcfcU, 0xfe02faf6fd0ef0f3U, 0xedfa07f91c04e0f0U, 0x703fd030d0015f3U,
  0x10f6f9e3217f06f1U, 0xeedf2bfeebf725efU, 0x60f0cf8fb0e0bd1U, 0xff0aeb0504056dU,
  0x22fd0c08ff0d0b02U, 0xe005ee0efdf516fcU, 0x71fc501fb0e01ffU, 0xfc000204d716fe05U,
  0x303141504c0e31bU, 0xfc0bf9ff1014e629U, 0xdd210e818d0ef08U, 0xb00f911e3f1fc10U,
  0xfb15fe0e0cfdf703U, 0xf7f007f4fbf70113U, 0xffdfdf7f2e206ffU, 0x19060b05020f0bf7U,
  0xffef0f03ea051a08U, 0xfb020a12e0f0e5f7U, 0xfc0a07f4f206e722U, 0xff0af3f908fa04f8U,
  0xf3f0060eeefce9f6U, 0xfd0921f8ff08320cU, 0xfeeb1cf5197f11efU, 0xe3ef021b0bf709f4U,
  0x703e524e1e015ddU, 0xf5f201ebf4081416U, 0x4042508f919fcU, 0x230603091f04eee7U,
  0x3d08fc370ee06efcU, 0x60eed0ece8060d0bU, 0xc23051613cf0a15U, 0xff1bf30dfe101e05U,
  0x23fc102806f1021cU, 0x2701e416060e1c1bU, 0xf926fef8fef4dcf6U, 0xc02e4f51c1cfcf4U,
  0xe6fa0d9cd901f3f9U, 0xd10c1dfd021bc5fcU, 0x3f5202216ee0a04U, 0xa61900d9b0b3f431U,
  0x4041a10ded28109U, 0xff04f9f2f40606d0U, 0x40ec2eb1d022a09U, 0x413f2260d04f816U,
  0xb9c1dce528f4fe1aU, 0x4031eb14a2e8d720U, 0x4361320d91506dcU, 0xf6e9152a0f7fbd3dU,
  0x1fc5f3f2d9db07d2U, 0x58390914e2eed720U, 0x13eec6b46cdedf1aU, 0xf6200df7eae3fe9fU,
  0x39dae4de06c0e6f7U, 0x1d12d6354aebfb0eU, 0x9e52d8d2f6d0f316U, 0x5f12bf3467f818fbU,
  0xbffe831f110cccaU, 0x1824c71c1ae6af96U, 0x7fff7f717c3c8faU, 0xd5fdf5eb21e210fbU,
  0x111efd4a2401ddfeU, 0x421cfc1af0f0c4dbU, 0x7cf31447e8f919eeU, 0xf60df10f00f2f4ffU,
  0x618ece8ff061cd0U, 0x7f010f9dc14fdd4U, 0x55c90cf7fb090c1bU, 0x2eb020fe210080bU,
  0xdcefdbf1ee02feU, 0x40e2d0309fbee02U, 0xdd24b31403fec625U, 0x2303191181dd22U,
  0x1600f0dd0102ec0fU, 0x17f60c1e0827d4faU, 0xff0016e4f1fd50e7U, 0x2c0f0a3ce4ecf2f1U,
  0x1510262407e5fcdeU, 0xd0e032e2e8141a15U, 0xf6d82d1ffc00ccf3U, 0xd4f4ddd7267fec14U,
  0x1e27fcec1e090ee7U, 0x5f200f0f3ef09fcU, 0xe40c2b13f91a26e4U, 0xf11c2512093837f1U,
  0xe302f4e54102242eU, 0xf307ffd628f0f013U, 0x4f9f3effd110516U, 0x1f2010c8f424fcefU,
  0x36fbfde1e2e6ed1cU, 0xf50a2effcd0f1314U, 0x6ed1ff81005f4ceU, 0x40d000328e910d8U,
  0x3432af05422c4b3fU, 0xd5100aebe7d01ae3U, 0xe0203c2b145bf6faU, 0xec1316d1e015e7feU,
  0x13bcfc8123cc2902U, 0x853f626edf8b01bU, 0xe3b2e19ad52dcacU, 0xf6e53a2037311ee1U,
  0xb21f381228d52bfeU, 0x1007e00df5ebb7ccU, 0xecf1cc0eda3a513fU, 0xf129321dbb0023e4U,
  0x131413981a0583c2U, 0x517e83d0139d320U, 0x25efc80907c1021aU, 0xd90ce7185412df33U,
  0xe0171302f6f8f60aU, 0xf8e23508eb23f5f9U, 0xe90c1726f423fdfdU, 0xc715e7e414feee22U,
  0x1c07010001a7c8c5U, 0xe4dfd71307ea11d0U, 0x15e50c07f110e702U, 0xf205fa12f52d03dcU,
  0x1fe1fab3188129fdU, 0x81fcefb1b07e206U, 0x250a04200a13f318U, 0x517d60207fef3fbU,
  0x16fc110406ebf20aU, 0xfd1cda0bf60615eaU, 0xecfc1dec15f102f8U, 0x319ede418f60617U,
  0xf506d1f1f80606eeU, 0xd90b7f12e719f7efU, 0xfad4ff3937e3080aU, 0xff022e09551afcedU,
  0x15d614f03fce03ccU, 0xddbde2f2dd0909d8U, 0xe70cb21f05f000U, 0xe4f80f03d3381a13U,
  0xae090bedd3e3f10bU, 0xe71e0205e3fb382fU, 0x150a47c31a0ad44aU, 0xf00a082ce6d8f4f2U,
  0x1930cb11f70026ecU, 0x1bf5e233f8ed11ecU, 0x517ece8f70a1de1U, 0xe023f7e21f350315U,
  0xf4f714051818fd00U, 0x1ee12f1ede32a11U, 0x9f3ef0a2003f40cU, 0xefe9140c2cfae311U,
  0xcfae240fffc01e9U, 0xf104f60417e0030eU, 0x3121ffac7e5f1fdU, 0xe7e0d9f50e2301ecU,
  0xf1e92ae2d0ffee0aU, 0x16f9e12afc07171aU, 0x1cec0b2efaf0ee04U, 0xf7fef1f0e7e90a1dU,
  0xf37fe1ea0a0612d7U, 0x12fb34fd2b150bfcU, 0x3f020e1e61b1613U, 0xcff608e5f009ec16U,
  0x359220ff5eaf009U, 0xfcb80e071815fbf2U, 0x7071deabb21bd5dU, 0x1ff2320e84f0b1fU,
  0xeb0c1220e069ae0bU, 0xd7090d111914fb0cU, 0x130c04a0faedef05U, 0xfcebee2705e57fdcU,
  0x2d1007edfec8df0fU, 0x11d50a0e98f2f60aU, 0xb4f5ee05f6f4f7e8U, 0x317f104fb09ecfdU,
  0xf5f8fa02f90f0febU, 0x4e712d6fd090de4U, 0xa2e0ae9fb130507U, 0x14f32012102afc28U,
  0x2f020a3eb2910feU, 0x34fe17d800141004U, 0x1505000118c011ebU, 0xcfe502be3921bff9U,
  0xf30cef0c0ef9e2a3U, 0x26f30bef1c2a49efU, 0x5e91403f7f313d3U, 0x9f3e4f4caf6fffdU,
  0xa8320adef7f1f2faU, 0xcdfdcf21f2ea201fU, 0x13216117e1240ce5U, 0x1fdf6eff0c31afcU,
  0xfe01a709d581a0U, 0xafb02f402ddf004U, 0x5f3e827f2eef7f8U, 0xfbf1e262adda060cU,
  0x8060a0808fffff5U, 0xf800060b077f04faU, 0xf7f4fb0b01fefe04U, 0xf604f00204040af5U,
  0x2f608020c00f717U, 0x306f901f41b05f4U, 0x1fe0406fbff0601U, 0xc00ff03f902f2f5U,
  0x407f9fafaf9fd07U, 0xfe05fff0fcfa0911U, 0x3f9f5f7f601effaU, 0xf801100010e102faU,
  0x1f3f5fb03f81dfaU, 0x7050cfef801fdf7U, 0x502f5e20e000901U, 0x13020d06f9f303faU,
  0xc1c0309f0fd31bfU, 0xf7d7e12036c9e3e4U, 0xd4e80bf8c7cd2746U, 0x2a2f0251eaf6cc1bU,
  0xf74b2bf605f8231bU, 0xf5ea15e908fbe91bU, 0xf30181e32bec5223U, 0xfb172bdc5f15ec0cU,
  0xbfdc2ae7f31efbf4U, 0xd5f30818100b2d56U, 0x5b0264950d1e26efU, 0x601405e5c137c4e3U,
  0x15f5ea130113b267U, 0xf6f91306353bf2ecU, 0x1d3f371302e3f9e9U, 0x1a142202141a30e6U,
  0xe0f7d945182df133U, 0x12d900b901b9a8d6U, 0x95714fbe53ae425U, 0x30df801edec5d24U,
  0xe51908d00bd7f939U, 0x29e0e9eebdceccb1U, 0xce0cb0fe03e5cae5U, 0x231109e59a011514U,
  0xae0205d354e8d705U, 0xbeded7e9002c7429U, 0x20002eaa16a2bb0dU, 0xbde4e9467f90ed04U,
  0xf806558eee011acbU, 0xfe41e3e8b41f3112U, 0xfdf55f2527fff519U, 0xd4ebfddf111bf9e3U,
  0x1d0fbfa0def0c10U, 0xedfb0cdc23fe09f1U, 0xf0de00f7025a2c10U, 0xd03fec208f2fb0aU,
  0xf2e8f9f5fc04d2d9U, 0xfab77f020a2c2208U, 0x9fa10e318f8dd00U, 0xcfe06eb08ee1310U,
  0x3ef00160925fbf6U, 0xe7fdd6ec0003e6f0U, 0xe41ad91cf5f004ffU, 0x1901f70de7ef17ffU,
  0x5ed2dea141fe2e7U, 0x19f6010103fefa45U, 0x1311f8eaf760e9feU, 0xf5f6f6f8030308eaU,
  0xf0ef8106f2fb21ceU, 0xf9b701511de61336U, 0x110af508571ad943U, 0x4cd9434e00e5170bU,
  0x14e2ff010d0dfe1dU, 0xcddbe81beb0538c8U, 0x14ffe7ef0cfa00cfU, 0xf0c626b7d7145434U,
  0xcb1206cc4b05e3f7U, 0x210e0114172c5c03U, 0xd7f40af0f83ad3ffU, 0xf710d27444b7acf1U,
  0xe3e506ef1d9b9be1U, 0x16e419e40acd1a22U, 0xe6dffc97e8dcf0faU, 0xf24d7d7db2e0ae5U,
  0xf1fc070b0702fb03U, 0x10fffe0405ff06f3U, 0xf5faed81f907ff06U, 0xf7fcfaf5fe15f102U,
  0x1f5fe1af8fef7f2U, 0x5fc0302fd060fU, 0x14fbfdf3040b00fcU, 0x810fe010ef2f704U,
  0x9f50d03e0f5f703U, 0x704f302faf0f908U, 0x10020e1302f61a0cU, 0x8f906f706fd02f4U,
  0xc0705080ff7100aU, 0xf8eb0bfefe0704f9U, 0xfc0eef020102fc00U, 0xf6fded0ef1f50cU,
  0x3c8f426f00f52eeU, 0x55e9eac1dbe7c823U, 0xec502d1d7ff8d24aU, 0x33e04a0605f73035U,
  0x1d10140d02eed2d9U, 0xccfdf11f91717e9U, 0xe9eecbd52331eef8U, 0xfdfcf3f1c9045be9U,
  0xe0e904f527e8030eU, 0xef290fe64af60c0bU, 0x103170bde523f424U, 0x402cb26ef1af416U,
  0xf9f7d70ec6d0e678U, 0xf144f1bb11f206f0U, 0xd8e1da01efebf902U, 0xcd05201af85dfa72U,
  0xad70000a422U, 0x5cda00004e96U, 0xfb87ffffef27U, 0x1dd4100007bb1U,
  0x102040001395bU, 0x4d1e0000223bU, 0x796f00002620U, 0xfffff30600006876U,
  0x925000002849U, 0x141b5ffff178bU, 0x4d9100011fbeU, 0xffff7b3700005678U,
  0xf3ddffff6aafU, 0xffffa398ffff926dU, 0xffffe4dd0000d505U, 0x15c6800000c74U,
  0xffffddb60000d59cU, 0x178beffff8a7fU, 0x111a500006e36U, 0x7e65ffff7c44U,
  0x3deaffffe096U, 0x87db0000cc92U, 0x1758a00013714U, 0x1b4b0000ea9bU,
  0x61580001786aU, 0x63e4000094d6U, 0x27b800006f54U, 0xffffd7bb00007e16U,
  0x583300005b8aU, 0x1f4c70001f37eU, 0x2ecbfffff581U, 0x381a0000173aU,
  0x900effffa652U, 0xffffe377fffff5aeU, 0x300b00000b57U, 0x43b6ffffa52aU,
  0x9245000117faU, 0xca96000004e4U, 0x94d400003462U, 0xffff48beffffc24bU,
  0x848100009602U, 0x167780000f03dU, 0x11050000bd17U, 0x1a00000322d7U,
  0xb04000013401U, 0x2e30000a511U, 0xeaa00013795U, 0x9ad0000edc6U,
  0x784c0000ddacU, 0x82a300003363U, 0xffff66e00000cc19U, 0x85d100013577U,
  0x105e70000a6b7U, 0x780e00003958U, 0xfffff951ffff71bdU, 0xfbbe000003d1U,
  0x4600000129b0U, 0x38fcffff3614U, 0x150b90000cbdfU, 0xfca1ffffc8c8U,
  0x1d6e0000fe2cU, 0x1042c000103f8U, 0xf62500002cbeU, 0x27bdfffff8a3U,
  0xc09fe18210afd1fU, 0x409271e01ec0302U, 0x508b4ff3211efe5U, 0xb0ed0fb0d02ef0bU,
