/**
  ******************************************************************************
  * @file    face_detection_data_params.c
  * @author  AST Embedded Analytics Research Platform
  * @date    Mon Jun 19 23:25:08 2023
  * @brief   AI Tool Automatic Code Generator for Embedded NN computing
  ******************************************************************************
  * Copyright (c) 2023 STMicroelectronics.
  * All rights reserved.
  *
  * This software is licensed under terms that can be found in the LICENSE file
  * in the root directory of this software component.
  * If no LICENSE file comes with this software, it is provided AS-IS.
  ******************************************************************************
  */

#include "face_detection_data_params.h"


/**  Activations Section  ****************************************************/
ai_handle g_face_detection_activations_table[1 + 2] = {
  AI_HANDLE_PTR(AI_MAGIC_MARKER),
  AI_HANDLE_PTR(NULL),
  AI_HANDLE_PTR(AI_MAGIC_MARKER),
};




/**  Weights Section  ********************************************************/
AI_ALIGNED(32)
const ai_u64 s_face_detection_weights_array_u64[2607] = {
  0x2319ffffec53U, 0x7fbeffffe301U, 0x105d000062aaU, 0xfffff386ffffe52cU,
  0x1aaa000054b9U, 0x4db200006a50U, 0x2999ffffdd21U, 0xffff99e20000822fU,
  0xf30056f87be13ef4U, 0x8721811a63b02233U, 0x9b7fec1ff2082409U, 0xf1bcd04e0f94801U,
  0x7f32f50b16db2892U, 0xca0c24c40f6e4505U, 0x7f310fcc2b2a49beU, 0xc7bdc8202e9d2e12U,
  0x47fe67d43a29fd0aU, 0xce81080e1c12db19U, 0x16eec8190347e7ecU, 0xd7c126ed81e068b3U,
  0xbfb847260222fc04U, 0xcdfeed7ffb3101feU, 0x2fbcae0e27f1622U, 0xf723f114d0b7129cU,
  0x3f0a44e8153c1508U, 0xc781f2e4a80efd14U, 0x15f6040d2f528112U, 0xd79918d4f458f75eU,
  0x55f20f81e2fda0e4U, 0xf05e60d1d3207b4cU, 0x8192e202a606f22aU, 0xc036f515f30e22d5U,
  0xff8103eed7fd0ffeU, 0x206c7a391b019cbdU, 0xe308c9fc24c4bee8U, 0x2a7f1a0a0d122c3aU,
  0x7fff360c2625bbf0U, 0x6dbf271aeb1a2e13U, 0x15b031033f3ec03U, 0xdafde805e0158102U,
  0x811ec7f71cb2ad17U, 0x7a70760e09714f6bU, 0xe2387f5739deb9U, 0x29832b21c907b75dU,
  0x14ee13b8241406eaU, 0x154081f0c1f5f7c1U, 0x7fb2f46f933bd55cU, 0x6a2c22f42327d947U,
  0x31d7f4e8d130f42aU, 0x7fe61c1c0656d0fdU, 0xb68d1f22d812bcb3U, 0xe42ccc81bfe161bcU,
  0xe116bb14ec1ede12U, 0xeb50f9dfc1e81d81U, 0xf5ea060af90e0a0aU, 0xde0ef77ffa2ff6f9U,
  0x274a0ee7aefa12dcU, 0x2f1481f68420ecf2U, 0xa0bb81572ee00eafU, 0xda20bfe791974c1dU,
  0xe8ffd35d9426eb11U, 0x7f085209d036d75cU, 0xf4fccfdbdb14e75eU, 0x23fdee1317810de8U,
  0xcb65fa539cb1c981U, 0x25bb0605e09d39ecU, 0xd017f9067f02cbc1U, 0xc221d51a1b980610U,
  0x58e44a1bf67ff046U, 0x38ad1702d140b0d1U, 0xd810bbf5c9fdaf21U, 0x7f3e4ef40d4b3cf5U,
  0xd4ba0f8123e047f8U, 0x441e2e102afae5c6U, 0xcef60a0b7f04fa17U, 0x6e1bf301f9491ca8U,
  0xf497d4710f38e539U, 0x2ae21ef7e5ba7fd2U, 0xee181fbffe61847U, 0x11fe122709bbe5eeU,
  0xdf60b1e0881fd0bU, 0x13f7fffdeffbfce0U, 0xb02335b3f67ffafdU, 0xe00be73311ab32d1U,
  0xf70e2f0d410a3d81U, 0xdbef23d50272fd4cU, 0x2d81ef1f1f10f1f1U, 0xfc05ee09d4f42a07U,
  0x6382ffb7fde4600U, 0xedd4141c37bdecbcU, 0x5f7ffadad6d91315U, 0xd132ff6e3e26dd7U,
  0x31d5103903e3ba19U, 0xbbb0e0b2b7fab62U, 0xb9d2182acb33ecc5U, 0x314f581d0f234d4U,
  0xc900dff0ebdd150eU, 0x330a501e3e0aff7fU, 0x29f7fc20ab05a6cbU, 0x7fde6d24dcdeb60eU,
  0xb50deea66ee90dfcU, 0xe0092902ddc93e81U, 0xe3004af67f92f1f1U, 0xe918d2f146513b0bU,
  0xdde22481140700U, 0x205a23e61e31f3cdU, 0x2b860d26f151eefU, 0x81c3bf10f28ebc1fU,
  0x43f6134da2282d13U, 0xee18ea0d0ad8f07fU, 0x81aaec4bff09d21bU, 0xfa03f10ddd07bcefU,
  0x6cc8ee2f24fc0f18U, 0xd5f36b57d7db7facU, 0xeb1e09c1990163eaU, 0xde9d810248e2c0c2U,
  0xd604e52917070cf0U, 0xfbdb7feddef91f06U, 0xefe3f93e027b7f89U, 0x87ee0e9d16528c9U,
  0x34edfc648d1aff5aU, 0x476317e47f02e65cU, 0x7f300af15121fdebU, 0x21053b01dc1100fcU,
  0x20e8310b9bfb7f1eU, 0x2e2fa91666feed57U, 0xf81003d4932d3f1eU, 0xfb281fbcd1d0d0fU,
  0xd7137fe7db63f624U, 0xed100e1df9c923f4U, 0x7f6833e4d6f20dceU, 0xe20936ff0fef3c02U,
  0x16eadfcff806e305U, 0xff37812cb5cff7d4U, 0x819eff34ad06ee03U, 0xd71b022bf9f25fd5U,
  0x81ec05453e1ef6deU, 0xd01f2dabbf79c28U, 0xc438520cc8220781U, 0xebf81bfae1282badU,
  0x43f31aae04521655U, 0x19812506904511b2U, 0x819dd43549d6ef24U, 0xf6bef69eeab69525U,
  0xc903a2c01fb4dc16U, 0xe67f30dac739fdeeU, 0x731f810442b032dcU, 0x21fe337af724f84fU,
  0x697f0bd2dce51318U, 0xe70e2d0a01e447f2U, 0x3a0d0013c8e6f514U, 0x9438112fff3d2dcU,
  0x81d8e4283fee2d14U, 0x2e293e25ffd54120U, 0xe520f09ab4ca81e2U, 0xdf50c41ff2eb0bdcU,
  0x448105fb463421e8U, 0xaf4f1fee5e4c909U, 0x78404d0231e1fbacU, 0xe087481aaec63ffU,
  0x8e819e4ffdc4c025U, 0xf1301840d8f9f2caU, 0xcfe8e9d6e4e10dd9U, 0xc23134fc18caf97fU,
  0x23da2b5b540581a8U, 0x4251f83d3188c2e4U, 0xd2d127fb80c0214U, 0xbc1dc3ec2ef81350U,
  0x180ef9ed8139f205U, 0x1bda77f9d0facea2U, 0xe7dd4bfb2b250d39U, 0x148121f8e1edf0eaU,
  0xd40de206a034e3beU, 0x1c9992ce81fdeef1U, 0x4011d4ebb3012810U, 0x2004883181de0094U,
  0x10c6edce2711127fU, 0xcc480ce6fa52e8e0U, 0x77bfe035de09eae7U, 0x837349fcfbd081afU,
  0x25db53b00af4fa23U, 0x24f381f3ef05ca98U, 0xf706ebce0d02de4dU, 0xfc12f62e158132f3U,
  0xebe6dcf9f50e0809U, 0x9c7fe90314010940U, 0xdf2000d1f2c05943U, 0x81eb05eecb00311dU,
  0xc87ffcbfb105f0f7U, 0xffe5f437950fbd4bU, 0xdb1cfddab8fe1504U, 0x7f37f902494016d7U,
  0x81b5f1400b061911U, 0xe404f6d6ebfebf20U, 0x38e4fde0813dfc4bU, 0x24eb6ae9e13fb51eU,
  0xeee7944b0c8a3981U, 0xf2d7ea08d162d1f0U, 0x22db06198127450cU, 0xf2af2700bbc4f42aU,
  0x1730000007a0U, 0x5c27000041f4U, 0xffffefc4000044a3U, 0x15c3fffff952U,
  0xffffeddc00006658U, 0x122b00002c88U, 0x2ac20000271cU, 0x4f400008d4bU,
  0x219000000a61U, 0x193900002f85U, 0x2e3ffffff08U, 0xfffffc4b00003170U,
  0x103000011daU, 0x204a0000341aU, 0xaca300001c1aU, 0x3fb90000e19cU,
  0xfffffcc100002784U, 0x9080000398eU, 0x14a600000531U, 0xfffffc6400005437U,
  0x24d600003118U, 0xfffff16b000092c5U, 0x2126000062ccU, 0x495f00001debU,
  0x26310000df20U, 0x2571fffffddbU, 0xffffff63ffffeed2U, 0x1c99fffff5feU,
  0x49c7fffffd9dU, 0x2106000017bcU, 0x3fcf00001334U, 0x1502000017d9U,
  0x2597000023d6U, 0xffffeb1300001581U, 0xfffff2fa0000201fU, 0x27f5000016b5U,
  0x1a3a000051f1U, 0xffffe7b9fffff3bcU, 0xbc00001efaU, 0xfffffbab000009a1U,
  0x2c4a00004aadU, 0x361c00001456U, 0x10a00000bf0U, 0xec8000003107U,
  0x2aff00001bd1U, 0xffffff4d000017a5U, 0x282400001795U, 0x347f0000148aU,
  0xc7514b167ff5b9ceU, 0x12503e2fbf1eef0U, 0x87f8112151bd5f9U, 0x18268185e3330cadU,
  0xfa1ff4e4ee3c1f0bU, 0x2e26bb1849931bf1U, 0x300efa0313e832eeU, 0x260a00f4eebfcfa8U,
  0x7f1313f80c48e644U, 0xfc7f12f6fd1a1619U, 0xf0b6167e13e50df0U, 0x18f0e501d6f0e0ffU,
  0x8d267fd6684d817fU, 0xef29d7f7fef0342U, 0x4350b47f8f7f7f0aU, 0xebc32fcadec08b81U,
  0x40caefd6ac8133a5U, 0xcd8f8dcc537f7fffU, 0x522ae043522a81f1U, 0x43c2d9d390ab2bd3U,
  0x5cee20af1e1bc148U, 0x34df3b03170d7f76U, 0x7f944af9ea7f7f40U, 0x67d981a681049e8cU,
  0xf943e80eaf20f3b4U, 0xf4f8faec12e5df4dU, 0x1f9aecfa08f1f9U, 0x8f03276ca076a87U,
  0xf1420f9e30d0d00U, 0xd24ee1242880c1aU, 0x14fc01f504ef0af1U, 0x232a0134d906bcU,
  0x25fc030a16e2d8f9U, 0x3abfbf604fbe50bU, 0xeadf0d9403f1e9e9U, 0xf1e71ddee619cfU,
  0x7f1b5fd0df4eb6bcU, 0x1f4e901b8affeacbU, 0x3231ad3658efc5ffU, 0x997c3fe8ea7ff799U,
  0x65e320dec8ab5b81U, 0x42e87fcf2dfbe5cfU, 0x1f1aca11ff135f0fU, 0x7fdde07facb47c7fU,
  0x607f277f00f0da47U, 0xcde100f08fc65d8U, 0x1fc8260471b178d3U, 0xffe9bb7ff9df814eU,
  0x275f517f923d7e43U, 0x7f8181beda7f7f81U, 0x7f885d6bcd84c17fU, 0x81816e817fd5a090U,
  0x7f94817f7f6a7fa5U, 0x8181db81816e9fbeU, 0x817f7f7f2b55927fU, 0x9e81b2147f818165U,
  0xad9381847f817f81U, 0x7fb07f817f7faf81U, 0x305e7f3d81d41f7fU, 0x817f22bc007f0b7fU,
  0xe72c9fc827d1f3c8U, 0xd0e60025de5de11U, 0x7da9f057ef93ffeU, 0xc210f0beedb76ab0U,
  0x30bd2ce5ef0326baU, 0x2e11c6d91dd8fa7fU, 0x1202b8de06f57508U, 0xcd5e7fdc16fa035cU,
  0xabec7ab2f5260ed4U, 0xdc4a131de8f0ca01U, 0x1847f6d40f3ad8b9U, 0xf9e661d40fd43d11U,
  0x193fd20deefc03b8U, 0x1e51711ffdce135U, 0xf403abcb020742f8U, 0x19192657bc24c6ebU,
  0x3fd25f8d1f5f510U, 0x260b1e0365bbf8f1U, 0xd07ff1aec09e6f1U, 0xfde801100eef1abbU,
  0x1d190ee110d0d100U, 0xf6b00912061bea0eU, 0xd50c0681110ff6f8U, 0xf7ee3808d5e4d0c8U,
  0x1e26e9b9df812277U, 0x25f273b294ece3beU, 0xfedbca5f81f7cc02U, 0xfaf7ebdd15cc7f88U,
  0x3a7fe3e7071a09c0U, 0xd6bb4bdadc43f10cU, 0x2601e7d38181fbe0U, 0xd208f0fb280af9c0U,
  0xb9e76c74ea3e21ccU, 0x173307640504c50dU, 0x277f0b0402cf9e0cU, 0x17f54d2893ec25c5U,
  0x381bd0f1cf00dc5U, 0x13ea0e04f0f7f4U, 0x11b3d41105eff9U, 0xff8dacf04129f17U,
  0xd72b03dde7f9e72aU, 0x11174303e2cffd18U, 0xfafb0616f609fff7U, 0xf7580cf5dcfaf3c1U,
  0x14fc06011dfffe23U, 0xf44c052611fe0eefU, 0xda28034beefaf905U, 0xf2f102f8cdee283aU,
  0xf5de000053cdU, 0xfffffa77fffff6cbU, 0xffffedd400003d00U, 0xffffff65fffffefcU,
  0x3b4600001b76U, 0xfffffc8bffffed32U, 0xd2500000408U, 0xffffdd1c000014c3U,
  0xfffffcebffffefb9U, 0x43acfffffd2dU, 0x4e43ffffce7dU, 0x2172fffff409U,
  0xffffff7200008752U, 0x44a8ffffeaf8U, 0xffffb2df00003cedU, 0x5713000007c8U,
  0xffffd82600005f43U, 0x4100000a25U, 0x1e5fffffd09U, 0xffffe0de00000f5cU,
  0x22effffeaa0U, 0xfffffff3ffffdc6eU, 0xfffffb17000074f1U, 0xfffff86100002fb8U,
  0x46dffffc671U, 0x10ffffffd9U, 0x4ac6fffff462U, 0x378afffff0f2U,
  0xfffffdc800003ff3U, 0xfffffe8300009638U, 0xfffffc4affffddedU, 0xfffffec800000595U,
  0x379cfffff91dU, 0xffffe496fffffcb7U, 0xad2fffff34eU, 0xfffff11500000077U,
  0x2f600000169U, 0xffffe674fffff571U, 0xfffff63dfffffc26U, 0xffffe1450000d234U,
  0xffffd336ffffe8b2U, 0xffffffabfffffe65U, 0xffffcb69000128e9U, 0xffff927dffffd54cU,
  0x23e8ffffea2cU, 0x76a6fffff669U, 0xfffff84c0000032aU, 0x725fffff428U,
  0xfbd9f612e6fff4ebU, 0x7effaf705f60716U, 0xfe04df0dfb000900U, 0xf42cdc257f010b07U,
  0x2d310f1fe0305fbU, 0x3110a0123020bf7U, 0x51f5e9070af8051aU, 0xe4fe1bfcd8e306f9U,
  0xef1304072deebfd4U, 0x9ff15e3eb00def7U, 0xa2f3f700161ce8faU, 0xf6e0db30fb06f106U,
  0x154bfa7fcab7be23U, 0x2ec9fc0ceec9aae9U, 0xd5f2220b34320cc2U, 0x24baf42ac8ecf60aU,
  0x201ef40cf6f334e7U, 0xfcfa59dae2de1fe5U, 0x15342beedc04ab14U, 0xe1f5fa0bdee2e6bbU,
  0x11f0f2f8e2ec5cbdU, 0x21dcc1ffee19132U, 0x22f017d0fa1cef06U, 0x741b0e320502da2aU,
  0x44135242e7a538fbU, 0x1519f60bf5e28102U, 0x2266ea1e43e5ed10U, 0xb43ff121b7fc2f26U,
  0x3b1fb08728e82615U, 0x570ee7fceefdc0fcU, 0x3df6ed6cf6db23d2U, 0xe72b2303f8231e19U,
  0xfaf213bb03e1f01dU, 0xfe1a2c482bffc0caU, 0x19fd12e4fa16ba0eU, 0x5c2ddffdc060beaU,
  0xf609e235ef660c47U, 0x66191e03d506c8dbU, 0x1a2b00740d23ec0eU, 0x58f925180beef536U,
  0x1aebe8e0f51915aaU, 0xb0cf391b0d3cd3adU, 0x1a12810624c4d6c4U, 0xcdfd580b2d4938a9U,
  0xbefcf906c6ef4217U, 0x2839f914e02ed637U, 0x221d0ae0fa06b4cfU, 0xcd1c6c163e19020cU,
  0xe3f02d7fef1aee23U, 0x26fb13c7dddacbdbU, 0xe821f3fa55d3b612U, 0xcf33ecfccf06fef6U,
  0xa06001f10e1f853U, 0x8edc4f4f4e4e9daU, 0xeb00deeef4e10316U, 0xd3c33f81bdfef1fU,
  0x3e29eec8f3eb2733U, 0xdc581925ebc9b419U, 0x2d2dffaff202d605U, 0xda1a0106ca011bc8U,
  0xec33ef1d1bf0f8faU, 0x1a071b0611f8d9f3U, 0x51d61c21f913f7feU, 0x20102107a314ef1dU,
  0xfe0a241dcc0d11f6U, 0xf707f908e8140a0bU, 0xd2f2e6ff0206f7f9U, 0x2af3194b0dd915e6U,
  0x231366054b0836faU, 0x70e03db490b1303U, 0x7fee1cfc0b03f8efU, 0x1bc31208e7062004U,
  0x172d07e9ee0fba0fU, 0x28ea02e4c0f6010eU, 0xd072ed6f803f81bU, 0x32610f802f4f8f5U,
  0xa32300ff00421a3fU, 0x12f0ee11da0563f7U, 0xf8fbc4eb50ea2bfbU, 0xb81d40fbfef2c1f7U,
  0xff7f0dfdef0de51dU, 0x90c07a91fe909d1U, 0x1b2106edf9122f1cU, 0xfedc05f2e3310f10U,
  0xe234296f1b257ff7U, 0x27291df4f82ce3eeU, 0xe1ef0221907e118U, 0x1612f21e0c0c0707U,
  0x52081819fad80a26U, 0xf520e7f20d122ce0U, 0x2ae5d6131920f0efU, 0x1f9dffffce8121bU,
  0x3904eef9b4eb49c8U, 0xf821492d1218e8edU, 0xf33af8f8f6e3ccU, 0xb11f9d2e5e01fe8U,
  0xf940e689293d08f0U, 0x12230ef20f4c6129U, 0x518109d3040b02deU, 0x3bf91212084fd01eU,
  0x2124fbf1fc06f84cU, 0xd2606eb0a23f129U, 0x3ddcefc22b0e1497U, 0x1d3df19f894ccf0U,
  0xe7cdeb19c6f9500eU, 0x8f6eff2ff3f3a26U, 0x2f492011efe1109fU, 0x12300a0b293ee924U,
  0xc2cb5e5b01e68120U, 0x93530ee35a55d018U, 0xf02bb0cd10f3e8ffU, 0xf1f904d717ed22c4U,
  0x3bd8f7fd328ffe1bU, 0xc8aae2f751efa4ffU, 0xccf1223989f10f0eU, 0x73eeaf0602064b13U,
  0xafb311fbe4f9e7abU, 0x31ca24e12e8f130U, 0xf21eacf71f08de11U, 0xcafce4c722c0d601U,
  0xf449f6ecdeddf3c3U, 0x700f92323251c26U, 0x150c2ff7ece81007U, 0xe43cd722810eea04U,
  0xfc0e2efef1011d02U, 0x1520ff12c718e81bU, 0xc7fee8ddfee83105U, 0xff91321d8f41006U,
  0xec06ef13e9f461daU, 0x11e93af3411efddfU, 0x79f5f60c140504e1U, 0xe124e317150c0204U,
  0xefdb81a18fc2292U, 0xdf01f2216030eceU, 0xaef0c00d3bdf837U, 0x20d11ee91153f664U,
  0x43414fef2fe28faU, 0x1444156c01fa0d09U, 0x11dc50d41ed2945U, 0x1df0fd01d7d0f8a5U,
  0x21fe0b1d0619ebefU, 0x428167e60e2c10ddU, 0xf72b227ca9b101c8U, 0x3e63ce6c9e73f0bU,
  0xeaf01a2ff2ddef0dU, 0xe116e5faf30807efU, 0x24e3d6f7f507fbd7U, 0xf5dd1ae052e539d4U,
  0x10f9dbe81dfd0df4U, 0xa0e02e30df8e2e6U, 0xf3f408f2cd00f1ecU, 0x1e0cdfe71521ee12U,
  0x31f481dc3009ad28U, 0xfcffe20e3ef7fb0bU, 0xca02e20406d70e04U, 0x11f519d7fe0402f0U,
  0xaf00bccfcfc40b7U, 0xe00e4b142aeae1U, 0xd42ff814fad01bf9U, 0xa1dbe10c0c0a1d43U,
  0xe1231bfb12fcedb1U, 0xfff6f8310f0048e4U, 0xfa51cf43431deb36U, 0x12f0170b082324dbU,
  0x810b1505f502e707U, 0xd9db253208b7dd0aU, 0x558e81fe1fff451U, 0xcecd7240eeffee3U,
  0x15e80314bbed0bedU, 0xd8a6badb0707fd9fU, 0x8d19ec220d47f69cU, 0xdaf9e604e0c422c4U,
  0x6f6eee91410d7beU, 0x40616bdfab143f1U, 0x16973824e31cdd7fU, 0x163915ff0ca119ffU,
  0x233712c700fb1907U, 0x97e4a43e07d5ed2bU, 0x2d7ab20340fd615U, 0xe9141c0d381c0bd1U,
  0xc100060de1efb6d0U, 0xf62bfa2ad7ff1ce5U, 0xd1b40ff607f3eea6U, 0xa248f0ef1a05f6fcU,
  0x7981ffb0a1e20feU, 0x2142cdea1709bc2aU, 0x240335f181f8143eU, 0xfb27010c2eeaf21cU,
  0x230e15f0fcec01f9U, 0x1104f1d9d70507d1U, 0xe3dadbf148fa2f00U, 0xee0600d6592047c4U,
  0x353bffffe30bU, 0xffffed16ffffd882U, 0x1677fffffba6U, 0xffff27c20000517bU,
  0x6b72ffffd1b0U, 0x170e00004b5bU, 0x2656fffffae7U, 0x21f60000029aU,
  0xa8d5e3c681f552d7U, 0x39fec318630b09f2U, 0xa429d6e7f3cd21e3U, 0x8124ff0709b84435U,
  0xd0d022172bc80ff8U, 0xec955fd2a0dbe7fU, 0xecebe3068a14b239U, 0x7f1c29f0405af170U,
  0x2c06ee142a1a34b4U, 0x1aecf481e5161308U, 0x4db34815ff7f391bU, 0x2684d634d8e153c2U,
  0x6bcb0c1f8173b119U, 0x50f36bfbe74687b9U, 0xc304046cacf07c2dU, 0x363adb1e09d96f7fU,
  0xbd0dc61ea712b50fU, 0x40527f12e942440fU, 0xc73100287ff7df06U, 0xf1f0cef9f52161ceU,
  0x25f4080881cc13f7U, 0x21fedbeaeb1ad42cU, 0xc25cdb55e2271006U, 0xe7bc7f0019fc2b9fU,
  0x161ec533e48cf76cU, 0x3bf47fd8c4ab4309U, 0xdfd810705ea09f3U, 0xe06f30dfa04fa02U,
  0x9b810547d66cd126U, 0xdfe5c10a2429c0f4U, 0x3d7f05fedfeb16bcU, 0x1323f18f64519e2U,
  0x4e5920e9677f3708U, 0xa40b150407c500b2U, 0xfc6e5bf17f79cdeU, 0xe13723ffcd0ae781U,
  0x140338410e3301U, 0x1d3e7f18dadd3246U, 0xc2acfe510432d81cU, 0xe60bd3e781d1c096U,
  0x19088119d2d3e95eU, 0xe0ef911dc8237b1U, 0x7f04f907ec570366U, 0x5c0f7b101f439dfaU,
  0x345312b37fcd16dfU, 0x12814f13e021608U, 0x4be21e2fa7482c24U, 0xfa81d8e70222f013U,
  0xf5207502e8142581U, 0xe53f19a9017600faU, 0xc93b0b091d0b1915U, 0x1012e6f6f2f681ffU,
  0xe2def1d9030805e0U, 0x3fd47f0ad4fde48cU, 0xddede422440319f5U, 0xbff7f0604e9043bU,
  0x2525f57f35473919U, 0xe3245a11dacdeda4U, 0x1d0af9190c0cf509U, 0x9f5ee0381ebfae5U,
  0x812de9dd40d657f3U, 0x5848203af8ea3ccfU, 0x8ccb1ffcbeebe1c8U, 0x1704bbd181024b24U,
  0x3f71f2d3ffaa481U, 0x4b3e04473a93c9fdU, 0xfb6f8b5efdbe8f8U, 0x24758120c80a183cU,
  0x53ca19271b3bf42bU, 0x7ff4fb061c4dc9afU, 0x941f00d70bab24d1U, 0x813a02f61bd2365fU,
  0x1578210c7f0116d9U, 0xc6cc24ef04f11affU, 0xc5d507f7bc01ebf9U, 0xd34981fb020beab9U,
  0xdb21f77fd2ff5338U, 0x1339e11bf6e25268U, 0x1acd0ce381ec31d9U, 0x18345008f3ecae33U,
  0xcdf000ef9009d2efU, 0xa77182e7f004f181U, 0xfc13f4fce7d5f0f8U, 0x17120e8104e502edU,
  0xcce8d5b8f4e2667fU, 0x855b35bfc7541c06U, 0xd174ef2e0e987fe2U, 0xbab284220bd94f41U,
  0x81affc40ce16f4f4U, 0xcf3bd9fdfb0501e7U, 0xb90fac2dc6814206U, 0xf932e11b93f932fbU,
  0xde1110eda7e8f804U, 0xdb4e81f3150fe389U, 0x13e7f77ff6173312U, 0xe76a000a12ff29c9U,
  0xed0c0a4c1ceebc81U, 0x3c4d03472189f7f8U, 0x1f2ef87448611008U, 0xd3177012acd9d781U,
  0xf9d0813e1a87f209U, 0xfdf932b0f308f7U, 0x26060f24172d30feU, 0x5ede8907930f3681U,
  0x211701223bf72d03U, 0xc3f7f22d5ea4b47U, 0x2a7f1a9f0eecdfcU, 0x107f8e1bc50e182bU,
  0xd1814d7bf6dceb44U, 0xe1fac9049bd3059bU, 0x81b2e1280bfffd27U, 0xf91de0f70bcbbae0U,
  0x3ba7e4fae61a0af3U, 0x8fc021aeefa7ff2U, 0x5c7fc8cee6d6290aU, 0xff7a1227f0e928d8U,
  0x1be15f4122810b2cU, 0xee0017ed0bfed9a5U, 0x7f7dc1ab1e654294U, 0xfd4d1110f524021aU,
  0xf5e3810f01c9f8fbU, 0x504ef14ed02ecf9U, 0xf2118577f23f51cU, 0xc91c19ef23100296U,
  0x35bcf3e0c3137fd4U, 0xddc994f7c2a6c4e4U, 0xe0bf0cb47fe621d5U, 0x23224018d4e8edbfU,
  0x4eef08072a07030dU, 0xfc3781f8ccef0720U, 0xd62ad61c8102d4ecU, 0xcf1c08ec9c0f28feU,
  0x57f707f8fa31db14U, 0x3f227f05292cb80dU, 0x25caf9fc81fc3807U, 0x283d471ef2deac48U,
  0xfefdfa0d0d7f1de6U, 0xe65aed13d2e5f2cfU, 0xe0ead0bc06f6577fU, 0xa4383fcdc04c1effU,
  0x7f3b1fe0fcc60121U, 0xce342070ee153e4U, 0x1902b40906fd050aU, 0x3026f981fdab18d3U,
  0x50170e0214810c05U, 0x4001411ff0ce0dfU, 0x81bed736ff291ccfU, 0xed1ccc0be51ec00fU,
  0x56adf1197f2a2603U, 0xa222831b25c919b5U, 0xf720f41e01cf3b00U, 0xbc27a1af1e8247fU,
  0x3fedf40117fbf6f9U, 0xc0bfbfe81efe112U, 0x5f491ad37fe91bf3U, 0xf4f2f8f02d011d16U,
  0x20e3f0178a0eeb00U, 0x281f7f14f117bb24U, 0xb91efcabbfbe98eeU, 0xc82b34073f19117fU,
  0xb00dda15a97f07e8U, 0xde47501f94d330b8U, 0x3eec81491a833bc5U, 0xf907fe1cf341d6f4U,
  0xfe991110008f37fU, 0x23f60357f69cf5e8U, 0x8e2ae6e6bc9750e5U, 0x5e2e341e81c83c36U,
  0x813fec11d45830e7U, 0x63c2d22b0eb3dcaU, 0xf8e4e5b092107fa6U, 0xdfa9f5081ec0f7cdU,
  0x1a7fece606e409fdU, 0xe73d26081806dd14U, 0xf128dc0b9307dff0U, 0xe106fef681f017f5U,
  0x10f78419e335e264U, 0x74c2b25bb812dd5U, 0xf0d9ee21bed1e619U, 0xd41df87f9f2713c5U,
  0x4dbb023acc1bc1f4U, 0x811874f1f3e6b33fU, 0x95dbef0dd2e0f2caU, 0x609f3d781fe3b10U,
  0xfe0f810018250be8U, 0x517f005f400e903U, 0xd51127caf77fe62eU, 0x1324fdf5dca522d3U,
  0xf9ebfa15e9f3001dU, 0xe124f77fc410ecdfU, 0x2acf7962c02707fU, 0xad5d23c5e37ae3e6U,
  0x11abfffff3cdU, 0xede00001de4U, 0xffffefc5fffff076U, 0x96700006d98U,
  0xfffff7bc00000d91U, 0xfffffeeb000032a8U, 0x8eaffffcf75U, 0x180300005314U,
  0x15ed00003ebeU, 0xffffe711ffffe9c5U, 0xa5d300001631U, 0x447100006250U,
  0x3ea00000534U, 0xcab000010d8U, 0xffffeab000000b31U, 0xfffff21000001fa5U,
  0x1364fffffea7U, 0x3860000001dU, 0x1a330000343cU, 0x17c4fffff8cdU,
  0x1568000030acU, 0x3eb500001825U, 0x167b000014caU, 0x23d900000987U,
  0xffffe6790000164bU, 0x1f5ffffe202U, 0xfffff9dafffffe86U, 0xffffffa600000b11U,
  0xfffffc6800000101U, 0x2bedfffff00aU, 0x6e6fffffc38U, 0xfffff7c4fffffafdU,
  0x1fa6fffff1aaU, 0x8e500006507U, 0x3f8fffff4b5U, 0x90400000763U,
  0xfffffa3e000007d8U, 0x393a000002e8U, 0x4c3bfffffdb9U, 0xfffffbd7000051b8U,
  0x8c200002b03U, 0x5fefffffe26U, 0x238e000045bcU, 0x6ba000010e3U,
  0x146800001fb6U, 0xffffd8c9fffffe56U, 0xfffff5aa000002fcU, 0xfffff4a9fffff81aU,
  0x39f80ab3a7173008U, 0x3ac56591ab8cd3e5U, 0x14d59ad4fc064f20U, 0xf93baa3361fb9351U,
  0xe89a03e2bb1c4aacU, 0x5da6e738b75dce99U, 0x29fc43e310a85796U, 0x811e4fea1cf1a5b8U,
  0x68f3a72827998d3dU, 0xe4ddc3cb64cd16c4U, 0xc9c5bacf14372c91U, 0x25c69fa0331b1f14U,
  0x69fab60c1e3ffa3aU, 0xae1192813cac3215U, 0xb3a54c5de006d7c4U, 0xb9e22854b9daed15U,
  0x6c8b71fa99ea298U, 0x1fd1fa1c18ef64feU, 0x92c786f3d3f19209U, 0xd1d5ab30034e2127U,
  0x6b2c4d464ff7ec72U, 0xe26fb3401b2e0bf6U, 0x1a8c0d1947b65eabU, 0x21d0fd3d936bbc5U,
  0xfc4205d881a8baffU, 0x8ab54731c8bbcb12U, 0x1318c79f1bd11f9bU, 0x1ca9dae2cdd03db3U,
  0x3faf10ad002db836U, 0x152de9bd476bda35U, 0xacfdb1a35412bbecU, 0x66bc4e5e6b5412ccU,
  0xe53b10fbacb1556aU, 0xc1956d59b6ea121fU, 0x1a2620b31c4874a4U, 0x564ad9c872514942U,
  0x3f435661be3653c9U, 0x635c287fd125155cU, 0x5c143c654d4419dU, 0x5bdd1f3013ae4163U,
  0xd4bde0b5b5191ab4U, 0xe7eaacc515cde0b8U, 0xc7542b0badf35bd5U, 0xecb41fbeb73dafb8U,
  0x64ae0e3e7d54d08U, 0xd847d79cc5d64a4cU, 0xb857a242b7c15e32U, 0xe91fdaba5155a8e5U,
  0xd6e70b3cf35a16a3U, 0x9b1e5fb0cb983e10U, 0xe68b4fa1a8db2555U, 0x1c73860d2b5a8ce2U,
  0x9c8bec63c8cb2a85U, 0xd5d65aed9798606aU, 0x24fc815a706ee072U, 0x3eedde50c66cde91U,
  0xf4225d0eaf8d1ec4U, 0x17d957e3bb12f5c3U, 0xbe0a79340133921fU, 0x818fef5f2e66f3e1U,
  0x43d3e815bfcd729bU, 0x6f71259d2b3ba8eeU, 0x73cb0a76fa647c8dU, 0x54525e8c0de3381U,
  0xd7c3c56f3c4549a9U, 0xfa0a7c6dc8f3fe55U, 0xdb37d2ac3a4e7319U, 0x40fd423e4aa6d075U,
  0xa2bbc673431ca4eU, 0xe22441cda6145593U, 0xf99de437d7a56b54U, 0x59076ef072d67559U,
  0xbc481da4b936f47cU, 0x6d06be337f2e390bU, 0x3b667b9d254b4dd7U, 0x8018de1c89d49d2U,
  0x4222ddb84d5f0fb5U, 0xf2b946a61b4629b5U, 0xc5d092cfe921443dU, 0xe465f22b5927ebafU,
  0xdfe8acc936034e60U, 0xc8e547ce7c6ada4dU, 0x5d03124c93e7ff11U, 0xc051d7b1a8cda7f2U,
  0xc4daea7981c92e49U, 0x3a5c6ce1e5efb219U, 0xbff0994737fdfb4aU, 0xef2eaa17139ad64U,
  0x9203f572de38cf92U, 0xc29ec0064ebd208dU, 0x183822d867e4d53eU, 0xdecdb50f90099139U,
  0x6848f36918cc2f9U, 0x1fafccb643db4297U, 0xade9aabe4bff2892U, 0x8557a51bb670702cU,
  0xa1ed0043fa94cac3U, 0xff8da1d49d7f945dU, 0xcc664268ac54531aU, 0x29da8b59f1393b8U,
  0xbcd19f9074a500c8U, 0x64eccbf9ef301cefU, 0x9cf91679edad5a43U, 0x6096ee9a17dbf904U,
  0x3a9826afc10cdef1U, 0xd8f7fd635e78502bU, 0x4fead04e46fe6a2bU, 0xca7a75964ec14141U,
  0x1a4d331d4d13d7dbU, 0xe3dc2f61323e280aU, 0xe3104ba0aababff0U, 0x2ddb88382dcdbbb7U,
  0xbcb4f8dcdf6dbca7U, 0xe5163122fffd5461U, 0x41101c90bba0cee0U, 0x4c19baf8010aadf4U,
  0x98fbd5c3c414581U, 0xeb08b865903b162bU, 0xca4b433a94ad589U, 0x41130ea7092252b3U,
  0x948157d8a2af2d9eU, 0xf7461d0541539551U, 0x51d3bff225ac0c6cU, 0x8df0b28de3dd6a27U,
  0x7129a8738b6d224cU, 0xf7f918ee371e1a52U, 0x385b9a626b6f74a8U, 0x425f434af25cf50eU,
  0x1847f30635fd66d6U, 0x1f4c61433719959bU, 0x16aa460b16042afaU, 0xfc1142305fc81fefU,
  0xa6d7f9549fb83d3bU, 0xba30bdf4ff2736a6U, 0xb641d9dacae74898U, 0x2b032609514356a0U,
  0xb0bf6f11bd884d2cU, 0xed9c1c4f9d649a31U, 0xa1d9b63e5d815732U, 0xce6a05d44a9349f2U,
  0x18d95858ea58e83bU, 0xe6b749faa414cba9U, 0xebd2b7056091e4acU, 0xfe6d204fccc22fb6U,
  0xc9eaf13d7fe5f2edU, 0x5bf1b6c52af702fdU, 0x4053ffaa4912e934U, 0x3644bf560ac35b27U,
  0x4c3dd024d31cf22fU, 0x54edf027da375a58U, 0x2444bad52dc84fc6U, 0xf6790116d6e7c6f1U,
  0xeb36bea5df1e05c5U, 0x26571492050fd4d6U, 0xbe1ee73fe13a5415U, 0x7a90a8a40619babeU,
  0xc61b1139ac2a2621U, 0x401c58cd111aaf19U, 0xb4efea7164e93b42U, 0xbdaaf1dad08a136U,
  0x1d38a132fa00a9e6U, 0x3d3501334942c7f5U, 0x580cb6e010a250afU, 0xe544e2aabc1ecf33U,
  0x5f9fc5c08fd429c1U, 0xa9f047f0dc58e3bcU, 0x568ed55f7d030f52U, 0xa0f87f44f4fbd9dcU,
  0xf815a9303a5fbcd5U, 0x28e674f5bde345f9U, 0xdccc2afb92eae1a3U, 0xd450a44f1948edd1U,
  0xa4a74e20197b63c8U, 0xd1feb9531b787c70U, 0x915f84f4bed9098fU, 0xfe1894a09bcf9f1fU,
  0xc126f289f80944f4U, 0xf04bf5a6f533b195U, 0x52bec4b32a79dd7fU, 0xb7b698efd2bafa3bU,
  0x3c095d98b0f83310U, 0xd4cdc4e7d66dd882U, 0xe3bfa1e414825eddU, 0x2081aff16e69f1f5U,
  0x98de6be0e2c86b2eU, 0x9ea83a56be7179bcU, 0x927f7aaa5ccdd18U, 0xb6969684c94be43fU,
  0xfa2adeaa6ea21d3U, 0xd48e67e557fd2c3cU, 0xdc66d5cac8caafe6U, 0xa470cef7719f9442U,
  0x6861b756749514f3U, 0xdd8153c8b45227d3U, 0xa91e483ddc24d1dU, 0x1e6c5ec613abb76cU,
  0x3c8458ed070dcba9U, 0xbd94ed98c24c1c2aU, 0x13481d1415d27e1U, 0x3cf9e222bad15a25U,
  0xd48c0fbcd421befU, 0xcb99c34da72cfa4aU, 0x89fbb95a8fef16dcU, 0x9945132a8d5e986aU,
  0x66d41fcdd58956ebU, 0xc11f65c2eb63df1aU, 0xf1c3ef1443c24e19U, 0x9f4027d6a7dc088aU,
  0x2ae2ca2229ddd82eU, 0xa2b0186aafe474d8U, 0x1d300ab094de921cU, 0x43455465beae4dc3U,
  0xec0bbab647a125c6U, 0x816dc3902bf4d8d5U, 0x68cd264dd35ef1c7U, 0xd14cc89f39d37910U,
  0xa6921231ea8c954aU, 0x251960e1b6b131c9U, 0x281934b3d3a85917U, 0x952384ef9727ed12U,
  0xb2c7dc20c86956d7U, 0xca622feac7741b9fU, 0x24e301d5aabb0a56U, 0x6844e3a13e81174eU,
  0x5bbadc6299a21df3U, 0xd6f75a1e73fe669bU, 0x1560c50b67a4cdc9U, 0x8707fea56ac9204cU,
  0xcc550664a934044U, 0xd3785435d808dc60U, 0x7e1daeaa77db9f27U, 0x92742a56e322f63eU,
  0x15beeb9556a4eb3aU, 0x6c9636dd34342a48U, 0x6f5cac46ec40227cU, 0xce733cdbd3880941U,
  0xda1f6735cb5fb66U, 0x5cb0590e6210530eU, 0xb555132fa571c499U, 0x815cdaec0ce7feb7U,
  0x294b135c47f0ae09U, 0xa900adf5fc13bbd0U, 0xe75896311f61cceeU, 0x4d0b5000fb165b8U,
  0x1898105ec84b5f33U, 0xd4dc0e2ce7ae985bU, 0xac155cffb37ff24aU, 0x493f54dd0e4b89c5U,
  0x11b8491dc61d5918U, 0x1726abf469dbb7a6U, 0x95ba0e30cd4a670aU, 0x4314c236b1a00a65U,
  0xcca6ccdaaa605e42U, 0x989bb1c8a1115ddfU, 0xc66330d89bade4dbU, 0x55c9bc1e6471554U,
  0x108ba98a5b5c1492U, 0x3f8157ae04d12bfeU, 0xbf8fc935b9f38937U, 0x32f6ce07504ab9dcU,
  0x4eec2f8f9b52acfU, 0x496762a6fdbf96d4U, 0x1c0bb683e9fa5ed0U, 0xdb63afda5ab429d0U,
  0x366488a4e053bce7U, 0x85da17ce06dcdd2bU, 0x4fe46e2249afed87U, 0xa5a9a2bf42a124aeU,
  0xaead9012281c73a5U, 0xa375c441f7a4f1dbU, 0x2be5739e4a9befa0U, 0xaeee8aa56a24b68U,
  0xc7906a3cd7938453U, 0x2339085d9a071fdU, 0x6ad05024b981c85dU, 0x7c5350830e795b0eU,
  0x8360c91c6fefacbU, 0xc73b508195329906U, 0xf6345b311e30221cU, 0x73f3519db5b3bf1dU,
  0xa34968f7e362b63bU, 0x6498fa95995b276fU, 0x44766a8f3c16511U, 0x82522fcadf20f126U,
  0x6cb2635de3029c6aU, 0xd9990b91cb12195aU, 0x8d6885c6aaa0018fU, 0x63b6cd02aecdb0d8U,
  0x709ced345e6f5dfdU, 0xc7ff070660b3a2ffU, 0x2aeced7f5ca530efU, 0xed6a775fc1c247e2U,
  0xaea9db15ebfbd769U, 0xc43b53d734b7760dU, 0xdb7d54c4f308caa2U, 0xe73e2674eae1d449U,
  0x28f6b34776c4018eU, 0x2de8cc21dcf599fbU, 0xcaeec3b5d740cb4dU, 0x6a52c1c1e5bd5ab2U,
  0x33dc35235e350c11U, 0xd55e34df414f1af2U, 0x6b0f6e24e1ddeef9U, 0xdb72139facdf845U,
  0x6dd233da6071cce4U, 0xbac7b301293357beU, 0xbc99f206c0f4fdecU, 0xf9c872c5307fe6f8U,
  0x1c4005de58e2b7aeU, 0xf63124f424064237U, 0x2152143fcc61eafU, 0x482512ead6013da5U,
  0xd05f9555fefaab4eU, 0xe51fb6dffea3d82bU, 0x543fc726aeac055fU, 0xd2c7f50f2827d806U,
  0x658156f96d2b2ce7U, 0x56f2cf497de0259U, 0x1936635ce45b2f0cU, 0x8aa5700aebcafe4eU,
  0x2218cbf9db90dc2fU, 0x55e410e6aea6c28dU, 0x9ff2cfece1c50e62U, 0xe3242fc86a5a0811U,
  0xf5ffdbda7a8f2636U, 0xca494494f2dc52a5U, 0xa04e32e088ef8923U, 0x8239ba5231d14289U,
  0xd2ae3266641da472U, 0xb3619d3b36e1301aU, 0xa2813367533fb8e8U, 0x9f86af1e05dedf51U,
  0x901af61f9e146614U, 0x2d41f6a3a9fbad11U, 0xd7379d8ffb52aabcU, 0x9f381754622e0a67U,
  0xfea358033dcf6b95U, 0xa615c1294ba8c934U, 0xb50a46605b1f48c3U, 0x2bf015d5664bc334U,
  0x6ddf5d24cede13ddU, 0x8f468643efdebafU, 0x3d1ddb3a0d810867U, 0x9707e32c4e0e2760U,
  0x6b4136b8d65301beU, 0x2df9db3f1d6c2f98U, 0xcfb71136f13c34c6U, 0x4ffb3d32b34316b0U,
  0x8a1302dc1e22e712U, 0xe1aae849a6c9d9c5U, 0xa2a4b81c60b15958U, 0x14bb53d0c997c054U,
  0xdf159ce1fe727197U, 0xfe8839a71fe7c86cU, 0x5b53eca5281745daU, 0x20b3637501c4ed26U,
  0xccdceb422c86a549U, 0x3dfe1cbe9de381e0U, 0x55b98913dc1cd1f6U, 0xb6b9f297beb91eefU,
  0x93b623cc7a4a1b0U, 0x8c973f4f43212bb3U, 0xb77fb3f8094e7865U, 0x340cd1580ee83f0cU,
  0xed55e0a81f19e3f9U, 0xe1db7e58aabba1f9U, 0x9c67ed8ed98674bdU, 0x51338fcefee9356eU,
  0xb276556049206979U, 0xbefde5411aa58a1cU, 0x2f41c758316f2c39U, 0xacba591084322b76U,
  0xa765fac6e4517b2eU, 0x1760a5bbbe3ec7b0U, 0x564d6e419e632f6U, 0x3f3952e9c5d45e51U,
  0xabee70326b40225cU, 0xf630651b239f6afaU, 0xf6eba7173cd8e491U, 0x977486f977372701U,
  0xdb72258abe529d15U, 0xcc3957f43cd9be52U, 0x8f7f4fdea489f8f8U, 0x5b87d1c7e83055b4U,
  0xffffff42fffffebeU, 0xffffffe4fffffec6U, 0x990000008cU, 0xfffffea600000457U,
  0xfffffeac000000c8U, 0x37ffffff39U, 0xffffff500000042fU, 0xffffff8b000000abU,
  0x5ffffffeb9U, 0xa200000048U, 0xfffffde6ffffff81U, 0xffffff00ffffff5bU,
  0x500000000cfU, 0xfffffefafffffebbU, 0xffffff4300000072U, 0xffffff59000000f5U,
  0xf87ff944d8d802d9U, 0xf74ee07abdadba0fU, 0xda55e4490a2dfdb2U, 0x1405b7bdae096dd2U,
  0xcbf16e13ada37f5fU, 0x5726069c39a2974cU, 0x2ff0feb74f6d6aa3U, 0x897d5743a1abe86dU,
  0xffff8f1a00005320U, 0x0U, 0x0U, 0x0U,
  0xedfd20ff30000000U, 0xec00fd03bb8b8112U, 0xff13fe09e704fe06U, 0x72211f52c010bfeU,
  0xa07e42d027643feU, 0xf9031ce37f3b0017U, 0xd427ebde4613ca2dU, 0xfe0d581cfb1a010dU,
  0x197f43fe1f11000aU, 0x1f1afbfdff06f1f0U, 0xafa482005fefa0aU, 0x2d5121f90ae4fb57U,
  0x4c25f2350e247f17U, 0x91618da14771f23U, 0xe41ffa9a08ff8807U, 0xcfe8eda0281e007U,
  0xfdeb0002ec0efde0U, 0x2da92a28c114ea09U, 0x813a43a01f0deb06U, 0xa12df1015e4044dU,
  0xfe0ada0408f21fd5U, 0xf4eeff16e9fcd295U, 0xe804f9fbf39c81fbU, 0xfa18e8f809f2f01eU,
  0x7d79727f7a737f7bU, 0x79707c78727e7b71U, 0x717d78727c79707cU, 0xf6f704f5eb707c79U,
  0x4eed6e66f80407ffU, 0x6dee01b13f60a7fU, 0xaee8eb030af8dafeU, 0xc6fdf3f8145f23eeU,
  0xffe5f00e7f4ff39aU, 0xfff8f5172502ede1U, 0x1b18ef1013fefe06U, 0xf0dae701eee0ecc3U,
  0x7f77d1f20deae606U, 0xee21f44aU, 0x0U, 0x0U,
  0xcd00000000000000U, 0xfbeff7e791c3ef9fU, 0x1008197f3a0f723dU, 0xfeee0103edf80bU,
  0xd3e951e0fd32fc04U, 0xdb7fbcf25af2fa24U, 0x4bd7f838e1f13daeU, 0xf3fb1cd1edU,
  0x0U, 0x0U, 0x0U, 0x2551c0000000U,
  0x6313fffe26aeU, 0x18400004aaa6U, 0x167b00010491U, 0x9c74fffc7b2eU,
  0x28f450000903fU, 0xde14c0000000U, 0xc000000000012035U, 0xb450bd2781ad1294U,
  0xb73605811df8fda6U, 0x817f817f7f811933U, 0xe77f059732817fabU, 0x4da244b8fe5ae818U,
  0xe39b013df104e5a1U, 0xde410d40de97f81U, 0xf2e208cf940300e4U, 0xe408e7f8f1c6d6b2U,
  0x17018198f315a794U, 0x20e722030240010eU, 0x2bfc0ceb02fe0681U, 0x33d928fa0244b78dU,
  0x17e50228040000b4U, 0x13de29e5fe1ffc17U, 0x91e400c65300f383U, 0x15090f040013f915U,
  0x8111036b81ff048dU, 0x5cdaffffff5fU, 0x3178000041b6U, 0x593d00002f37U,
  0x50dd0000323bU, 0x1a45ffffc8c1U, 0x385f00007577U, 0x6582fffffe43U,
  0xffffff9500002d4eU, 0xfcfcff7ffcfff100U, 0xfa7c00fba88301U, 0x1190b455c04e800U,
  0xf11d00d17ff601U, 0xfc0d01c3f2fe0000U, 0xf77f00feed0201U, 0x945145181e9fd00U,
  0x9000023ff3d01U, 0x77f1cc521e02d00U, 0x2f500f113beffU, 0xbf9e8ecfff1ed00U,
  0x7ffc00d4fb0b00U, 0xf7eceb3008061400U, 0x3b7f0040739500U, 0xe16010a7ff41300U,
  0x2ff9004ccf4801U, 0xffff5846000000ceU, 0xffffd70bffffea88U, 0xfffff862ffff95e0U,
  0xffff8326ffff939cU, 0x17d5eb15db29810bU, 0x7fb6eb0da8e2433eU, 0x5c246f397fdb101fU,
  0x1301f9a27fb03e45U, 0x81d917fd0d489bddU, 0x7f26e4ff2fdf060eU, 0xe0321055a781f52aU,
  0xc052f71ae716137fU, 0x81020cf96f048f1bU, 0x56840bf5f8078163U, 0x36a210ee168cdb81U,
  0xf234e681a0ffdae5U, 0x7f3be6ad45e0080eU, 0x0U, 0x2a2b7f3211fbe7faU,
  0x50c33142810e002fU, 0x0U, 0x1d13f8ea137f1e11U, 0xfd9310f323138151U,
  0x4a91c2c74821f481U, 0x300081e764da1b1aU, 0x1151ecf2127f0d37U, 0x89d07010481eeb8U,
  0xa97df20ce2e57f93U, 0x7f65bcf651cdca06U, 0xc4b4727f2827300bU, 0xfda013060281dfabU,
  0x38437fd40de6f3feU, 0x443a7f1a25e6ee01U, 0xf34ef7ebfc7f1e4fU, 0xd46bf609dce77fb3U,
  0x787fb72409e4a0d5U, 0x7f4762066fd10c05U, 0x7ff6f10b94f23b02U, 0x7f1af11da9fa4decU,
  0xcf5a2118d6f90e7fU, 0x588414eb4d23f981U, 0x493d7f2e28f1dffaU, 0x19e5f17f4b05120cU,
  0x78dbfe1e812320faU, 0xfe52fcf8077f1a5cU, 0x69497f3d60e0e4faU, 0x39da10dc177ffdafU,
  0x811003ed6409c9faU, 0x98ffde2b81c3f62bU, 0xc64efb13c3f77fa6U, 0x27a51ee11c26e681U,
  0xf07fe71efe751362U, 0x3000000c79U, 0x16760000232fU, 0x1838000019f8U,
  0xffffffc500002582U, 0xfffffeee00000032U, 0x18b0000084cU, 0xfb507f2800002f3cU,
  0x5526000009d2U, 0xffffff9cfc37b2e0U, 0x2a4efffffe46U, 0xfffffff200000bf9U,
  0x192ffffffe3U, 0xfffffc8800000e6dU, 0x2510000003eU, 0x61b000010b9U,
  0x3d8800000892U, 0x15500000cb2U, 0xfffff82d00000137U, 0x124600000184U,
  0x3243ffffff8fU, 0x3046000007faU, 0xffffffabffffff1dU, 0xa4000030deU,
  0xe6e000025adU, 0xbeb1d907f0f8ebd6U, 0xd572b9224309cee6U, 0xb291b8fefa24aa8fU,
  0x1a611047e9bf81deU, 0x4e812f1334f7aa81U, 0x6ca9ddfd9369f2b4U, 0xb081813ae3e40e4cU,
  0x3e00ae256e8eb23cU, 0xbc818f09063b8eccU, 0x36c716cad98781fcU, 0x7fa5470d513f811cU,
  0x5e81e902817c0781U, 0xefc595bffc062ce0U, 0xf59cb9082781f856U, 0xe9dcb2f10b1ce681U,
  0x8e812f5f4c5dff6U, 0x10fa220f1e46aa6bU, 0xfc905efb20703b1U, 0x976436f5d4d481aaU,
  0x9f1bc05b70eb95e7U, 0x819aa72bb458a287U, 0x547fc47fd8b2862aU, 0x5995b3dd55f0afd5U,
  0x78518aa491693a2aU, 0x815e287f8181ad7fU, 0x7ffaf27f7f8e8164U, 0x8a8a817f817f81c4U,
  0x7fb9818981819a7fU, 0x5aa081bc7f7f911dU, 0x7f7b818f8d7f7f3dU, 0xda1fea87abc320cbU,
  0xd4e7ba3923b3eb7fU, 0xe7daad3ab937e2dbU, 0x13dca710c5d2f831U, 0xf200c1dd17759d1fU,
  0x2340dac6b70a3524U, 0xdffb22ffe0df94c4U, 0xc081814c3af1c5dbU, 0xc4f3dc334c40efd5U,
  0x3e4e1d4ac5f4c71fU, 0x1eef22a1f4d9e66dU, 0x1f04b25fc7112609U, 0xd2061251ada9b758U,
  0x5c10e65137e1b82fU, 0xc9eec84e754ce2e8U, 0x6fd228cc9eecb95bU, 0xfef231810442d0eeU,
  0x28f49c7fbf11210bU, 0xf416eeafddd71de4U, 0xe36fd51e21f4fa3aU, 0xfdffe2483b1ffba3U,
  0x27ec1df2c3fbff2aU, 0xd91c14ed0242d6a5U, 0x12fbdd3ef2fb2307U, 0xee0000012762U,
  0xa4c90000f45dU, 0x345800000163U, 0x6db700000c48U, 0x737d0000728bU,
  0x2c8e0000732fU, 0xffffff81ffff4b9eU, 0x40b00009385U, 0x95f3ffffff34U,
  0x7200000051eU, 0x1c80ffffc50aU, 0x81780000b263U, 0x6eefffffb714U,
  0x4dc80000a4e1U, 0x39e5fffff634U, 0xffff3b71ffffe0edU, 0x1aadf00003057U,
  0x50e00006d4cU, 0x17b0000e366U, 0xffff9be300022260U, 0xffff916e000035b1U,
  0x17e4700000639U, 0xdc27fffffd3eU, 0xffffa8e80000079bU, 0x9031c09aa0c03f2U,
  0x101005ef9fe0a01U, 0x802ff4dfef6fb00U, 0x810002030c10261eU, 0x21ed00e700fe0809U,
  0x203010108f6e507U, 0x4ce31b2bfbf8fadbU, 0x1f13000beae20713U, 0x157f1bffc9103000U,
  0xf40ffe16fd38fae7U, 0x50bcd07edf6f910U, 0xa3d50adff8b1fcf7U, 0x171efa2e0b010cc4U,
  0x350a0007ff0c37f4U, 0xf106120315810e00U, 0x7181e09062603e2U, 0x6060409f4faf403U,
  0x111bc61906e0f725U, 0xf9ff18f70904ff01U, 0xfae6001b00000f40U, 0xf10401ff03f80000U,
  0xf9fdfdf7fdf700f3U, 0x81070204ffc42bd0U, 0x8030300cc020002U, 0xfdffec062451ff00U,
  0x1f500b0fef9fd01U, 0xfbfe083f00060f00U, 0x6104fffa27f822eeU, 0xf0fcf915ffff0104U,
  0xfefffdff06028100U, 0xb172e01f8012bf7U, 0xfe81001a31081debU, 0x27f405f615dd0700U,
  0xee1618f6fc1bffedU, 0x12d20d01fcdb1c32U, 0x181838131bf8f617U, 0xbedd4250808ccedU,
  0x278100fe56f8e719U, 0xdb1a0100ec2ff400U, 0xfef6f232f9010120U, 0xe5b8f7fd0119e05cU,
  0xe4e9ace9e5fcf1f0U, 0x1b41167f08f7e591U, 0x6d5700e9e21b0c0cU, 0x32e2fff73b011000U,
  0xfc3c393308330b16U, 0x261b1908ebeaf5f2U, 0x503d043afbdd0049U, 0xffff99e8ffffedafU,
  0x516a00005ae9U, 0x8230000083eU, 0x1ae1000091c2U, 0xc9c7207ff2f63371U,
  0x1cfef10d7f00fbfdU, 0xe4ec2f729ee811aU, 0x815d9ff0b01e27fU, 0xa606cdf1f37fc80dU,
  0x7ee047f07fdf746U, 0xc9c9370c7fec51f5U, 0xfa03f9f801fc7ff7U, 0xe900e5cb04f4287fU,
  0xfd030645120f1581U, 0xfae722397f0df8baU, 0xbce11136c1140381U, 0xd301fbdd050a207fU,
  0x47bd6303f58150f4U, 0xe2eb04217fe9e1c4U, 0xc807f0fdfb047ff6U, 0xda7f970bffec8ff1U,
  0xf5b24500ee007f09U, 0x3de3350aff8123faU, 0x180f0a810c0815c4U, 0xf643d272fef8ea81U,
  0xfc0e018103f8fbc1U, 0x3136f47ffff2d687U, 0xad8152f7f5f7e4edU, 0x4fea350d00812cf8U,
  0xbf07f1bb7ff8e36fU, 0xe37f6df9fffdef08U, 0xe12c1b7f0df50242U, 0x6ed6620d08c77f05U,
  0xb8814dfafafc06f3U, 0xf0fdfef881020004U, 0xf815088108030cc1U, 0xb3ae12fd81071e02U,
  0xf7332d810afcfac7U, 0xfdfcec40110c4281U, 0xea65a42af9f47fd8U, 0xee815fefec041cfdU,
  0xf061812024f2ae20U, 0x43e824fc01018105U, 0xa4d3f1fcf8f081feU, 0x97824bbfe601317fU,
  0x7fbf5802f91e8709U, 0xd81af8ba810df83dU, 0xe6d815528113e79bU, 0xfa7f6ddf19f5d10aU,
  0xef0d0d0d03f6ca81U, 0x190115f1f67f4713U, 0x1fcfc047f030404U, 0x1c170001742cU,
  0x1a76000017a4U, 0x22df000005dcU, 0xffffff15fffff922U, 0x9ba000003e7U,
  0x19400000ccdU, 0xfffffd240000070aU, 0xfffff7f400000352U, 0x28be000012afU,
  0x53b4ffffff17U, 0xa560000157bU, 0xfffffde800002971U, 0x16bf00000c4fU,
  0x2647000068f3U, 0xfffff6f6ffffffc6U, 0x6a50000007bU, 0x20dbfffff8d9U,
  0x211800000b9aU, 0x11b4000019baU, 0x75f00004ee1U, 0xb01fffffc1bU,
  0x11b30000041bU, 0x91600001308U, 0xa08fffffa43U, 0x1cff52046e15fe05U,
  0x8d3f7f808090810U, 0xf77feaf98ee908feU, 0x641105fb0afb06fdU, 0x3ff2301e5271d14U,
  0xf6fa0311f7f7be12U, 0xb0b5a1c8110097fU, 0x706e8ce2c087f7cU, 0xe93199ac8c5c77fU,
  0x88091617ace14710U, 0x76fcd2d80a7fc405U, 0x1881f9de03e29fb1U, 0x110542000f08fde0U,
  0x310fdf220f2091dU, 0xf9eef3df4ffe1c9aU, 0xec0406f01efdc5fcU, 0xf52830ffee11e908U,
  0xfa0004d60cf02532U, 0xef23e40e9e01077dU, 0xdf10fff936f30909U, 0xee84b609aac4ce00U,
  0x970d21f781f26205U, 0x2bd83bfd7ffecc11U, 0xfaf4f2d4a62681c2U, 0x8181818173818119U,
  0x81227f7f817fa181U, 0x7f707f7f967f7faeU, 0x7f5c81811d81817fU, 0x7f7f817fd7e37f81U,
  0x6b66887f7f7faf7fU, 0x122cc106f2310635U, 0x37fd800f9960fe9U, 0xdf0bd20d57babe3fU,
  0x401281446da0601U, 0xf84341fb4309d520U, 0x4f6f01ce0aa08afU, 0x16db2207ef1af9cbU,
  0x10dafb06210ae908U, 0xf4f1e1066af11604U, 0xe22e03f6340016fdU, 0xeb091fffd9e0d5eeU,
  0x11f612dcd929fb0aU, 0x237bec11154c7d44U, 0x17a5fffb1b2afe13U, 0x140c31dc7cdbc8c6U,
  0x167f004c1fd8c120U, 0x78f5efe7dd07e655U, 0x8108e1152bd7f3e5U, 0x7c3fa05fc07fcd6U,
  0xaf7f713d9d7f6eeU, 0xf705f61781f71821U, 0x90608f1caf60bfaU, 0xc41925fceadc57ebU,
  0xfcfc7fd706da0805U, 0xffffff07ffff318eU, 0xffffff2d000022d8U, 0xffffea2d0000151bU,
  0x648400000854U, 0x83a50000078dU, 0x5ff7fffffbacU, 0xfffffbb4ffffe444U,
  0x1ea100007512U, 0x4d4800000092U, 0x2af900008991U, 0xfffffdc3000001a6U,
  0x41d5000000c0U, 0x71ffffffe062U, 0x88460000b301U, 0x4cc00000e38U,
  0x206fffff950U, 0x4841000005d4U, 0x3e9cffffe4eeU, 0x497dffffd398U,
  0x20b4bffffa76bU, 0x53a6000079e0U, 0xfffffb6600003352U, 0xab000003856U,
  0x1280000060fU, 0xff03e7fc05d9f0d6U, 0xe940075b6ad37f94U, 0xeae7f5f5080de103U,
  0xd70811f1330daf10U, 0xebfbf907116fb5ffU, 0xece70aebe2290165U, 0xb700effd037f2807U,
  0x87fe0aee0914001fU, 0xda182ce70903c608U, 0x10bf506fb11f0f2U, 0xc342e0f918140ffaU,
  0x3140af510f92807U, 0xe2f51e20d511ce08U, 0xfd0839f410f90003U, 0xf8d818f1e4e87fdcU,
  0xda05f7e3f5020277U, 0x6f3fffa0e06fef6U, 0xd6e7180302eeec0aU, 0xfff4f90305f9a5ffU,
  0xfb2ef60f1718faf5U, 0x6e914f01504e6f3U, 0xff7ffef50a003304U, 0x5f7ebe8fffb050fU,
  0x20ff04f91ef707f8U, 0xc04d701f8f7019cU, 0xf1f101d6eb16d229U, 0x70ee30f1f010303U,
  0xddf9fc006f0a35fbU, 0xfb08fd0807e681faU, 0xfe04f9ce12effdd1U, 0x2dfd09d402101ceeU,
  0x1effd5f10706fc0eU, 0x2c06d5250b14b0ffU, 0xf516e5dfdac2080aU, 0xfda0a3fca02c5fdU,
  0xfbd8fb7f0600da17U, 0xf203e025fbede0e9U, 0xc6fb29f2e923fafbU, 0xb0f830d7eafe0304U,
  0xffe9251abad0fb01U, 0xc70cd1c138f7c105U, 0xe22df7f25060ef3U, 0x3c040de717b01d0fU,
  0xf9f9e20adb42fff9U, 0xcb11203ad52681e6U, 0x1f120e70e18ed12U, 0xbbd3c7f7dff61efeU,
  0xf8e8e24227e2efU, 0x5f05ffff6f2dU, 0xffffd7b0ffffcb0dU, 0xffffefc400005675U,
  0xb27b000086f5U, 0xe9162ada46fc0281U, 0x7f6ee3fa02484f26U, 0xf509f481f403ffe7U,
  0xec1d108e81ecfa5eU, 0x1628f25af7f73181U, 0x54050c81f316e398U, 0x22f3ff11e92081e9U,
  0xee1e47f6312fac3U, 0xdfd4f7098105013aU, 0x56c850040afd81f4U, 0xf433528123fffd9dU,
  0x81ddd5c805271070U, 0x3c7fb909f12b0efcU, 0xda677f6cfbf9eb40U, 0xefdaec810a033676U,
  0x18f50604f60e81f1U, 0x30ffd81fcfeeecfU, 0xa8558104fd8959e3U, 0x600b1ec90cd0e67fU,
  0xfb250932f3fad67fU, 0xbd0224017ffb1d74U, 0x9b8156e508d0310bU, 0xecc804d9fc1c0681U,
  0xef4e3b811cfac7d9U, 0xffdf496fcff067fU, 0xe2312e7feafef214U, 0xd657810cdffda503U,
  0xf71dcafff31781eeU, 0x5f7fd4e606da318dU, 0x818f2ff7041030f6U, 0xe7edf8a806fcea7fU,
  0x60788110f159d6eeU, 0x2ca6a581030321c0U, 0x19cebf811d060ce4U, 0x37b15e01f7388106U,
  0xcc32b7fdf581cde8U, 0xdaec05ee0a337f04U, 0xa102d934f1171e81U, 0x6f1a1828f1d5f081U,
  0x5f7fa611085ee503U, 0xe16b6481d1fbebe7U, 0x389ba09dcd033581U, 0xb09640f2049a81d1U,
  0x147366581f602b6U, 0x28ece61a9817fb7fU, 0x557b6f3fdfc81f6U, 0x5dce87fe900fa67U,
  0xe200170270fdfe7fU, 0x36b0000025fU, 0x26400000820U, 0x363f00002beeU,
  0xffffff3100000a43U, 0xfffffdc6fffffd01U, 0x483000003ccU, 0x3c500000c63U,
  0xb53000072dcU, 0xfffffc180000083bU, 0xc0cfffffe9aU, 0x2cbafffff950U,
  0x25410000252eU, 0x1740000177cU, 0x11f800000fe6U, 0xfffffdd8000023e0U,
  0x19020000288dU, 0xffffff74000001bcU, 0xf40000013b8U, 0xcafffff834U,
  0x1577fffffd3cU, 0xfffffe0f0000031eU, 0xffffffbafffffcfeU, 0xde400000426U,
  0x40e00000280U, 0xbf6add364662a143U, 0xa7b9d5352faea83dU, 0x32abb7444d314f66U,
  0x8fc13ebec1c2d7dfU, 0xe8cf34be40452bf2U, 0xdc4c0ca33e39b733U, 0xabc9bcb3557f9e50U,
  0x5da1965149bf9d62U, 0x47368f577f5260daU, 0x81e15039b0beb3ccU, 0xeeae51ac535150a8U,
  0x9d5e81b65852a24cU, 0xd8d1d7122747d122U, 0xffc9b2202303e02bU, 0x191fca21462227c6U,
  0xa5591e20e8d7d1e4U, 0xf4db26e222242eaaU, 0xb823f6fb2a22d728U, 0xa77fad395fd9905dU,
  0x81f3935353b6915aU, 0x48816b54da4a6d7fU, 0xf7b958819ca3b54aU, 0x58af4faa606a47aaU,
  0xa45e6ba659579b53U, 0x81a681817fbf817fU, 0x62eb817f7f81817fU, 0x7f467f7fce7f7fbfU,
  0x11e47f358181817fU, 0x7f817f817f7f7f81U, 0x817ff5817f7f817fU, 0xc0d0c22645dfb43eU,
  0xbf0cb313ac2d639U, 0x41334039e23a35bfU, 0xe7f3725d2c3c043U, 0x38c53bce313245c3U,
  0xc93abcc23c35c63bU, 0xd63ecb1c34d2cb2dU, 0xb052b73829fbb92bU, 0x1db3f41be1213449U,
  0x5ad620b7cfccd4e9U, 0xabd626e72b3125b6U, 0xb62810e72e2bcd2fU, 0xbcb8c1c853d1b748U,
  0x217fd14a3dbeb334U, 0x4129ee39d53d3dd1U, 0x74e83c20c4aebfd2U, 0x97be3dd03a3a40c9U,
  0xca3e32a93e41bc43U, 0xdeefec1e30e5d62aU, 0x184302201bcae511U, 0x2a28001dde1b19daU,
  0x413e2322e8cce5e8U, 0xc9e31fe816102101U, 0xfa1f08c21c1cdf1dU, 0xa03100000d2bU,
  0x9260fffffb10U, 0x1f79b00001060U, 0xa832fffff360U, 0x81db0000096eU,
  0xfffffe5800006378U, 0x74fbfffff34cU, 0xfffff8c4fffffcaeU, 0xfffffeecfffffd40U,
  0xfffff8d9000004d0U, 0xfffff2c3ffffff53U, 0xffffb4ebfffffcc0U, 0xa2c4ffffea30U,
  0x19c940001e3fbU, 0x121b00000ad7U, 0x514fffff65cU, 0xc40000605cU,
  0x107f0000d25aU, 0x6700000d1a3U, 0x8c50000ae98U, 0xfa3400000427U,
  0xa67fffffccbU, 0xfffffcc20000cb29U, 0xc98f0000067bU, 0x6301fd1502e5fdf6U,
  0x15f1f214f72612c1U, 0x7f130140fcf4fc10U, 0xdc16ec17f1f753ecU, 0xf40d2e12da1130eeU,
  0xc5890e252a12e298U, 0x3afe0ae10911fee2U, 0xfe02f4e5d606e0c7U, 0xf6e90a0413f172e0U,
  0x17d5b2e3160bdc1cU, 0x120adaff0122fbf0U, 0xf30ff80e057fe3efU, 0xee01c0fad9f5f6eaU,
  0x1f40711140c0e00U, 0x8101fef7eee4ebfaU, 0xfc01efff06f547f0U, 0xfe1a0c13fa0a2ffbU,
  0xb0ef9fcf9ec07d7U, 0xfd070000e20221faU, 0xfff4088128fbfeefU, 0x110801e500ee0801U,
  0x170514fb1900f7f4U, 0x8281af7170f0001U, 0xf030008e218050bU, 0xef151d140a08e01cU,
  0xefd10fff2f404e6U, 0x440f06fa0ab2f313U, 0x618ba062f02e6fdU, 0xc052309811fdf0dU,
  0x80bf0f2e60417ebU, 0x1b09f9003de8ff1fU, 0xfe0137050930fe06U, 0xe801060b061e18e8U,
  0x606f300ebfbcfffU, 0x30ff4f123008148U, 0xf89ffcfafb1133a8U, 0xf402fdf304040017U,
  0x30307ed050107ffU, 0xdb0d08050a7ff5ffU, 0xdf9fff5f51b0005U, 0x1249d6ffd91df403U,
  0xf80900f706fcfbffU, 0x32f954f321e9eecfU, 0xf7fbff537f002002U, 0x43eafed8e8f6effcU,
  0xf4f1f5fae3ced301U, 0x466c80304e5fb09U, 0x70ef712c5bd2316U, 0x1e01fe000b01cbd5U,
  0xb0f09342c0ab300U, 0xfcf71ecc03e843efU, 0x1af473fc2cfcfe0aU, 0x1e1e478182ed0f01U,
  0x1f17170eed72f223U, 0xfcfadd1113060ae4U, 0xf80afdc137fedb33U, 0xebfafe36e6d60cf6U,
  0xff060f05e73210f7U, 0xaa781fc945010f7U, 0xd7e80c0005391ed6U, 0xf607572781e1f5eeU,
  0x17e7d330042021f7U, 0x2c24ea1be630de1eU, 0xdd291b32e50796d5U, 0xe306da09f613b3edU,
  0xdf1007120cf1c2d9U, 0xe6b1bb2746ea3f02U, 0xaa0049f1fefa4508U, 0xfe9bbcfa033518U,
  0xa11ccb39ee0cce12U, 0x81021866a5d7e541U, 0x222bbcf8b96748ffU, 0x6205130010e9fb7eU,
  0xfef80ffde6bef70fU, 0x14fcff02fdfd04feU, 0xf8000bf90afe0ffeU, 0xfae3edee05f6be00U,
  0xf14f01c68103b2f6U, 0x204f4070602000aU, 0x10203fe15020affU, 0xff0af50d030a0207U,
  0x5f6097f130004U, 0xef07f90a14d80402U, 0xf3f6fd0005fff9f6U, 0xa02a1837c229ea3fU,
  0x1247f7ba7ff3c7cdU, 0xf4450f173fce1234U, 0x2737dd1c8be34014U, 0x25726dcca874af4U,
  0xe307fffbfb340adfU, 0xc5521d37dbc0c6fcU, 0x42980861d1f014f8U, 0xed37f293ab503a3dU,
  0xd3352a3a3419249fU, 0xd9f392ec7f60381dU, 0x54fddeffce794364U, 0xfffffdb2ffff7c9aU,
  0xffffdb5d00000d2cU, 0xffffe349fffffaadU, 0xffff54f4ffffd2bfU, 0x61d200001994U,
  0xffffdac50000890eU, 0xffffad1effffff65U, 0xffff5b3200008eb8U, 0xd624f4567f5ed712U,
  0xa9fa3b25bbc8fd5fU, 0x1d0a024d100d2f16U, 0xc041f2f77ff03835U, 0x67da33aae3f5dc06U,
  0xa648afe3471581bfU, 0xf1c5ec8d14ff787fU, 0xe4e258d4b86af5efU, 0x3af237eb1421f4efU,
  0x1c1d81180cf3e4bfU, 0x3e4a1f608e1b959U, 0x2402f324f88102e1U, 0x15cbfcd37ff7cd82U,
  0x55013213e19ca681U, 0x23e6812231cd08f4U, 0x1d417f1f413e20bU, 0xb1b80f08fef1d320U,
  0xf01038105aa11edU, 0xb2e631f87d31d819U, 0x1b934bf3fa10937fU, 0x3a0c4a7fcfeec0c3U,
  0x58b5956a11d4ae5fU, 0x10e304261181f430U, 0x7df1801eff7e1ddU, 0xd6c9d0f7f900e361U,
  0x3a01e1d8e081f027U, 0x81a80438b715d30dU, 0x505c205fc26cdf8U, 0xc22f8143de901ebeU,
  0xf126b1e8bec242eU, 0xf8d2ba2d2c48e432U, 0x35f2c28102bab913U, 0x3b2245fcff065eb0U,
  0xc3f705def87f25ceU, 0x65230fddcad3ee00U, 0xe455ffc12ed7fe7U, 0xb22f121500ca7ffbU,
  0x9920cf025eba7219U, 0xfed320d0222ed02U, 0x25f60381f2dbfc14U, 0x8b240de48104cb61U,
  0x426eb0cbd822facU, 0xfb2425c8327f2c51U, 0xfe053af6e3d33decU, 0x7f2501f20e081618U,
  0x9250e0723fd0207U, 0x301b81fc1b9f27eaU, 0x2bf909b506eef60cU, 0xf2e0fb30bcf6d128U,
  0x297f60d6562c1019U, 0xdf060d0f0ade9581U, 0x320e2d090db2f9d9U, 0x33daf2ee011cf312U,
  0x32d811607e7d2bbU, 0x1b0def2619e4379dU, 0xd9f414e0137fde1fU, 0x500f0cf72910feddU,
  0x22f2ec81f6e91b18U, 0xe913fd28e72542f0U, 0x5a71f0403e51b81U, 0x130fcf14ea810af4U,
  0xa0fdbd3e6ec04f1U, 0x29cbed2b249bec7fU, 0x1ad0f222db9804f0U, 0x24184717231c1d99U,
  0xe4fb24c7f07ff233U, 0xd61118c8e67ff707U, 0x81a11fe16ee1112U, 0xf4e1fc2a81dcc805U,
  0x373d1bf6a7c89b13U, 0xf90cef35252fdbfcU, 0xe0d57ff81cff1a97U, 0x642627f300e8169eU,
  0xebf21b13037f180fU, 0xd02cd7bdf47f17d7U, 0xfb4dc8f60af81712U, 0x1db6d12019f3f607U,
  0xcf5227f0448dee3U, 0x6b3381a1a81fdfd3U, 0x676c35f49ef802d1U, 0xf4eb4006eaebe761U,
  0xe2e1097ffb1aeaf5U, 0xc5d3fe1681dfea0bU, 0x29ee01f8e017cf06U, 0xf3810590790f443dU,
  0x14d369d0bb31b79dU, 0xc83422117fda6c18U, 0x182cdc201f0b52ceU, 0x4ee063311c81ef06U,
  0xf7c0cd0adb2ff3e0U, 0xe3c11e281db1711U, 0xd5349f2a17e01affU, 0x33da2115f93422ffU,
  0xeb347f0b08ebdc1bU, 0x3ab721d6c819e400U, 0xc2d8101241bdbf8U, 0x706ea0081070806U,
  0x35f1180eeb08f307U, 0x46091a597f02d32aU, 0x77d3000352517c2U, 0xa1f3700cf11c28e6U,
  0xa705df7b177f1843U, 0x15cc16170a112b19U, 0xcc1e1b0d7f04fb27U, 0xce01ca05fe782dfaU,
  0xfe815c0a15fffce7U, 0xdb0b02cf81dbe4f4U, 0x426f21b081322d8U, 0xce8080d8bd92804U,
  0x41ef7fddf207d724U, 0x81efc71506d6ecf8U, 0xe1d5d1eefdea9f20U, 0x7f0ef10b311f2b23U,
  0x32ccf348e003dd1fU, 0xdcead0aae27f0148U, 0x116eb16febae8feU, 0xbf8c98163ff7b68U,
  0xb7f0aaa3d05f26d1U, 0x4f7fff215fbf17fU, 0x9f7f7fcaf13f1U, 0x1f28330411e13d81U,
  0xd210f4ca07541df1U, 0x99aac519390e4a9cU, 0xbbb9ae36f839a37fU, 0x4ae162422d81e5e2U,
  0x39deb9d012faa0aU, 0xe91bd1ccdf7f0bd8U, 0x1445cdec16021911U, 0x815a0632490b44f6U,
  0x117a6d9fce17e17U, 0x810a0b4deffc0d06U, 0x1934d4ffdfe0ccdeU, 0xe11915e404f3f481U,
  0x4d2a153535b7e1b6U, 0x30e208127f14c902U, 0xe99ee9f0f90f1a2eU, 0xec12efd87fffee0bU,
  0xf6f4cc0ef2f625d3U, 0x81190922620b5458U, 0xfe1ad7f82d285f16U, 0x1a2ef963a1eaecfaU,
  0x7f3a5d08d949e95fU, 0x69ce81395cfb47faU, 0x1ec1c614071c9031U, 0x29b22c2a27089981U,
  0x72fa2f3d0ea2bfc3U, 0xe704001065ff25faU, 0xbdb97f2808e21d4aU, 0xf117e8d7eaf7bb42U,
  0x3a15f89e1e81e5ccU, 0xdef310e87fedeaf3U, 0xd9f0d001e5fc05baU, 0x81e408251dfcf0ffU,
  0xdd12e7d714048dfbU, 0xf5dbe8e62c35f27fU, 0x29c00e1d21e7f23aU, 0x17b70c1c032cf7dcU,
  0xd91b7f06dfe6d439U, 0xc2c8352d022916fdU, 0xd8eadb7fed3cd500U, 0x152416fa7fc6bfbeU,
  0x1df0d6400aa443c7U, 0xcdda427f3fdbe046U, 0xebbfae8c8e6990aU, 0x39ef79f1c19596aU,
  0xe0f47fd4c87fe3e4U, 0x14f4f30aeb07317fU, 0xb0e8d8cdd14d1e1aU, 0x81e80035b7b8b946U,
  0xe70915ee063caec6U, 0x62530205d8df0ee3U, 0xd83d421ace067ff4U, 0xebf9f4e817faeb4fU,
  0x23fe0b2113810606U, 0x38e358edef0020f3U, 0x90481130f1ee9feU, 0xa6d80d3bc581b9d0U,
  0xff09371404d1ac2bU, 0x71ddff11811cff28U, 0x431a1cf5280aad40U, 0x8167fe5842be06dfU,
  0xff0eef3b26c77f31U, 0x4f981120bf3f23eU, 0x1102062cf6d5050dU, 0x2820031e4b7f100fU,
  0x60b482b259431d2U, 0x3400d7e4e5e5cb7fU, 0x44f21cf203a013dfU, 0x3601e756651de31fU,
  0xcdec7f002ef11002U, 0x10203f103a14488eU, 0xd0df2cf00c7f1117U, 0x3ec000044dcU,
  0xfffffcb400002241U, 0x174b000014d8U, 0x17e900003f00U, 0x4474fffff9fbU,
  0x7b900001bc5U, 0x9ed200001fd3U, 0xfffff554fffffd40U, 0x352900002a35U,
  0xffffff3a0000088bU, 0x3417fffffc5eU, 0xeae000010a6U, 0x150300002370U,
  0x16bb00001318U, 0xffffffe700000017U, 0x2cf2000019d4U, 0x64400004713U,
  0xfffffdb70000245eU, 0x1cd40000507eU, 0x1a2c00000383U, 0x35a300000336U,
  0x16910000375dU, 0x278b00001106U, 0x1a2b00003c74U, 0x1012000013e3U,
  0xfffffd8b00000137U, 0x19ab000046fdU, 0x3bc500002f6bU, 0x1cdffffffedcU,
  0xe1000000fddU, 0x202100004102U, 0x199b00000d11U, 0x123100001c4eU,
  0xfffffc82000018efU, 0x1e4900004cdcU, 0xfffffa3700002bf8U, 0x103efffff7c3U,
  0xe5000000850U, 0x334a00005c95U, 0xfffff576000036a9U, 0xffffee2900001882U,
  0x26ffffff4a0U, 0x1992000027fcU, 0x133a00001c84U, 0x1360000027f6U,
  0x1078000027b7U, 0x5320000039c5U, 0x5049ffffd9feU, 0xcbc415f16bec06efU,
  0x36fef703f961fa11U, 0xdf1f014b05df1104U, 0x33170d14322b1202U, 0xe5c73004f1061cf7U,
  0xfc19c9ac101b0815U, 0x2f80632fafaedf6U, 0x1b7ffb1ce11cdefeU, 0xfa002444cd0af5f2U,
  0x3f1e81110343df4eU, 0xede61c27f27f1002U, 0xcfe150052f1f924U, 0x81f7f8340bf80bcfU,
  0x6006f3f0fb810d27U, 0x197f9d4df1f6e110U, 0x13cf241bf196e0c3U, 0x81c17fe7fef50c76U,
  0xd57f81300fe4ee0aU, 0x3720c228073234b4U, 0xec02227f539a2a26U, 0x31efe226019eda2bU,
  0x3be0c8e2fb69d1d4U, 0xd7392ff509ed3fc0U, 0x8119e38148f334e5U, 0x13271606b6e9fc00U,
  0x5f6f3003f05fefcU, 0xe019180911f410f1U, 0xb22e04fb0c0ae001U, 0xeae0050bea0a1129U,
  0x214e21909f10208U, 0x8fa0604fa07fa08U, 0xef02ec0bff072df9U, 0xf02af996cf1eeee6U,
  0xc06f50b10f3e881U, 0x241a14d8ffdc16f2U, 0xd0fd0712f618efe4U, 0xd6f6f0ab29ee3bd9U,
  0x41fbe6e3ebd35f1cU, 0x10e4813bf3a3e97fU, 0x1cce2527fa81d1dcU, 0x2ed2fd4003c7b681U,
  0xe1f4c823fd0257edU, 0xefdb0a2d14fc2e7fU, 0x7f15a6db7f830b21U, 0x38ea7fdd7facddc4U,
  0x2e7fbadd0723c7dcU, 0x2fa01b7f0006267fU, 0xc41d645e2798dddcU, 0x177f81d37f7f7f7fU,
  0x7f7f7f98810f817fU, 0x7fbe187f81c481f0U, 0x7f817f7f81c87f7fU, 0x6d5dd2817f8a81f6U,
  0x7f95857f7f7f8181U, 0x817f7f8181817ff3U, 0xbbb8e49328d7817fU, 0x7f81967f7fbf7f7fU,
  0x7fb47e8181817fd4U, 0x95e781da7f507fd7U, 0x778181eb81e98181U, 0x2eee487f03da42e9U,
  0xf7f5e2e6fcf21805U, 0x8df44d222581eb96U, 0x847260d467dd7deU, 0xda30537fd7fd27bU,
  0xd6f2cae901e91723U, 0xf2b4fcfa26f41251U, 0xdd007f01a87f1418U, 0x1a70ef1064b7e492U,
  0xfed3f8e42d0ac7e8U, 0xd07f22a71b3106d2U, 0x12202192f67fea1fU, 0x1e270efbc6ecdcfcU,
  0x8fbde1936ec0b01U, 0xe8f01ff615040429U, 0xb431f9f80309e801U, 0x11c3dd1ee6e346d8U,
  0xf5af0c11df0b0aU, 0x6ea0207f70f07f8U, 0x1104f1fa23cf2cffU, 0xf6e80dc9ca18f6f8U,
  0x113bf50e11fddf8eU, 0x9ea190d13d81517U, 0xe0f92813fb161904U, 0x3ee84ad31ae6f9e4U,
  0xf1f1fa7ff533fb06U, 0x93d54de817c3d8feU, 0xfe352b0d4565d1d1U, 0xfe81e5e4e8f64485U,
  0xd1eed1e422f3f42eU, 0x341fb1f518431ac4U, 0xf7c612c94c1a12U, 0x17c1e6f5c981e611U,
  0x4c81ad2f9e1d223U, 0x7fa13e060c112631U, 0x5430eb71efdf7d0fU, 0xbd73f0d1ce7e1f8U,
  0xf6f8cf0d10fffc04U, 0x4eb05ea120cfad2U, 0x1e21fa0030fd13fcU, 0x6e2e6f9ea162e13U,
  0x5f3dfb60814f40dU, 0xfcef09f7fa00f3ffU, 0xe30730e9e50acf00U, 0xed340730ca23fef4U,
  0x17fa0c0a15edc61aU, 0xf62837eef35720e3U, 0xcef9eb0dee020d6eU, 0xffffdc4800002876U,
  0xf3e300000abcU, 0xffffeea1fffff9a7U, 0xdd6ffffd115U, 0x35efffff3c3U,
  0xfffff97c00000e95U, 0xffffe2c10000035fU, 0xffffeb560000127cU, 0x4039fffffe8bU,
  0xa0800006085U, 0xfffff74600000a31U, 0x42000003dcU, 0xfffff9cd00003fdaU,
  0xfffff3b1fffffc81U, 0xffffe2a8ffffe8e8U, 0xffffdc5e00001b88U, 0xfffffba5000003aaU,
  0x3beffffff980U, 0xfffff1f900000714U, 0xffffffa400005040U, 0x688fffffd46U,
  0xffffe08cffffd664U, 0x1060fffffe1fcU, 0x41fc00000241U, 0xffffcd0900009505U,
  0x24d6000000eaU, 0xfffffe2a00001e19U, 0x880ffffe620U, 0x503ffffcbb2U,
  0xffffe48a00000615U, 0xfffffda0fffffd48U, 0xffffff39ffffcc30U, 0x40080000077dU,
  0x6d810000722aU, 0x1ffffcd01U, 0xfffffbfcffffda7fU, 0x28440000b686U,
  0x1240000007bU, 0x782000004849U, 0xffffe79afffffe6bU, 0xffffdfcafffff6d1U,
  0xfffff1ab0000035fU, 0xdf500000495U, 0xfffffeef00000348U, 0xfffff44f000006adU,
  0xfffffd7a00000066U, 0xfffffe7b00000091U, 0xbdd1000003a4U, 0xece94d2f21f813f4U,
  0x4a1505f6ff070c2dU, 0xf502cd6007f4fc0aU, 0x2d2cfe00a7d8daecU, 0xf5e5f608fb03f776U,
  0x23fbe206e51cfce5U, 0xf90300dbf90013e9U, 0xf7ec1bc4d9f21d2aU, 0xe2ff031403360c02U,
  0xfb09a1f300ecefc1U, 0xf02f30fcdcef631U, 0x7ff51e20e30cfaf7U, 0xc602aafa51309539U,
  0xc0deae1109f5aadfU, 0x23e18ade20170a94U, 0x42fc5fe91fc5d17fU, 0xe546e7ed0ec9fc1aU,
  0xfa2efdc2e851b2efU, 0xe129aa4fc5130b21U, 0xcd09cd24a4dc0601U, 0x12d7302a3a32a1e6U,
  0xa13501336f01981U, 0x43f43ca22cb80b1eU, 0xec1ecdf60e0c1ed1U, 0x37f7fe0df10dfd17U,
  0x62dfffb4105f73cU, 0xbffdd1eb0618f1efU, 0xc8760ee319eaf0fdU, 0xe0c57f1332e7b918U,
  0xebbd5db19ffe807U, 0xdafef704e7de1312U, 0x60470f0317fe03ebU, 0xdf7f2f4c409b8faU,
  0x1d083f010feb01e7U, 0x90809e7ea1f5d0dU, 0x3efe0cd5d4f70c0dU, 0xd5f1ec141bd6e9e7U,
  0xe03eef06fb0b08e6U, 0xfd01ebe60708d128U, 0xe542cc17f8fb0f00U, 0x150af5ed3ae6fd05U,
  0xf801efe91fb7f7U, 0xd4decd8e1bf33881U, 0xb0810ff3fe11718U, 0x1afd0f2411d39deeU,
  0xd71db7cdd40204e0U, 0x1b244a2b580ce4ffU, 0xdae7fbd504fff019U, 0xacdf10aa304dc01U,
  0xdfa51fc00f8d4e5U, 0x13e11faf711f13cU, 0xef03f40109160aeeU, 0xd09ef25010111d2U,
  0xeafded26d990101aU, 0xfc08ecf0fcf64b15U, 0xec0505122a0ce2fdU, 0xf4f10cd0e70d813cU,
  0xe44942f127f02509U, 0x1ffe62fd17ef8efU, 0xd40229d11cfcfd53U, 0x5c0af001040903faU,
  0x182720ead2f20138U, 0xd40101d7df04f7fcU, 0x2f35044c49150c0eU, 0xf5eeced9fb071cccU,
  0xf060941f503eacfU, 0xf5f9f1e709f80d08U, 0xdcf60ccf2ef5f2f0U, 0x60224ff10ec100aU,
  0x7f0617fdf6110408U, 0xea1b03032b24de0cU, 0x8ef7e6ec9117fbf6U, 0x4fce500cd010be5U,
  0xeb19c426f8e912ffU, 0x23ed0dfc061ec0f4U, 0xf004f41f07fdf959U, 0x261bff1306e7f2f2U,
  0x811aed01ead8d6f5U, 0xcd000509031c2410U, 0xb111a180bfbf72bU, 0xf10803e6ee224a22U,
  0x12fc23dff92efd01U, 0xe9182d01eb3d01f0U, 0xdf409eefce6190dU, 0xdb05fcfbf1200f16U,
  0xd2ca2f1ebe8f003U, 0xffdcf20bf4f4e0f7U, 0x301050ef8fff0edU, 0xfd1ee0ce7fef3f5U,
  0x4c0510fd1af2e90bU, 0xc3000ae6e2ef16f8U, 0xf805f60d04fb2eU, 0x390502f7e9132ce4U,
  0xf9f4032f12f7f0e9U, 0x27fd5fd33e412U, 0x7f8fdf01e06f0ceU, 0x2108f32f06db2ec1U,
  0xf4542e0cf9d76019U, 0x9cc35221eaf190fU, 0x7fab43d0e0eeed1U, 0x2edd2406fb160f19U,
  0xf420f0e18107fdfeU, 0xfd3d99420913c7U, 0x1d2cd312f2fae309U, 0x53200f04fb2020edU,
  0xec01b6fc151a22d8U, 0xc72007c21826ff19U, 0xe9e7dd3ff9f13212U, 0x1fe41d07d3dec312U,
  0xcf8e3d51908de17U, 0xcde7fce3ec1f07e7U, 0xeff3dcd4e5200d28U, 0x21e828f029f9fff5U,
  0x810ff8feb4e41b07U, 0x5fa01e6180300e2U, 0x11fa1611ffe30ecfU, 0xd802ee0521206a12U,
  0xfc0efd3c0ce8fe00U, 0x5e91e00d5fef9d6U, 0xf30809f3fcd017c7U, 0xddf7815026ed4623U,
  0xa32023f2fd22370eU, 0xe5fdf7ae1fee270bU, 0x31f9030e32cbf1b9U, 0xfdf1e758f72bf5f1U,
  0xfe0edcee62f3ef6U, 0xeaf6f9f7f4d5eceeU, 0x18e5fef5fddc2408U, 0x3c1d0d301f403d15U,
  0xbea0dfdeddbe7b8U, 0xec68cd3ed8c0fb2fU, 0x81e63162fb261adeU, 0xfe390b0015e9272bU,
  0x42b09fde6eefc05U, 0xfd041b03f99df606U, 0xf7f9170bfff3f3d9U, 0x12020c10190b10f5U,
  0x200d920a13011fbU, 0xce30f1ad20b1381U, 0x805e80a0b10faf8U, 0xe14ff0d18f438d2U,
  0xfd0e0fd0f0de1c4U, 0xf3fff605385e091fU, 0x10e4fd12fcf71d0aU, 0x50f35e80710f4d1U,
  0xe6cff80bf8ea0b7fU, 0xf5f02431530b1026U, 0xcc23078fda22fc04U, 0xe62d0707effafa01U,
  0xfb0a24010ef8e8d2U, 0xfb08ffff0ad20a10U, 0xf30df6120718eb43U, 0xdcf5f9f704d315f1U,
  0xc110fe1500a10119U, 0xf3dfe3ee22240bf6U, 0x718f2ef27ef0911U, 0x507011c1ceaf221U,
  0xf70dfa09fc0f0cfbU, 0x906edf80be0b318U, 0x19f6e6f6f8fb0affU, 0x15fe04172f0e0a06U,
  0x81fb1214261403feU, 0xa14f5f40705f716U, 0x2f711100c1211f5U, 0xdbfe0b0dccf1f004U,
  0xf81b0ae80ef523f4U, 0x11111e0c16f2f022U, 0xf5ea0b02f61d00faU, 0x10d8ee17240fca95U,
  0x81043a18ff0df8U, 0xa26ebf91bf1f04dU, 0x2ebbecee81d0792U, 0x1af3251cca0e03f7U,
  0x2f406c0de5f22818U, 0x120eed5250632a1U, 0x210a282730300b03U, 0xaed1420426cfee0bU,
  0xf1591df62e0105c6U, 0x1f230e2f07130522U, 0xe61413f3f5362121U, 0xfa2954f90825f459U,
  0x29f5fca6110834f4U, 0x4aa10b0cec302413U, 0xafb82902f2250006U, 0x89aaec230239d20eU,
  0xdcf63b1a27f7060bU, 0x983a8a2a17c8c260U, 0x900f3811015d709U, 0x1cef55ee23c4f95dU,
  0xe838be12020a182bU, 0xcd15f6dd481dfdf1U, 0xd0940c0073ee8f9U,
};


ai_handle g_face_detection_weights_table[1 + 2] = {
  AI_HANDLE_PTR(AI_MAGIC_MARKER),
  AI_HANDLE_PTR(s_face_detection_weights_array_u64),
  AI_HANDLE_PTR(AI_MAGIC_MARKER),
};

