/**
  ******************************************************************************
  * @file    face_detection_data_params.c
  * @author  AST Embedded Analytics Research Platform
  * @date    Tue Jun 27 20:04:42 2023
  * @brief   AI Tool Automatic Code Generator for Embedded NN computing
  ******************************************************************************
  * Copyright (c) 2023 STMicroelectronics.
  * All rights reserved.
  *
  * This software is licensed under terms that can be found in the LICENSE file
  * in the root directory of this software component.
  * If no LICENSE file comes with this software, it is provided AS-IS.
  ******************************************************************************
  */

#include "face_detection_data_params.h"


/**  Activations Section  ****************************************************/
ai_handle g_face_detection_activations_table[1 + 2] = {
  AI_HANDLE_PTR(AI_MAGIC_MARKER),
  AI_HANDLE_PTR(NULL),
  AI_HANDLE_PTR(AI_MAGIC_MARKER),
};




/**  Weights Section  ********************************************************/
AI_ALIGNED(32)
const ai_u64 s_face_detection_weights_array_u64[56100] = {
  0xdde2ffffc618U, 0xffffeed90000f442U, 0x6d2e000030eeU, 0xffffdefb40000000U,
  0xffffbe05ffffcf04U, 0xc00000000000af21U, 0x8905ffff6a21U, 0x3892fffff139U,
  0xffff6b76c6cd51c0U, 0x3f3400000f36U, 0xffff6a1900000810U, 0xffffb0fd00001be3U,
  0x8e2fffffadb5U, 0x40000000ffffe7ccU, 0xffffd3010000c202U, 0x7d9a00006404U,
  0x9b3fb11f40f0cfdU, 0xafaf3ffa909fa05U, 0xf700f7f1fb144281U, 0xf3f614fb9504fb2aU,
  0xde81f89f38ed7708U, 0x13b214fbbdef207fU, 0xfefe097f0008fd99U, 0x7f121a12b8f906bbU,
  0xd27f709e8051bfaU, 0xae7fbfca60ce60eU, 0xf40004f8fb0fdaccU, 0x6030dfe8102fd2eU,
  0x342efe00037ff981U, 0x2030dd5c0057fe7U, 0xfeff7f14fb157ff9U, 0xf819df0d2081f2bdU,
  0xb60b7f7f7f988172U, 0x817f7f7f818274d1U, 0x7f7f8e857f810ab9U, 0xa3788181ac024781U,
  0x14260ffdefe6dd0eU, 0xf7160ce7ca7fbfebU, 0x605f30c0213e6e1U, 0xf181df03167e16d4U,
  0xac04faebeff5fce6U, 0xf9f700ffbd060813U, 0xf9f9fe07f40ac5cfU, 0x12fe04f7e9fc1e2bU,
  0x7fea08df05020a19U, 0x60e8fef7a6eb24b5U, 0xf016f8ecfe13ede4U, 0xe3ed7557bcf981a1U,
  0xd724f7f4f10905feU, 0xfdf9fefbde13d803U, 0xfdfb05fef70606deU, 0x80e0e00f20a0132U,
  0x7f000032c0U, 0xffffffc400001453U, 0xfffff95f000002ecU, 0x53b6ffffc845U,
  0x371200000381U, 0x8600000e9dU, 0xffffcdea00005fa9U, 0x5b1fffffee7U,
  0x2d9ffffec05U, 0xffffeef100000549U, 0x3fd4000069a1U, 0xfffff9fcffffc844U,
  0x117900009771U, 0xfffff1f60000065dU, 0x45500001961U, 0x301000073dcU,
  0x600a7f3cefebcf9U, 0xd0e0f505fcf4fcd6U, 0xb4ec18f281cd3600U, 0xbc13f50400fc0244U,
  0x2400e8f2e2ea00edU, 0x27fdc81102eefa06U, 0xecfa97c8f2f1fc00U, 0xf85a1ff300067ff7U,
  0xf300dc3ede260a00U, 0x3ff01217001a0af7U, 0xf9c6dc10d4dffe00U, 0x7c3eb1900068107U,
  0x800ff0ce432fcabU, 0x3efd57fffb2200f5U, 0x27f66efe6130400U, 0xaf7ff030007f908U,
  0x1000dfefc010302U, 0xfd130004fffe047fU, 0x60602040d06fb00U, 0xee01f10300fffe0aU,
  0xf300e80303fb10f7U, 0xfe04f2ee06ff0481U, 0xa011302f8fe0400U, 0x34f71efb00fff1feU,
  0xfe0016cd03057ffbU, 0xbf2eff05ff11e637U, 0x11fcf5cf1416f500U, 0x95146bd30001c900U,
  0xfe0001fc0300fa01U, 0xfafe00fe02ff0104U, 0xfdf60201007f0600U, 0x202fe000001feU,
  0xfd070105U, 0xfffdfffbfe3ffbU, 0xfefbfcfdfef17f00U, 0xff00ff000000ffdeU,
  0xe700e51ae7edecd8U, 0x3e0b05250e1102e8U, 0xeec01213d2eb0200U, 0xb39ec1600047f03U,
  0xf60010f281000c05U, 0xe502c4f903010709U, 0x17d0ff071603ff00U, 0x4fe050100fd0100U,
  0x400fca7f8de7713U, 0x9d72d43214e819c7U, 0xe8e80b59f90b0e00U, 0x7fd48a4c0005f9f4U,
  0xf500e20204cbb5efU, 0xfb0001f301faf247U, 0xee001300d4ff0400U, 0x81f8edfa00f000f1U,
  0xbe1a7f03e506U, 0x1ef514fafe05ecf4U, 0xc615fcf6ad100900U, 0xef0809fc00fbf404U,
  0xf300eff3e2f40262U, 0xea077ffd05100cf8U, 0xf31aa60af3fa0000U, 0xfe0100fb00071ef9U,
  0x0U, 0x0U, 0x0U, 0x0U,
  0xe3001b040cf4feffU, 0xd5eefc0904fdf8ebU, 0x4f8ff8114f30000U, 0xeb07ed620004f60aU,
  0x800f0f6ec7fffd1U, 0xe9f11aff0744faf4U, 0xec2943f2d9fd0100U, 0xdbd90df700fc17ffU,
  0x30001fe010fff02U, 0xfffffffefaff7fffU, 0x1f9fdfc0309b900U, 0x7fefffd00ffff06U,
  0xff00f81fefe5d053U, 0xc09eebffcf9f8f4U, 0xdb047f40fdeef800U, 0xfee906f400ff1e0dU,
  0x100edcbc9a60e91U, 0xd1f263fa1185e302U, 0xe37f55f4def30800U, 0x318f5010006c7f7U,
  0x7f00ef18060106f5U, 0x11fe03c1000a04f8U, 0xfa0a08f3f4fd0300U, 0xef13f9e000033500U,
  0xfd0003f6fd81ffedU, 0xf8fbeffcfcfb0cf5U, 0xffee1103fcfbff00U, 0xff04ff0100d2eff0U,
  0xfcfffb7f0312U, 0xfcfbd40706f5f1f1U, 0xffe7ef04f9020100U, 0xfb0201004127f0U,
  0xfb009ce3c903c7feU, 0xcddbf50d000b50c4U, 0xa5f3070381e22800U, 0xd605fcfb0002f36bU,
  0x200fd01fefcfc04U, 0xf607f905f901fe03U, 0xf9fe0603fe7f0400U, 0xfffeff0000fd010eU,
  0xec0020eff30ae4f6U, 0xb5f2f37f03fa1ceeU, 0x66f5ff3d17fbfb00U, 0xce11f58b00fffb03U,
  0xfe001013f914d2aaU, 0xf00eeac4020400f2U, 0xc7ec811508fd0100U, 0x6e913e20004b504U,
  0x5200d416d4de1553U, 0x76e5d02208c1fa02U, 0xfc167cb6e904f900U, 0xe4ae20fd00f481fbU,
  0x70061185b0a1d04U, 0x3014290f03ffe50eU, 0x621bfd067fcb0800U, 0xd0b02fc00fa059eU,
  0xc001a071f811feaU, 0x20009f3fd015814U, 0xede08f8191f2c00U, 0x341c04fc00bd05cfU,
  0xf100e6f7074ec62dU, 0xfb07e5ee0705f13fU, 0xeff7dd03e5070200U, 0x81feeff00021fdf2U,
  0xfffffd3b0001b446U, 0xffffd39e00002b28U, 0x2e3d0000146bU, 0xffffefad000003ecU,
  0xffffb3ae00002d08U, 0xffffe28100000dfeU, 0xfc7000055c9U, 0xc0000000fffff6ffU,
  0xffffcdd800002878U, 0xffffb6890000000aU, 0xfffff74600007c93U, 0xffffba9e00005af2U,
  0xffffe4580000e8e3U, 0x9a9bffffd279U, 0x24dc000009c2U, 0x3c4000059feU,
  0xb3cce0ced8c32c43U, 0xc93e40353351c246U, 0xc7384dc239443b44U, 0x3a58454041c44481U,
  0xb3afd7b2a89d565fU, 0xba615f634a66a66fU, 0xa2567fa256746162U, 0x5b0e5c565cad56abU,
  0xd8cefae0d7c43917U, 0xdc2d35392931d52eU, 0xcc3243d42f2c392bU, 0x399d24282bdb17eaU,
  0xb8af18a5beaf4c81U, 0xc04e584e5c63b536U, 0xb0433fb553354551U, 0x4e6a545450a94cfeU,
  0x81812c8181817f90U, 0x817f7f7f7f7f817fU, 0x817f75817f7f7f7fU, 0x7f0a7f7f7f817f56U,
  0xc4ad09c2b7be47e7U, 0xbf424047444eb743U, 0xbb4838c242473f4aU, 0x4a813c4345c2333dU,
  0xdccf62dfded52c38U, 0xa21b29202e39e1fdU, 0xdc1e05e129031f20U, 0x2337162a22dd1af6U,
  0xb7bb7fc9c2c8454cU, 0xa0372f364452c121U, 0xcf3f08cc3d16333dU, 0x3e0a294b3ac93439U,
  0xd5d348e9e4eb220cU, 0xa6211d1d2736d620U, 0xe31f05e71e191c1fU, 0x21b6112f22e71421U,
  0x417ffffd454U, 0x3a040000d06dU, 0x11b97000235ffU, 0x38c10001834aU,
  0xc5f1ffff9057U, 0x13c1000093b9U, 0x4e80000149eU, 0x6b00000c14U,
  0xd200002a00U, 0x1b99fffff80fU, 0x659600011450U, 0x1713f00000646U,
  0x5cb00003457U, 0xd950000c237U, 0xfffffaf800000485U, 0x1a88000007c7U,
  0x3ab03030603091bU, 0x1fbf00a7f000b00U, 0xff000c070a02f6f8U, 0xf8ece8fc1ff2fcfbU,
  0x18ed22fb07000811U, 0xfff3fc03fe0803dcU, 0xddd501fdfd81f7f4U, 0x8230f0a0b050d0cU,
  0xf6e1818b16f8101bU, 0xfeec00500725f31bU, 0xcfbee11f506ea14U, 0x48e30408f80107e9U,
  0x40ed18108f7f800U, 0x306f552d6081800U, 0x1ad00af40af20809U, 0x64fe0e00f7fd0016U,
  0xf6fc09fc03fe0301U, 0x20105fe02fbfe81U, 0xfd0201002cfbffU, 0x106f403fe02f1ffU,
  0xef1d040202b05407U, 0xf8da0353d4057f02U, 0xe9de13102907da09U, 0x90f8fb83d7021a14U,
  0x49f2d8e42120ea16U, 0xfbadf5e5152c2b30U, 0xfce9e55be4dca3f0U, 0xddea81c4e4f7cdeeU,
  0xae4080cf6608d00U, 0x52106971fef8afdU, 0x33180316bd060b05U, 0x7ffd026b3afbcaf7U,
  0xeb0127def5010800U, 0xfe08f3f8e4fa069cU, 0x23ed06010781e907U, 0xeb1af108110a11fcU,
  0x4f900fef602f3fdU, 0xfefff3ff01faf87fU, 0xfffafa0603b20406U, 0x60005000afe2901U,
  0xb15fc0e00ff0f0cU, 0x610fc57ef0fbeffU, 0xad3d6fc91fff6f6U, 0xb2e612557f19fa0fU,
  0xf7f7e80207050fffU, 0xfc05ec05fff7f981U, 0xf5f6fef60a3dfe08U, 0x5f6120a07feeb07U,
  0xfcfe0f20fef2fd00U, 0x5fefddefd000dfdU, 0x7f65020207ffedfdU, 0xd8220bf90604fe0dU,
  0x0U, 0x0U, 0x0U, 0x0U,
  0xd150606044e8105U, 0xfa0804e3e903bafcU, 0xb030b18c703e004U, 0x3101f6422706ef0fU,
  0xfd67fcdad5f1d7e6U, 0xfa4e7fda96d8f704U, 0xee08d6a3dffe3cc2U, 0xe6fa98e7d026f806U,
  0x1f8f800fff8fdfcU, 0x10507040002fc81U, 0xfb02fdff05390106U, 0xff02010302fceefaU,
  0x84a09dfcdeffa09U, 0x477e6c1c065e9f4U, 0xfe07f5810e0a6d00U, 0xe42d2c11fc0c0c12U,
  0x30dfcfcfcfc0eecU, 0xfb0181ff02f30206U, 0xe41efe07f6000b18U, 0x8f70c01fe07fbU,
  0xe669fce9bc9d48c2U, 0xf9bc0700810584fbU, 0xda17635248f192c1U, 0xaf2ed60242a080bU,
  0x3b05d4dd180aef09U, 0x5beef09f8031726U, 0x16e6033ce04cebe3U, 0xf6e481eaeef4dd03U,
  0xfb148116d8effa2dU, 0x12ae6f81528ee43U, 0xd52ff6f801492af8U, 0xf2bb36fef107000bU,
  0x701fd04fe040101U, 0xfdff06fe00000181U, 0xfdff0201fb09fd00U, 0x403f9fdff02fa06U,
  0x4b0700f0f61fde12U, 0x70828cceef4ed81U, 0x2ce3f0f7f367f2fcU, 0x1c0bd31e04f9a80bU,
  0xd0e9ea09f3eb07e8U, 0x307031a1ef7bcbfU, 0x7f310ee0f02ee15U, 0x15f97f212a1524f6U,
  0x5f21fd4130604d2U, 0xffeff504f0f9fef9U, 0x1510effa02faf5fdU, 0x18002bf5fff9007fU,
  0xdff420d3e9e11206U, 0x413e21c0408ded5U, 0xce308e02af31813U, 0x8017f0d12f5011cU,
  0xe4d7fc14fff10e07U, 0xf7ffc608270cf2f1U, 0xdf013021e04f723U, 0x9fb7f1230f126feU,
  0x3021e1181540bdd4U, 0xf31e1108cb037c12U, 0xe8f0de159b332ebaU, 0xde1081908bf7c7d9U,
  0xfaf1073f32f30616U, 0x219f7402218e128U, 0xbf340edc001832feU, 0x2dec7f0ee10fe915U,
  0xe09fdf8f8fcfb33U, 0x1fd06050607000cU, 0xf7fffb01f8fa0ce8U, 0x61de3fc0103f17fU,
  0x467dfdb3e008e2aeU, 0x46e7f96a8d2c5f7U, 0xd649f58be0ee5de2U, 0x24f12a3e1202ebedU,
  0x4e4f80fd2fe0509U, 0xf83c7f0b0fb800f7U, 0x4f80bb5e0f429d7U, 0xfcedb2feea1a030eU,
  0x1b00d3ffde53903U, 0xfde89d6b5c3bcaeeU, 0xa87f062bf5f031deU, 0x631d4e29f92d1df5U,
  0xc8bf805fce71b2aU, 0x6f515167f28c8ffU, 0x3dd0dcf0f00cf7cfU, 0x1edffc0fce34fe05U,
  0x23290f130a6081f5U, 0xfa1e0ebcda0c82f6U, 0x1b1de0ffb8ed0bedU, 0x7827de7634f2a600U,
  0x2fbfaf902fc0002U, 0x20205f9fe000009U, 0x2fffffd047f0401U, 0xfbfcfc0404faf900U,
  0xe0c3f1abe0dc3a06U, 0x2fc017ff703f10cU, 0x4f6302f23615ea1eU, 0x38fb3af4f9f3f3ebU,
  0xef4c10c5db0cdddbU, 0x8537fd29ccf1af6U, 0xcf370fa3e80346e3U, 0xdb00b1ece910fcf0U,
  0x7f4723dfc080705U, 0xfc1203e812f40a0dU, 0xf500f9fe01810aefU, 0xeff5f20a0cf80ffeU,
  0xa141ffb180cf408U, 0xfb07d7f8fa4413e8U, 0xfc18e213d6cf00e8U, 0xfa1681ead81ee008U,
  0xe51616f208955301U, 0xfdf60f51fd117f05U, 0xd6e507023ffe0d14U, 0x89f803a7b2f13bfaU,
  0xf658ec7feef901caU, 0xf3032634d1fae403U, 0x12f8f2f7e907ff1fU, 0x3000d504dae70112U,
  0x3afbf9f9fdf202fcU, 0x2050300fffbf9fbU, 0x10206f90b04fe04U, 0x2120201fe8102U,
  0x74bfcf50e8c4bf1U, 0xfce015f4c2168108U, 0xfd0363304804b7c7U, 0x1d7ef53191e03f0U,
  0xf517e281e51ec8d6U, 0xff16f953e5fce210U, 0x684e101df2f510fdU, 0xe0410a2a220104cfU,
  0xa53fed2f1cf47f3U, 0xfb577f24b7c82f06U, 0x9b2ff1ad18de2ef1U, 0x8c12f5e1c1fb23fcU,
  0xf5280cfcec02e61eU, 0x7daeadc0f0701U, 0x12ef0efb210a0e7fU, 0xf90017fe1ea6ecfcU,
  0xf4fe17f40503fe10U, 0x4e20803fd7ffcffU, 0xfe0af81cef07edefU, 0xf7f2edf8f006fd09U,
  0x308fc03f4fc100aU, 0x7ffa03ee0801fcU, 0xc0cfbb1fefd45fbU, 0xb360315fa05f003U,
  0x612fb7f061bfdecU, 0x20303e424ff17dcU, 0xf8d7fcecf21809feU, 0xe1f101faeb040a49U,
  0x1402ddaa130109f7U, 0x4f21558b7121b2eU, 0x9f81fd05e10111ccU, 0x6101f42408f90aefU,
  0x24ff11ff05dc1beeU, 0xff0610200e130addU, 0xe40a02eb111010fbU, 0xfc1a3eedfb1581f4U,
  0x5d714fd0b53e91eU, 0xfe170dfa1b0552f3U, 0x10981e0cef724fcU, 0x3fdfddee3fc10fcU,
  0xfbfd040ff7fe02eeU, 0x700f602e80200U, 0xcf006f813fafc2aU, 0xf7077f040ef60cf4U,
  0x9e0df2508cc18ecU, 0xfc1fbe1c2738dc00U, 0x7f87dfd819fcd2cdU, 0xfa994a22fa4efd09U,
  0xd3a0beff70011e6U, 0x80d2adbd5d5dcffU, 0x817eea0be5f966cfU, 0x91cf9fde91100f8U,
  0xde3effedbce716fbU, 0x7547fd4bfa1dbf1U, 0xad71e5b9fff253daU, 0x190dc11dd91409f7U,
  0xf7fc0513f601f9f2U, 0x50605d3fc01fb02U, 0x9a81fef60401ef02U, 0xe633f8050c02fffeU,
  0x19f517e9e3f80529U, 0x1e7fb33fef3fe2dU, 0x7f5bfe080125f809U, 0xf0d2f60001010f22U,
  0xb6e60c1fd6cd21f8U, 0x317f81822ddfadbU, 0x714de1de71c09U, 0x24047f17191733faU,
  0x1010003f4fffdfeU, 0xff03f801fef7fe7fU, 0x8fe04fafdbd0304U, 0xf9130007fc2107U,
  0xe4f4ebf3fff105fdU, 0xf9f4f2f607fb0b07U, 0xa981f3011402fa09U, 0x113011050d060200U,
  0x340123ed3a1de7feU, 0xddde4ecef251921U, 0x8fa1034f60be702U, 0xf80881f5f407d701U,
  0x595300007611U, 0x9fa100008542U, 0xffffce7400006bc8U, 0xaba0000daefU,
  0x326d00001373U, 0x982e00006191U, 0xc0000000ffffb0b0U, 0x805cffffd0a7U,
  0xc88200009694U, 0x6b2700001e50U, 0x51ff0000a811U, 0x6ebe000081d9U,
  0x255f000085a4U, 0x647b00013c95U, 0x21582ffff9d26U, 0xd65e00001092U,
  0xb04e0000fc92U, 0xb10e0000c733U, 0x5bd9000002b4U, 0x64e20000db12U,
  0x57910000adaeU, 0x3e56ffffec42U, 0xffffca3e00007099U, 0x14000000dd27U,
  0x5706fffffdafU, 0xf44200000916U, 0xffffdfb70000913dU, 0x28a50000126bU,
  0x1b694000089daU, 0xffffa47f0000941dU, 0x194200006ea9U, 0x419900008a67U,
  0x2337f713fb1efc04U, 0xf50023f6e5f1ce05U, 0xb506051201f20167U, 0x3508edff0ffafcb0U,
  0x151f7f017f0c00feU, 0x3edc801fa128104U, 0xfffaeeea4a01fb08U, 0x2229031217f411edU,
  0xee50036c0f7f21e6U, 0xe506f8ed50d278ffU, 0xe4f418da1a24f428U, 0x3ff90c2df4bb20c2U,
  0x7f818efae3da02f5U, 0xe25224c83a352bdcU, 0xd9fc2e0499b7f9ebU, 0xbbe8e881ee20fdd6U,
  0xf025fe21f3101a01U, 0xf5fdcf0d3b094108U, 0x2fff050dfbf606f8U, 0xf506f2f80efcfa0dU,
  0x171fd6fb9e0f00ffU, 0x52e0a08f2055f07U, 0xfdfbe9f5faff010aU, 0x21ebfed8ec0d0cfaU,
  0x196f8e912f64cffU, 0xfffac4e5cde79ffcU, 0xd5e429be1615ed27U, 0xf8c0051d34fdf9f7U,
  0xe03a8de5bee3041dU, 0xcdca25cd370833d9U, 0xd3011f00d30c04f5U, 0x4c7fba53792f13a6U,
  0x81817f817fc88181U, 0x7f7f81818181817fU, 0x7f7f817f7f7f8181U, 0x817f7f81817f817fU,
  0x86f6bf7f3f81817fU, 0x81817f817f7fb77fU, 0x817f7f817f7f8181U, 0x81e27f66817f8181U,
  0x20abe5e501ebb609U, 0xf1eec0da56f26cfbU, 0xfdfe1ebdfcf70acaU, 0xecd9ff2d39f4141eU,
  0xee3d57041af715ffU, 0xfdfffdee02f1ecd7U, 0xe8e90d12ee061905U, 0x3db9efdf0d2221c7U,
  0xed2e0302fee802ffU, 0xf6fd28002c014605U, 0x2406070ffcfd01fdU, 0xe601f6f709fd0915U,
  0xfe07ee07b40cfffaU, 0xf3a0507ee045209U, 0x1f9e6f4ecf3fb07U, 0xd1007cd10fc081fU,
  0x165af01907a32004U, 0xd8f008f6bdf6aeddU, 0xf8e61cdbf2fb10ddU, 0x1606023a03d13907U,
  0xb9d75df11f41bdfU, 0xfc0501ed0afdfdd3U, 0xf6e51d1009c9080fU, 0xe7f9dd1def13191fU,
  0xd23fffc06e418fbU, 0xfc012b03f903ee0dU, 0xd707fd12fb050033U, 0x1efdfcf00405f6d1U,
  0xf115eb033e0afc02U, 0x6e7e60cecffbf0bU, 0x1feebf408fff405U, 0xaf9020ef2000020U,
  0x934d00005e21U, 0xffffc74f0000316cU, 0x1222fffffc54U, 0x272a000015f5U,
  0x226ffffeea9U, 0x2aa00006421U, 0x13c0000ab1fU, 0x257000000c0aU,
  0x663ffffffbfbU, 0xffffe518fffff660U, 0x3d2500002ad7U, 0xfffff97f00000282U,
  0xe9dffffff93U, 0x1598000005c2U, 0xffffbaae0000127aU, 0x527fffff206U,
  0x4a72fffff469U, 0xfffff32600004b12U, 0xf9e00000fc1U, 0x33900007b8aU,
  0xb45200001688U, 0xffffd7f0fffff907U, 0xffffe4cd00005e1fU, 0x5d8b000006baU,
  0x725500001f33U, 0xffffecfbfffffe29U, 0xffff9f910000858bU, 0x1004d00001281U,
  0x3c97000045e5U, 0x5faffffcc20U, 0x99effffff40U, 0xfffffd73fffff59eU,
  0x2328f75d205df307U, 0xdbde00f8d904350fU, 0x3a25deddd5f6500bU, 0x2a0a4e012b02fe4fU,
  0x251606d71ccad081U, 0xf806040793a41d07U, 0xfcb10c421f5528d5U, 0xf52afb4904e8f544U,
  0xdd30ebe5d81ce415U, 0x19030709f11e0009U, 0xfc0611def7f4fa03U, 0xee1ffa23810fe9feU,
  0xae3df8f68fc60ff2U, 0xdcec16f2d7e0b411U, 0x17f8e906ff1d12f6U, 0xffe2f2fff8fe20f1U,
  0x7ffd44e7f8f6feffU, 0x21a609ecfdd2e0feU, 0xfef9ece6f8fcf21cU, 0xe20010fd22fafc07U,
  0x1e2eaf9fd190d00U, 0xf54bf30804f3ffffU, 0x11f2ecf90e02e80dU, 0x90e05f721fd9be1U,
  0x1fbf8f9fe06f501U, 0x1fd0402fc05ed03U, 0xf87ffaf801fdfe06U, 0xfc0202f0fd01fffbU,
  0xafe010100f8ffU, 0xfafcfdfefcf500f8U, 0xfbfdfc01fb01fcf9U, 0x904090005fc10ffU,
  0xfb0df4dd2720dfcbU, 0x39fd02d336041df1U, 0x9ed0b071018fc14U, 0xdc62909955d05d3U,
  0x1ee534fbf2c2b716U, 0x181026fdedeb05b2U, 0xc57fce1f1c1ec63cU, 0x82034b22d2dbf35U,
  0xf6c6f2faeef01bf4U, 0xe8e4ff0fea15f503U, 0xe1f3183addda04edU, 0x3f803f32f08fff5U,
  0xfc0dea0703decf63U, 0xdf00e922fadd2efeU, 0xe87ff9e7e907cef1U, 0x18e5f404f9f51f07U,
  0xf60c1015f905f7dbU, 0x9f28fefff31c03f6U, 0xebfdfe060dfddbfaU, 0xc1a171ea5fefdf7U,
  0xfe26fdf1f802fa81U, 0xa0d031800e7f715U, 0x2f020a0200f92be0U, 0xe90e09fafefe5503U,
  0xf9fdfaf53a491cf9U, 0x6148424180102U, 0xe507212ed30b4a20U, 0x5d7f3f70e1f06feU,
  0x170b110d020f2216U, 0x9011f2a0d1d1008U, 0xdbccfce1f2f7f92bU, 0x1d0ce3f6087f24f5U,
  0x15200454140be78bU, 0xd9ce09e70fe5fa3aU, 0xe60bf6e5c02f3d16U, 0x27120d1531ee0e1bU,
  0x15450afb16b5cd97U, 0xc7202ff2819f00efU, 0xfbe2e3251f472dcdU, 0xf340123af2dad176U,
  0x2e310ff14ec0a0dU, 0xfe0ffafceafceef0U, 0x77f100315060adeU, 0x3fb03f605310e1eU,
  0xf002132209050de8U, 0xf80af80206f61418U, 0xf90ff2ebfa02fd0dU, 0xf7fcacfcfe14f8ffU,
  0x3f6f605f603ed02U, 0xdfd090d09f8fbfeU, 0xf43af409f900fcfeU, 0xfb0b17f7e4070601U,
  0xf4f6fe8105fcfe02U, 0x2fcfdefeaf00a18U, 0x502f90000faf005U, 0xf7e0fef6ffeeea05U,
  0xffeafc017bd30114U, 0x3208ff28f019f2f9U, 0xbf92e5efe0f23feU, 0xdd0815e1f6b481e9U,
  0x1b24d1fcf70110e9U, 0xeee548f0eee9f816U, 0xf2d2f90307dddd2fU, 0xed0109effde7c6ecU,
  0x12401914dcafd513U, 0xf31004160cf8f51dU, 0xee1781c8fffe0812U, 0x1402ff16ea173e02U,
  0xed13248160001faU, 0xe31de2f6e41f319cU, 0xfafde9d71ce5cbeaU, 0x86e1ef102c51506U,
  0xfde0e200fc05ebcfU, 0xf3df0308f7eef818U, 0xe3e5ff1c0604e30aU, 0xebf70afb0bf1f502U,
  0xb0703d0eed6c722U, 0xe10100efddd8f703U, 0xe87ff2d3010dd912U, 0xc27fe07fcf5ddU,
  0xce00adeae9f30303U, 0x2710eff01d1e1ef7U, 0xfcf2e6dafaf4f0f9U, 0x440b15f751f5ef00U,
  0xfbda13e8370327d8U, 0xf7e0fcf716eb4af8U, 0x16d9f8fa0bf4e916U, 0xd1105111a0081deU,
  0x84b15db14eb2617U, 0x150cf402ee14edf5U, 0xfaec0b2822f81607U, 0xe7fc0be3ccd3edcfU,
  0xf6f7ee0e0f4b7029U, 0x27e7fdff5b4dfa18U, 0x3e811cce05fd1317U, 0xe10b24ecedf6f5c6U,
  0x108f4f3fcee40f8U, 0xcf60ff4f708f8f5U, 0xf27fed09080601f5U, 0x500ffedf003f707U,
  0xfe05033804e7e103U, 0xfe0209f410fb00e2U, 0x20eefbaee00e517U, 0xfee5d0f60009ee00U,
  0x7f6010201fc0e2eU, 0xfd1005f503fdf5faU, 0xfb7f150a02eafddbU, 0x1b0c00f0f90b0a04U,
  0xf9f3033b0e050eedU, 0xf0806f60ff6110eU, 0xf50af1f9f8f407f8U, 0x1f8ae0204050418U,
  0x720346fef7fb06faU, 0xf381faf0f33aebf0U, 0xfa02fa1bf4f31a09U, 0x25060c12f709050dU,
  0xf90ef7002ceefdf3U, 0xf0e8fd0cfde6ed0cU, 0xfff10400e4021ef2U, 0xf80307f8f4f80c20U,
  0x4e7d70fe00b07d9U, 0xefe6272fee150604U, 0xfbf9f32dba1f62f5U, 0xda093404f236ea07U,
  0x22f71a0ffe0a811dU, 0xfce6031df3321379U, 0x24a6d9f71c19fe31U, 0xc20542fafabaaabfU,
  0xf30ef23324eef711U, 0x12ff07cf791c7ffcU, 0xcc05edfdfc00f5a5U, 0xe304ed010e1dffc2U,
  0xfd01cb06fd18f910U, 0x944b6f7f0fcc6fdU, 0xbd40b004c0a1310U, 0x142c0f5d13f92ef1U,
  0xf7ed07ffcffcfa04U, 0x16f9ff38f6f1e2ffU, 0x8f5254616170a22U, 0x41210f618fdf708U,
  0x1702f808057fefU, 0x200ecfcffe7ea0aU, 0xdc01f415f6f8f917U, 0x11f92614e7d21bf2U,
  0x748f37f2234f0e5U, 0xcaf5e809f0fe03ffU, 0x604f8ebffc9f904U, 0x531b0c3c09413945U,
  0x45eff5f3f9fcf40cU, 0xd9430a062c0be6f4U, 0x2e4f202fd61f2e0U, 0x2f6e93ef8ef203eU,
  0xff05f5fcf8e2f306U, 0xf8f90106f1f8f3f4U, 0xf0b6fff104fdfbf9U, 0xf70505f8ff07fd00U,
  0x90e037fff020dfcU, 0xfaf9fffc05f9f409U, 0xfafb09170310f904U, 0xff13ff06e0f6f5f6U,
  0x429d572002aeed0U, 0xb304f72800ec0ff8U, 0x207207c2cb0e3cfcU, 0x18f6054d7ff0f85bU,
  0x391205edeabea1d0U, 0xce12e618dda21dc3U, 0xb9f6ebf90c4a20ffU, 0xc0fea39edd0341fU,
  0x1bd0c04fea648f3U, 0xa05ef09f106e9dfU, 0x1c04e27ffbfe0ff4U, 0xe80cfbfd2fcc09edU,
  0x2f290b071d1251f2U, 0x16fffff21200f5edU, 0x8c4d6d500601c0fU, 0x1e00f6f103f4def2U,
  0xfa0f7adff2e3f43aU, 0x596804f020fefef2U, 0x1708e61038f217fcU, 0xd9040e1834e1f8ebU,
  0xeb131f033231051cU, 0x14dd0302073a0df1U, 0xfedeeb12080cf30cU, 0x1a2b2df8f60d81e5U,
  0xc3f4810cf708f50bU, 0xfa59f90f1fee24fbU, 0xbfaf9f012e9f7f4U, 0xffed050e0202eff5U,
  0xf3f60ef93ff1f6faU, 0xf9041a0205040d11U, 0x8e8f2070c0202f8U, 0x5fefc120b0b04fdU,
  0xa607912c070306f3U, 0xf47ffc0d3bf44207U, 0xb1effc120c0af2c0U, 0xeeedf7100007f8e4U,
  0x404dd031506f2ffU, 0x1f1f50f380ff31dU, 0x10f14ef18f60008U, 0xf8060906e8161115U,
  0x30afce5f9fd08feU, 0x4f5f8fe0e00f4fdU, 0xfc050101fdfbfd00U, 0xf9020308ee0708ffU,
  0xfd070e08fbf1fbU, 0xaff02037ffe010dU, 0x101ffc104070bfdU, 0x6f9fdfc03f9eb00U,
  0xf80d0310e7f201d3U, 0x310fcf7f80afafaU, 0x12fb00fcf91b7fecU, 0xaf6f8f4170ef0efU,
  0xf12017f702d5e3b5U, 0xfb0a07f605e8eb3aU, 0x1215f0ff16f73007U, 0xf60110ec060af424U,
  0xe861f3f404f236d1U, 0xfcf71605edfcdde9U, 0x22f8bd7dd9ff1710U, 0xef720d6c908ddeaU,
  0xe051f108f0e42421U, 0xf10ffd1f020caf40U, 0xd9eef4dafae035ebU, 0xe21823d0cedb7f17U,
  0xf817453236fece30U, 0x153b0041213f12ffU, 0xff0d9cf2d4a82d1aU, 0xe0fdc18b81e242cU,
  0x2c08d200d0527177U, 0x182c067f13fd0236U, 0xea140e42ee154ba3U, 0x11300e19facef558U,
  0xec39284d1a24f988U, 0xc711ebe5bf02e405U, 0xf4eaf43d084b5be4U, 0x11fa0ae9fa3505f4U,
  0x155bfaf2cfc8ba0dU, 0xf6fd083144f4a65aU, 0xf21710f8ec2e7ffeU, 0xd8062a14e5122859U,
  0xe91090ef12e72603U, 0xe981fae4051501f7U, 0xbf9e0ecdefcb61aU, 0xf610b1caf20a0710U,
  0x10fb0c29d60d1b14U, 0xefef201df2db09f0U, 0xda35100107e2c910U, 0x4308e2f70b0bf8feU,
  0xf305f4f8303125e0U, 0xcae501e61dfdfdf2U, 0xea08c91cf42ddf0fU, 0xf8fbf400fc14fdf8U,
  0xb1e0df1003b3fa0U, 0x81f20b16000cf62fU, 0x4439e7ecfbede425U, 0x31716f410fccafdU,
  0xfe200e4509dc3b1eU, 0x1c051503fde90af3U, 0x3bb827f8f2eef003U, 0x81b45fcdd10101cU,
  0xd10e87f0e0af9eaU, 0xfef8f30cc3080e38U, 0x8fe143df1f82ff5U, 0xef3f31dcf19f1f4U,
  0x129e5132aedfcf4U, 0x9f001cf0bf708f7U, 0xfeffe0e61cfb081bU, 0x9f2f9f1f7f5f902U,
  0x14170008e7257f1cU, 0x1104230408e0f5f5U, 0xa320fb0df7fd03e4U, 0xf81ff8eff32ff01eU,
  0xe025ba08c4e8ffe2U, 0x1d81320ef04d114U, 0xf7eafad8dd05d1f8U, 0xde14ee21811ed6d8U,
  0xdc6e0002a0ce29f6U, 0xfbd0ee20e1cd9bd7U, 0x1df1ea03080c1afbU, 0xde192ffbeed8f3ddU,
  0xfffbc9d0ee0feb1fU, 0xbf802e71300edfbU, 0xf50105ede0ca813fU, 0xf018130eece7fae5U,
  0xfa0fe802c822de2bU, 0xe4030565f10320d1U, 0x61b8dfe8f3eab408U, 0x6d3912f8391985dbU,
  0x91706e7eb06f50aU, 0xdfd1013d101cbffU, 0x6706f3f5fa0dfb7fU, 0x3f20f50702040554U,
  0x7f04503f217e713U, 0xace4b0cec01f106U, 0xae70705e3140711U, 0x1913fccb271328fbU,
  0x312057f2039f9feU, 0xf7080708f5fd0403U, 0xb0301dafbf205f6U, 0x2709fa10010f1814U,
  0x4cef22fe04f90400U, 0xfa160606040deb12U, 0x3fd0ffb1a21fef8U, 0xfdf2f214f0f7f801U,
  0x1f1f0bf4d144ed0dU, 0xf410eb410af8f2ddU, 0xd8010fcf03b4a60fU, 0xf7fe352f0a4beef1U,
  0xfa8cf6fb58f246ebU, 0xe16d2d810065e81U, 0xf918d105da2fdeceU, 0x531207ed1dcec010U,
  0xf29ecab81310ee08U, 0x39e5d1fc08eaefecU, 0xc2f6f2e6b7e78a1fU, 0xf80c13db21f00300U,
  0x2491150cf3406868U, 0xf30818eb19eb30U, 0xf1c1cd14ed17890eU, 0x230601211cffcf81U,
  0x4e073bf03d0e1502U, 0xf181ecc9105efc06U, 0xfcfaf51d30032602U, 0xe0d9f406c01bf9ddU,
  0xed23220bf0d00207U, 0xfec6aab0ea23ab25U, 0xe80bd9f31605e328U, 0xfa081444fe01d5f3U,
  0xe6f6f10804ca170cU, 0x5f0600c2fa11fef0U, 0x9f7e9171c120306U, 0xc9f71bfbc4de0200U,
  0x287f050e9e0e0c12U, 0x2ba160608eed713U, 0x34c90feae5211314U, 0xef0417ff0042db06U,
  0xcfb14ed172dfdfcU, 0x2336fcf3162a1905U, 0x220ecdb1dc14e112U, 0x1d0c25131d0906e3U,
  0x131c16f1190bcfd6U, 0x2f21283f6e08142aU, 0x1e9117eb11247fe4U, 0x302006d734202533U,
  0xe6ead11a020c049eU, 0xeaf2eddae300f405U, 0xf2f6044ac24016eaU, 0xdef80a15df16e201U,
  0xf926d1efc19cddccU, 0xd1f61053e6810e10U, 0xe3f5e1eacf01cb14U, 0x272ee903152db812U,
  0xfefdf5d9ebf6f704U, 0xecfb0103560a13fdU, 0xfcfff7edfc0a0127U, 0xf509f30cdbf50800U,
  0xf7f0200018fa1410U, 0x207330cfffaf901U, 0xd09f34aecf505U, 0x2a630aff7ff4f1ffU,
  0xf405eb5a02e035f2U, 0xfaf60006ddfa02c2U, 0xd2e5e2fc13f90bfbU, 0xeff3d6fcf6fef0f0U,
  0xe619ffecf6fb1811U, 0xfcf3fafbc00102faU, 0x90006fbfcfe07fdU, 0xe7e97ff5f2fcfd16U,
  0xf50ac2ec1b100605U, 0xa2fe4c3f0b3e5f3U, 0x811ef154ff37f00U, 0xd9dfde13cd5df44bU,
  0xfb520c1705fe4c41U, 0xfff23783f50ae126U, 0xdb3cb407eaf4b551U, 0xe8092505e056c409U,
  0x41cfcd4ace7effaU, 0x6013fc243a0a0d20U, 0x500dac0f80f8124U, 0xd60ed605e2f1060cU,
  0x4ec01ff1b21ade7U, 0x18dcf3ccfdad01bdU, 0x6dd4f31419eed831U, 0xd92a0b1d35d7e5a7U,
  0x318fd1a130f150cU, 0x10fafffaf1f6db12U, 0xf322f302ff1ffff3U, 0x1fd261016ff051bU,
  0xff0efd811604db03U, 0xf205f6e50d0eefe0U, 0xdb2f02beeff8e810U, 0x3ee0a28fa0f0601U,
  0xecefd401e7e0d503U, 0x14d7021cef03ec0dU, 0xfddd061ef0de81faU, 0xf51ef8fb0cfffc06U,
  0xffbdcf14e50fd74aU, 0xfbe8f330dece22daU, 0xe61025f4f9f7b21eU, 0xe23120302edd0ccU,
  0x4e3f6e3f43fe0eeU, 0x28fded07ebf4f3ecU, 0x17ea11f3f6effc0fU, 0xfa1319dcddb674f0U,
  0x815ae2d4f4091229U, 0x616f30a23f4cf72U, 0x2bdb01fa119a230cU, 0x13ed05f703f0eedfU,
  0xf5e225ee10061cf9U, 0x2313e9ee070cf5c2U, 0xfb081a3d10f6010eU, 0xf825fde52eed040dU,
  0x706fbedfb061c06U, 0xeff3f9f2fefcf87fU, 0x19ab04f7f4fb010dU, 0x80300070a091915U,
  0xec22c9f3cdedfff6U, 0xfedf0b041525fbf1U, 0x1f9e0ddc316e819U, 0x10f4efef021bfc1aU,
  0xfabeedfdde074922U, 0xf6f8fd4ef581e138U, 0x10df1e05f210a7e8U, 0xf807f4f10006dd1bU,
  0xfd170c0bf4fd0d03U, 0x50809f2ff0ff6f7U, 0xfb0900f5eaf02111U, 0xbf10d01dd0804fcU,
  0x15d30430fc1549e3U, 0x31f7052b3d370c2eU, 0x168123f9fd0328e5U, 0xc0f0b0cf400fa01U,
  0xff04fb05fff708f5U, 0x5fe07f8f105fff7U, 0xf481f4f607fcfefcU, 0xff070beefa0dfbfcU,
  0xfdf8fdcd02faef03U, 0xfffb060117ff04fbU, 0x100f7f5fe07fd07U, 0x4fe06f5fd01ee08U,
  0x3fc00ddfb1130f1U, 0xed0704fa13000afbU, 0x4203ddefaff10efU, 0xb03fa00e6120d04U,
  0xe0f101eafb00ea0cU, 0x2080002100c26U, 0xf60ef5cb09f1ef06U, 0x6db81f50a07ea01U,
  0xc961ee47e93612e9U, 0x1802fc4fdd2db4d9U, 0xb8f922c8ea331ea1U, 0x3c9df0e5c77f1ac3U,
  0x26f2f70cf9153b66U, 0x421b117ae2be722U, 0xafcdefeed2199b59U, 0xa09f2699bca9a941U,
  0xa140ffbdf0dc916U, 0xf30702271bfdf615U, 0xd2060f81f3c9e901U, 0x18220236d4250efdU,
  0x11aeecf80af8e011U, 0xe10e01f7e1f528e5U, 0x23d9ec0f222af2ebU, 0x1b0701fb12d41208U,
  0x120c8ef103f9cdebU, 0xb592fc0505fe0a0bU, 0x3f5db93c4e9efffU, 0xf3170235de0e13faU,
  0xeefd10f9e1daf607U, 0xaff0be3efe81cccU, 0xf92bd70020f4cffdU, 0xffe70402f00181d7U,
  0x4fdfbb2fae815faU, 0x80909ffed011de8U, 0xfe0db607f4060b01U, 0x400fbebef131000U,
  0xbf71418fc0b1102U, 0x101020ae90511d8U, 0xf4f9fbd8050210f8U, 0xf30e81f4f3ffef05U,
  0x3fc5000079baU, 0xffffce890000353eU, 0xffffc9a20000bd11U, 0x2551000022feU,
  0xffffefa00000cb5eU, 0xffffbfd000002e61U, 0xaead000022cfU, 0x160a0000419cU,
  0xffffe5f7ffffda49U, 0xffffe2e0ffffe24fU, 0xffff54970000831dU, 0x1d8a0000138eU,
  0xffff8a1200008d70U, 0x23b9ffff8c4aU, 0x4db2000055daU, 0xffff691cffffef57U,
  0x4a8bffffae20U, 0x261f00010a0dU, 0x1e9cffffb270U, 0x888b00006fb9U,
  0x1f7c000013e5U, 0xa180ffffe634U, 0xffffe7ac00009bb4U, 0xd47e00004937U,
  0xffffdf5100002ef7U, 0x10fb2fffffb06U, 0xc0c000003276U, 0xffff8336fffff90fU,
  0x47db00005b72U, 0xffffff1200007c2aU, 0x3b820000fdc2U, 0x300f00010b04U,
  0xc0464446434332ebU, 0xae3785bf36401964U, 0xc1c74acb3eb5b346U, 0x3d3fbccb493fc4c9U,
  0xb94349c249bb96acU, 0x456251443a47cac3U, 0x39c4adc2b53fa0d5U, 0xcbc647c1c5399640U,
  0xb05a51615e694bd5U, 0x346005a84d5eb07fU, 0xa0b364ac4ea35b5bU, 0x5f4cb72b6961acafU,
  0x975d64ac5aa23da7U, 0x587f594b585bb9b1U, 0x5aaa81b3ac5393a2U, 0xb0a466a2b0518150U,
  0xdc28242d3b2b29efU, 0x243741dd253b4240U, 0xc9e035db26dd132dU, 0x3023df543341e1ccU,
  0xbe333ed230e518cdU, 0x29442a16242ce7dcU, 0x2fd3cddbd631d0c2U, 0xdfdc2cd8e32dc430U,
  0xa2586363604b586cU, 0x8152819d5a572dbeU, 0xaca561ad67a8815cU, 0x65619fb95d5caaf3U,
  0xa36269a2649f8194U, 0x62cf6a5a5462aabcU, 0x549f199f905c92b3U, 0xaaab539aa554165eU,
  0x817f7f7f7f7f7f7fU, 0x4d7f32817f7f81a7U, 0x81817f817f81647fU, 0x7f7f813a7f7f81d9U,
  0x817f7f817f815381U, 0x7fb97f7f7f7f8181U, 0x7f812c81817f8181U, 0x81817f81817f2b7fU,
  0xca343636433c4b43U, 0x464065c93f494fcaU, 0xbdc345c745cf1b3cU, 0x473ac97f3344d7e6U,
  0xa2504abc47dc26bfU, 0x38d031383e44ccc0U, 0x38bc17c9ca3bbbb4U, 0xbdca39d1c7411651U,
  0xd12f3732332b30cbU, 0xb933c7d5352f19e9U, 0xccce36ca39cbb22eU, 0x3333d5e13533c755U,
  0xbb2e3eb52bdfc4c3U, 0x46e430222722cde9U, 0x2bcc22ccc528cbcdU, 0xdcd92bcad9244244U,
  0xc33944423f4246a7U, 0x1f461ec7474abce1U, 0xc3c64fb444ba2a3fU, 0x4743cb25443ebe7fU,
  0xa04051ad33d620beU, 0x48d239495139b0afU, 0x4dbb44b7c837b8c0U, 0xc0bb3dbcc73b615bU,
  0xe41d24142e2829c5U, 0x1a2035e2223020eaU, 0xd6e32be121e31a24U, 0x2d24e336191fe442U,
  0xc82a3ad929fa0ed6U, 0x25dc1b28241ce3d0U, 0x1ad724ddf619e1d8U, 0xe6e91fe2ea24253eU,
  0x27cffffee8dU, 0x3145ffffff9dU, 0xffffda74fffffbd1U, 0x19054ffffff2aU,
  0xfffffc09fffff655U, 0x6460000107cU, 0xfffffbf20000c501U, 0x8af2ffffffacU,
  0xfffff48f00000a1aU, 0x9f0000a503U, 0xd140001f625U, 0x194df00021c63U,
  0x8353fffff638U, 0xe75300000936U, 0x1824e0000602cU, 0x20f00000a7bU,
  0xb06a0001f5b7U, 0xaa100023177U, 0xffffdfef0000b203U, 0xc573ffffffd7U,
  0x1892500021232U, 0x5f10000184bU, 0x417fffffa32U, 0xdc6fffff2cbU,
  0x6eb90000b888U, 0x24c9e0000144bU, 0xa635000139c3U, 0xd3d000123b5U,
  0x1f6ffffe265U, 0x888800000578U, 0xa0b0001c282U, 0x602a0000e62eU,
  0x13e5f111f8fe22dbU, 0x102f80aeb0403fdU, 0xf106f500030402f9U, 0x1a06e925ef18f3fcU,
  0x1706f8fd00ff0105U, 0x122f1c0c0bf4fbf5U, 0xf6f77ff8e9e8fd04U, 0x8151321f9f5d0deU,
  0xe8ef81d705fefd0aU, 0xef01eddb00f30dfaU, 0xeee714fa16f4ecf5U, 0x190f06ff2006ed00U,
  0xf9c41d06f51d0ff1U, 0xc8f837eef640e6fdU, 0x20ff32dcf7c5f6d8U, 0x70e170a08ec130bU,
  0xca0e81a71606f3e1U, 0xe07d00ce31dd91cU, 0xb1714061efdf70dU, 0xf50a81f509030ef3U,
  0xf4e1fc0fe81904a5U, 0xf2e3080a19f405ffU, 0xe900054d1ce73215U, 0xf9dff2f0d9d8cf18U,
  0xda13feeb16081ffaU, 0x121502f8f30e13f0U, 0xfa06e60412eef7ecU, 0xee1781edfefdf9eeU,
  0xf006061013f20b20U, 0xf9ec0dfc06e611f6U, 0x50408f6f10008ebU, 0x405fd1107de070aU,
  0x451a0781a7dd11ccU, 0xf2c5e53ff6dae101U, 0x7c74b91afa14e2eaU, 0xf006c531e722e0f6U,
  0xeee3fd3413d20e11U, 0x5e04f54270f522f0U, 0xec41224a2a690cbcU, 0xe715fd8830ffd93bU,
  0x1afcf126fcabdc1cU, 0x4e2d0bd712181123U, 0xf80717bd274af8ffU, 0xcdbff6c7337f0ffU,
  0xf8ea0b1aeb12123eU, 0xfef10e81f4fa0956U, 0xfce92d30fc4415dcU, 0xfa10fef4ef2835f3U,
  0x16f8ed0ff2f806e6U, 0xd706140004e8e6U, 0x316017d01d0d80bU, 0xfbf0fbf4070c11ddU,
  0x3021108f3ff0c15U, 0x3f701a214061981U, 0xfa06f103f82cf315U, 0xedfcfc09f20a02f7U,
  0xffdd9f92cffd71fU, 0xfd14e1e009f8181aU, 0x6add1beceeec114cU, 0xff007f1414f62905U,
  0x10528fb0a0f01d2U, 0xf5eaf40423f4fdfaU, 0xf1f500651126fc09U, 0xe1ff0df60634f50dU,
  0x90600dfb807f1f6U, 0xf61cfb0a121302U, 0xd10b04ff06f41481U, 0xc0ee9faed10fc08U,
  0xf140d31fc0d05f2U, 0xf2f9f3eff708f504U, 0x1e08fcc501e9e4f2U, 0xfc1501030865f10aU,
  0xbedfc5f316d9e0dbU, 0xb3e4c05cd012aafeU, 0xc6670ceea81fd033U, 0xcf3425e19e10f2eeU,
  0x539460f275fef298U, 0xd0f2042adf2c731bU, 0x81250817566ef247U, 0x2713e0a359008f62U,
  0x1403fdf6fafcf60cU, 0xfd0001007ff90006U, 0xfaf7eb01f403050cU, 0xf80304fdf2ec04U,
  0xf3fd09fcf8f702ecU, 0x309fd03f8f0f4feU, 0x4effc0b06f8f703U, 0xbeb0415fa0203fdU,
  0x1100ec1301fce800U, 0x4edfbeef9fe0809U, 0x6190ae801061103U, 0x609fe137f011301U,
  0x2e602fcffff0700U, 0xfefef3ff1404fd2aU, 0xf7fff800fd0604f3U, 0xfbeffbf9f6fa06fbU,
  0xcded3906fef5b908U, 0xe00022040c1301e7U, 0xefe524ff253ff405U, 0xd3812232d7be13ebU,
  0xee0bc7e197d92dbcU, 0x992aec0355f8fbfbU, 0xecf405ffe924fd1aU, 0x3eb0fe0dfeeeccbU,
  0x11f0d006f0810609U, 0xf44a080a14061c0bU, 0xf2ff00b41aeffdfdU, 0xf1eeed445624f90eU,
  0x6e8f60c12fde207U, 0xe010021b04070a3cU, 0x1000f704fb25ffedU, 0x2171a01dd3405efU,
  0xf6ecfbe710180b1eU, 0x11fdefd00808e733U, 0x1bc109a7cf5dfb38U, 0x22ce72136f5f61eU,
  0x19ed19deef381101U, 0xf1200c9ac0aa57fU, 0xddafbf2fc07f7fcU, 0xc6ea16f70313f8f0U,
  0x8ce6f4d8e4fcd301U, 0xfbdcfbea271216f9U, 0x22d2e6f15f0812ddU, 0x12e4e1f406f9f4f8U,
  0xf2e1d714c6fa097fU, 0x2cf91610fffac8ebU, 0xdd2111d8e8c8d5ebU, 0x7edfbed0d01f5d6U,
  0xa0c2ee5f11dcf0aU, 0x252dcbc5fd1b2117U, 0xf40ed8f5f31b281aU, 0x79905eefbfbfd12U,
  0x8b120cf1e80781ffU, 0xf51805e23cfa04e4U, 0xf3300409ee0bf1d9U, 0xf5ecfafeeafeef05U,
  0x104e30603ed07f1U, 0x10e9f60d0e02fcf5U, 0xf60707f61435f1fdU, 0xf3f0080033ec0aedU,
  0xfa00edf5fb16fdfeU, 0x190109810e08f6fbU, 0xaf5f9040143f408U, 0x6f9f204f8021207U,
  0x27e6a9e93845f6e0U, 0x1f20f1f106e41ccaU, 0xf10c040c45cf05deU, 0xec28f31a3e22f41fU,
  0x57f2dd0a09de050aU, 0xb0e6041d24eabc01U, 0x3bef0cf09b35108eU, 0xf2501850be053c81U,
  0x2017f6e3edf42112U, 0xfcdbd601fdcc1505U, 0xefca1818d9f7080fU, 0x87fec0405290838U,
  0xffee1dfd14fd4bf2U, 0x4b1b0c10fd0afd0cU, 0xfff014f355e643f6U, 0xf909f8e3f409050dU,
  0x3b127f351bffed09U, 0xfc031edede22f316U, 0xecf71318ebd0f945U, 0xf6d903e006022003U,
  0xf3f320e87a0814caU, 0xbdf4ef0e0f033f17U, 0xb0e0c220e7a0d05U, 0x16001e3b05fc1021U,
  0xc02a56bdcdffc84dU, 0x14f6cf24eb0b1a3dU, 0xffcdceea046ef9adU, 0xef9f03fb81d1340bU,
  0xe9223f2957a7dce9U, 0x590e6cd079d168b8U, 0xddef120f62ce35d4U, 0xb1709ee19fefd1bU,
  0xfb0800f2fbfeee0aU, 0x7f09e408ff030a01U, 0xfa040b05ff060a0dU, 0x3010cfd04fef6fdU,
  0xfd0bfefa080af409U, 0xf803010601050102U, 0xfa0300fa0501fef7U, 0x6030a040404f200U,
  0x9042d06020a0b0bU, 0xf3dbd204dae30e11U, 0xcf360215b3d0f0e5U, 0x7b0c2ef61f54c532U,
  0xfb1d81f7797033bbU, 0xc22c38f42ae31e26U, 0x1afe092440f736f5U, 0xa021c0c320b0845U,
  0x12ec07f5f654d0feU, 0x33dffc092de80323U, 0xf724053af0a3f5fbU, 0x5fd1325cde7fa09U,
  0xf1eae7120030a024U, 0xebdaf27ffbe4f1dbU, 0xbf4181ed3eef807U, 0xfef21127f4e905e2U,
  0x36fee90fe1fcbef7U, 0xf6fc09affb082504U, 0x2bd629df04003611U, 0xf4e5e514fdfb5fe8U,
  0xf507d3e60b0b14d9U, 0x230bf708e9e1c0d4U, 0x1e81f4f10902e4e4U, 0xe6cba8eaf7000a09U,
  0xf6fdf2e4006423e7U, 0x18ca0525d3c4d507U, 0xeb08ec5d1afb00ebU, 0xe9282581d4ccf1ecU,
  0x1117f6060a1c2834U, 0xfb00f438ee0701baU, 0xef19ffd5f1f600e2U, 0x72a0a190ce6fc0cU,
  0x11f30f09f932fb0dU, 0xe4d1f6f1f9e9ef1fU, 0xf125083408b40af4U, 0xcea43f2c908f9f6U,
  0x140d18e6e9142417U, 0xcffb0e7fe6fd0dedU, 0x912260c03d80b0cU, 0x22f70e040ff63004U,
  0xe581e52b08f822b7U, 0x4f009070116f1c4U, 0xee5410060d03f5fbU, 0x15c004eff209f79cU,
  0x192df905f4110726U, 0xe0e9e2fdeef40f1bU, 0x209fcf4a814fbf0U, 0x8eaf2280704f5f7U,
  0xf50b0bfe98fffcf7U, 0x2fa0204fe0102faU, 0xe404ebfefff6fd9bU, 0x30919f304fb03fdU,
  0xf80c000ff807051dU, 0xf7fff7fb07ecf7U, 0xafdeed807eaf6eeU, 0x110209f32f7f0a00U,
  0xfe080d526f00e6f8U, 0xa02f7fbfc2f07fcU, 0xe315fde0f90c0c7fU, 0x8eb74ee02060d13U,
  0xeefcfe0d07050bebU, 0xfbe503e619fa09e6U, 0x702d31bf4ee32faU, 0x12eff51be016f418U,
  0xfe070af30af201fcU, 0xf714f00b0902fafcU, 0xfb09e6d6102505ecU, 0x7feffe31afefa1aU,
  0x11fe30ffd117f0dU, 0xfa0deae605f116U, 0xd0ef60cf505e3faU, 0x11f909000103ffe0U,
  0x1803def70bfd1604U, 0xf6f7fe7ff0061406U, 0x6dcfb0a0612f9U, 0x9ef1bf0ff09bdf6U,
  0xd19121719e90ce5U, 0x6ff2b031717fbf7U, 0xf4720cf9e80ffcf2U, 0xed1f19084e030013U,
  0x7f4f9000304faebU, 0xfc00000705ffefecU, 0x824f9920314e502U, 0xfd03f4050b0100eaU,
  0x60501f903ec0df5U, 0xfbf1fb57faf9147fU, 0x6f8f102fce0fefdU, 0xf3eff0f002ffeffcU,
  0xfef503f6fe81fd07U, 0xa3e0102fb06020fU, 0x1f8071006cefc00U, 0x7f1fdf3f9000006U,
  0xedff01040e07f5feU, 0x2fb030d0d0b04f6U, 0xff07090efdf50704U, 0x4eff6fff50008fcU,
  0xed07e3fb2c04fc0dU, 0x5f7f9ffef17f00fU, 0xf5f1ecf500fdea16U, 0xf0f87ffcfafd0100U,
  0x3010504f301feeaU, 0xfa0803f6f5f1fafdU, 0x11f80a0cfff1f407U, 0xef03ee000e2406ffU,
  0xc2d714940ef5b121U, 0xec15b5181cddedd5U, 0x44459c184e1ffed4U, 0xb3ae30be9da02c6U,
  0xf9d04244e0310121U, 0xb20121dfb3fc1b1aU, 0xb5131c7ff5d6b938U, 0xd763bb8ec932b5f8U,
  0xddf026331cf2f80dU, 0xfbfc1e08d97f04fbU, 0x1a0713ebfefc1302U, 0x5ee1a020cf1fae1U,
  0xfa0ce923f2fe0518U, 0xf8fa170014fdf6f2U, 0xfdf4fbb00ceef30dU, 0x503fe35100208fbU,
  0xf9e744ced10c3ce2U, 0xf6e3fc14081a1fe1U, 0x2932faf65be721fcU, 0x6a110ef92beb07fdU,
  0xdb8f09fbf961eaf2U, 0x1d0ef7ffff7ffcf7U, 0xf805f808d0d7ffb0U, 0xea48ec162afef15eU,
  0x6ea07f17205fd14U, 0x501edfef5e8090bU, 0x3fe708fe0f02017fU, 0x8f012fdfc0102ffU,
  0xf30ff8e70c010411U, 0x11021319ec0df817U, 0xfa170261042f2101U, 0x1f6f2ffee81fce7U,
  0x40503bdc0709ebeaU, 0x7dd0706d82c39f1U, 0x282fc7f235ee1deaU, 0xefbfd00234ff2f7U,
  0xf0ea17f2002ff827U, 0x5201be90f7fffe6U, 0xfd060429cabb9f0aU, 0xdf5559d8ed051113U,
  0xb4420edf500fffcU, 0x2fd03ffed171a0eU, 0x15e0e40afcf712faU, 0x39dff4e6151e07ecU,
  0xf7e3d111ed0ffb18U, 0x1d02fff09e0e9fcU, 0x39e5f124f8f8fd09U, 0xfa81f3040a16e2f5U,
  0x9ad4d028ddcf7fdfU, 0x8ea30ccfbcb1defU, 0x320cdee2939fbdbU, 0x972dfdf5c2f7e1e4U,
  0x6ec1bbfd58a9f05eU, 0x7d11f2463354c7dfU, 0xec2fede6e566ace3U, 0x18326d3635dc3096U,
  0xfa1e1efc0404fe11U, 0x80912f0131b1d19U, 0xf20cecf3200715ddU, 0xeca510f9f3201002U,
  0xd105fff7f7fdf8f9U, 0xd0ee19f37f0539e6U, 0x9e6e80f01e81dd4U, 0xaedf108f6f81623U,
  0xf72e47d1efe511f5U, 0x81c121adb012501U, 0xff55f7fbf00a3af5U, 0x5b0f07030ce929b9U,
  0xc71f13fdba2601e1U, 0x60d70a18dd057fecU, 0xecfef433082ef816U, 0x2cf2213023fec011U,
  0x29998111ffd0ffd3U, 0xfcdd060dfffbf1c8U, 0xfb4f12072fd50111U, 0xf40cf7093bd70adfU,
  0x2a1cf0f3dd2d0153U, 0x9702ef479600e9fdU, 0x1e0de6e6f16ef5feU, 0xfee7023ce00f0a51U,
  0xd3ef0bd80dda0212U, 0xeca9de0910d59de6U, 0xe181013df42ca215U, 0xe79d2512220c2b0eU,
  0x32dffbed17ebe3c5U, 0x4139243a14f1be38U, 0x1f527c3d21bee47U, 0x200e049a1bf96d42U,
  0xbf0019f20f31be15U, 0x1a1348e303115219U, 0x1afbf8dc01db7f02U, 0x10eaef121f3c2f56U,
  0xd12842d92c49f9e3U, 0xf14522ff1f090be1U, 0x2dfe0a11ece4f828U, 0xe8304f2ed92138e6U,
  0xff3006d915223434U, 0x102a4b22eee47b2eU, 0xfaf20ada1bdb7f06U, 0x914dcdd243ae924U,
  0xf107d7fede1902deU, 0xcc0f3ae2f91622e6U, 0x6fecfbdcf8f6e828U, 0x16d13b38d1061521U,
  0x812d06c415ee05f3U, 0x20f3272506e7efecU, 0xf0fe96fa3504eddcU, 0xdffb1effe6c84aedU,
  0xdbee3a203d1e05e1U, 0xe41206f3044bf902U, 0xb1bf6e6df031b02U, 0x319d22c0de232edU,
  0x20151e1afbfc01edU, 0x571026f0e2371e02U, 0xcfe38eef603d97fU, 0x38ba2e0cf2f9e9e8U,
  0xe7f3ebc5dae95cf1U, 0xe0de6eb03230212U, 0xd6160f1e0edaf5f6U, 0xcbd3015fdef91ce7U,
  0x9e51233e50c15f4U, 0x1050234ef7ff9f2U, 0x4afefef8fffdf5c0U, 0x23f80af2f7db0111U,
  0x732fc310c0bee2aU, 0xff0035fae42308f1U, 0xeb0e14d117e1c8f6U, 0xcaf60b0c10a710eeU,
  0xe204d808f6f31311U, 0xf00dfafbf90b071cU, 0xdc4f30b11edf4edU, 0xf37feff3e11f0417U,
  0xf8f20fef1eed01e6U, 0x340214ded407e200U, 0x30b0c0862d7152dU, 0xee00e5e2fc1f0638U,
  0xffecf9f7098113f8U, 0xde49db1201ff00f6U, 0xe909fc95fe170b1fU, 0xf10bec1a6a0af409U,
  0xfaeff2061811fef8U, 0x40ff40709ff037dU, 0xfc07e8e808e301dfU, 0xff1103f6e6f8ebf8U,
  0x4fcff0002faf2fbU, 0xfafff20e040800f7U, 0x2021506010aff02U, 0xfcfc1101020d17f3U,
  0x30af7fcfc07fafbU, 0xfa07fdfb00fe0705U, 0x4f6010cfcf8f1ffU, 0x810507001301faffU,
  0x570c4fea101c131fU, 0xfae818e8fc1bdc14U, 0xf8e8f422c4ebf62dU, 0x1c1312fb0e1ff8f6U,
  0x8f52d117f13fad0U, 0xb11fecfe53141427U, 0xc260c2027503e13U, 0x7f71f4630f2f410U,
  0x506fcf1fa7f03ffU, 0xfcb1fd0a03010107U, 0x5f405fa0e460400U, 0xfb0cfd1203e2fb03U,
  0x2020002fe0c06f1U, 0x1c0501f5e6020012U, 0x8f90913ef0d04f7U, 0xfff5f60101fd0103U,
  0xfde20af40412060dU, 0xd5eee11bf200ea1bU, 0xfd02d93a1bd004ecU, 0x2e11565b4e7eeecU,
  0x40ef623f7017f09U, 0xecf5173dfee6d5abU, 0x100324dfe9e5ce05U, 0xd06270109ee08e5U,
  0x5051e3c090c2017U, 0x20b160efc6af208U, 0xf1eb12eff2f802edU, 0xf7002efe0cf9d609U,
  0xf8fcee31e90d0306U, 0xf002fdfbfbf902eeU, 0x19ff0e81fad60ffeU, 0x504ec2b0df023fcU,
  0xf6f9fd08eb03e704U, 0xc02fb090708f20eU, 0x1f4ef010dfbfd0cU, 0xeefef20709031305U,
  0x60003f0f8f90b0aU, 0xf30d0a07fcfefafeU, 0x14f301f803031f14U, 0xcff404fc7f060506U,
  0xceef1f0eeb00630U, 0xd51e22b523f8f51bU, 0xfcd00854dd81f53dU, 0xe1be5f0edeef436U,
  0x1fea1dca084604ffU, 0xeb2bf80cdf06a9d3U, 0x25eb0adcf3ecf30eU, 0xd6e014d70d0e16d5U,
  0xbc18cae015edd7edU, 0x5dafce716ef0cf8U, 0xf9ece9d457011cd6U, 0xf3f9e31903e92be6U,
  0x708c9eb812b0653U, 0x1bd8fb0cbb07dcd5U, 0x14e1dceeddc2cfe5U, 0xf3e8d31d0135c3c0U,
  0xf3fd191f01040403U, 0xff02040bfdd9f9feU, 0x81f9040600060226U, 0x607fdf6fe01fefbU,
  0xfa26f7ccf70b0222U, 0xa070cfbf7f6f2f3U, 0xfa1300f602f201f6U, 0xfc020a1109f1f704U,
  0x2804f2dd1eea26e6U, 0x1de90f0a14db2ffeU, 0x6ffaffffff131341U, 0xfa115dfafe10d9fbU,
  0xfcde12ddfe0505e3U, 0x16f7f30ff7f61104U, 0x700e27f2d11cc1cU, 0xf1fd0dd7f1e81307U,
  0xb0f7f37ca0bfb06U, 0xe2043417fb100305U, 0xe8d6dbea0e0516a3U, 0x14e3220602dffe16U,
  0xe408f31900f10432U, 0xfd0c0dec0707ebe1U, 0x50a02cdfefceb1dU, 0x2da2c002539f1U,
  0xbb0b5102fef5eef8U, 0x810f0101fd1739cdU, 0x21512c8e90a4c00U, 0x23bb21f5fbe702e0U,
  0xb5f1ecd10105922dU, 0xf4fcfef50a0be9dfU, 0xf81df7f5f410defaU, 0xdccb220acee510c0U,
  0xfc0b12f30bcd1a03U, 0xf03cf61c0f23efffU, 0xf3d9e6c70f7f02fdU, 0xf5ea05fbdffcee04U,
  0xed1efa020df408e9U, 0x21fe22dcf7030129U, 0xd110f091701ff09U, 0x417fffa05fef423U,
  0xb603ecb10940db07U, 0xa904e3f403241816U, 0xe54003a1c06f337U, 0x29ae81fdd91d14ebU,
  0xddf43ea945f1f2a6U, 0xe81213f21dfa3a19U, 0xe926e87b314e01f7U, 0x150eeea6e2add718U,
  0x124df6d20ffb0e03U, 0xe5f84940e2fde7e1U, 0xe7ee1f1d8cf8e9feU, 0xf3c7000508fdd41eU,
  0x12d3ed034b1111c9U, 0x625f60c376201ffU, 0x7fbbf2d7342b121bU, 0xdeac13e0cec3721U,
  0x1fa03fb9cfdfafcU, 0xe0c0611f80506fbU, 0xe603060ff70501beU, 0xa091705f502fd07U,
  0x5ffff0f03fb00f4U, 0xfcfffffcff010b03U, 0x2f904d0fafe1309U, 0xfdf6fcfc067ffc0dU,
  0xdfbfcdd13ed0efbU, 0x1e2ff2eef0e07fbU, 0x17e1f30822fff9eaU, 0xedfe0208f6ff10d9U,
  0xfd7f19f1170a0c0dU, 0xe904fdede6230e0cU, 0x7111171710e8ee1dU, 0x2efe31bf7fc0ae1U,
  0xaf674fdd013fbe7U, 0x2f2fce4fff21d01U, 0x1d04eaf481f5f9baU, 0xf2cf0012e0ec0e19U,
  0x5093d541cfa0d25U, 0xe1e203f10e031eecU, 0xa05ffd31711071aU, 0x50af7c411dbfeccU,
  0x3f041e23fdee0be5U, 0x2f8fde9fdf3e708U, 0xd7edfd030905de13U, 0xf0f0f70a0e1fd8f5U,
  0xfeef12f0810cefe7U, 0xf103e11013f81301U, 0x1bfc19da07092513U, 0x15e5cdb7fce836f0U,
  0x1e9ec37037ffaU, 0x110d2710fcd430e0U, 0xac9e7d95cf0fbaaU, 0xd70eaf0a1bc3d7d4U,
  0x1330f33312cff23bU, 0xbc01470c2342c5e3U, 0xe94103d9de0f96bbU, 0xfe5716521d1743a7U,
  0x3f0d4d61fafc0000U, 0x2031911f7bffb08U, 0x81fa1b02ef080313U, 0xf3030e0e110018ffU,
  0x7f4e3f6f0fd17U, 0x14f7f5f216f5f4f9U, 0xefedec0f17eaf61aU, 0x1ebf60d07f6f60fU,
  0x19fe0ffafe05effbU, 0xd60719d3111f0edfU, 0xea3f1b0506d0151fU, 0xb81080038fc0004U,
  0xd4d9f512041c3115U, 0xbaf3c71c3512210eU, 0xee0ecfea54810b8U, 0xefe71708ecee02d4U,
  0x4bd93e7f04f006e1U, 0x1f52c2602290b14U, 0x13ee29ce18f8fdc7U, 0xecad62f618e2dcf1U,
  0xfbefdc0602dbfb41U, 0x13fff5091908f2d8U, 0xecfb00dbd8eefde7U, 0xeefbd310e11524cdU,
  0xf8e5dc31eef90cc0U, 0x21ceeff90813f0U, 0xee44efe4c2113f1U, 0xd52afae7e2fecfd0U,
  0x2e2280847eaebd1U, 0xcc2ce5f1c881a2ecU, 0xfdf8000900ddf196U, 0xf7052331cf070314U,
  0x2431a51542033ce8U, 0xf509ec3afd00fef1U, 0x522ff290f10f413U, 0xf87ff309123cece6U,
  0x36e50ee64b39200eU, 0x3df103aad0002713U, 0xfd23030dd7e309f4U, 0xcb38df1d0303f60fU,
  0x15a3c6f70d1dfb26U, 0x21b550af1f11325U, 0xd8027ff1d8f12aefU, 0xefa0c0c0cfad955U,
  0xb1efb12041aedf2U, 0x1c0003ef15f113f2U, 0x4deaeae50cd02901U, 0xfdb14c1b2dec54f2U,
  0x9fcec8abd7e92fe0U, 0xf505fc320bff0cU, 0x6e1dceb7f09fea6U, 0xf448fcfdf4f60103U,
  0x1704e813c4f2025eU, 0x2dff20fff3f5c3e4U, 0xd924f306d1f603b7U, 0xfd210221e51becd1U,
  0xe41200edfa01e2e4U, 0xee04e81f20020bebU, 0x4e17f7050a000cdbU, 0x7f32bf001091df7U,
  0xe08e8fe1717f807U, 0x9f7ffff090f0500U, 0xe7ee02ff0bfcc90eU, 0xeb07ffed047fee0aU,
  0xe6124ad30df04316U, 0xeaf0f00bf4efe612U, 0x38108ed0ef8e3ecU, 0xb1012ee02daee0fU,
  0xfcdfc30cd0dc04f5U, 0x3f51a0cfd31b5f8U, 0xfdf1fd0e0c4def10U, 0x26f5efdc26f925f9U,
  0x16ff212f0300fefaU, 0xf3fe0f08fad20500U, 0x811c0cff03f9031cU, 0xfc080d030f0006fbU,
  0x203fed9ebf8fdfbU, 0x1804fbfcf8080b00U, 0xbf3f5fc06e41706U, 0xede5fa0cf5e90311U,
  0x231b1045f4121aefU, 0xf71a24121f0d3bfaU, 0x1a0edae7370d30daU, 0x1d9d264b17053609U,
  0xe5d5ef1c2ac5fafeU, 0xf6ef1f0e7f0a28c3U, 0x10f1f3dab6f4f4caU, 0xf5ff1942e9e91728U,
  0x2040ee0e0a361109U, 0xfcfcf3ec07fc3c21U, 0x2cfcc0e0df53ff9U, 0x19e2d6141df71514U,
  0xc60521074320e608U, 0xc6fbfa0d7f1decfdU, 0x16e5f5001d0705eeU, 0xf23cf7ecf2071a16U,
  0x7e9192b26fe01faU, 0xfb11fcf11aec1206U, 0x1cfc00ec15171709U, 0xf8f47501fae412fcU,
  0x120710ec0f00f6fbU, 0xf7f804f4e712f6eeU, 0xf817f615e6f681faU, 0xf40dea000929fff8U,
  0xf7fde9ff0e080bfdU, 0xfc0003f6f90ff5U, 0xfdfefafc070706eeU, 0x6077f000cf5f0U,
  0x70cf705fe08ed09U, 0xfffc01f6fa09f60dU, 0xff150df5f10b0500U, 0x604060afe1107feU,
  0x3fcef0a0bf70ff3U, 0xaefedf3f80a0901U, 0x172007fbf20bfafaU, 0x2017ff3f809250eU,
  0x30511110dfd0a03U, 0x1efd020b01f0fd01U, 0xf21afd34f71eeee7U, 0xef0b0dfce0f6df0aU,
  0x8f5e11cfb7f0307U, 0x2c504f4e4fcfcf5U, 0x3f5fb1ef8e7f2f0U, 0xf50a04f1fc11ef04U,
  0xfcea0fe807fef80eU, 0xf614111ee6fb00daU, 0x150e01f1ea12fbefU, 0x15fd090ee805f3fbU,
  0x810534dc12ee2bd8U, 0x801051d0cc919dfU, 0x3903dced5a2511d4U, 0x154406fef4dbf904U,
  0xfa3711f21f1ee2b5U, 0x89d63426f201ef07U, 0xee1f29220551e108U, 0xa37fa58e5181005U,
  0x2ee0303130092df3U, 0x255c5d320d123aedU, 0x10a210d472b61ebU, 0x1295c526b8b604c8U,
  0xfe6fb32bf5adf3f9U, 0x7f38232629cee2deU, 0xd53d010ca9f6f2eaU, 0x1c01bc0ce80ce4f8U,
  0x39ff7f60e0f20304U, 0x6ca1408d2fa1209U, 0x9d9f2f3042901d2U, 0xfbed1514fe030208U,
  0x1c0eda0e1ddb1434U, 0x4017111a2308f101U, 0xe719fbb6fd2ae502U, 0x1bd1f806011afc14U,
  0x7f3d1302201cea29U, 0xd3120f18f5d6bb33U, 0x8983ff4f7f8ce02U, 0x21e9ec1748e9ed3eU,
  0xc1e300d981800c3U, 0xa72d450af4210ae6U, 0xfb1016df471112ddU, 0x4deaee9dd8fc1722U,
  0x61db771e81130bdfU, 0xdef2162ce226d906U, 0x732142ab001e2c0U, 0xdf3cb506d8ebf622U,
  0x3b29162912e10a5bU, 0x541d062f020e2514U, 0xf0ffdd3b7416e01U, 0x15ffeab8050bffd4U,
  0x111a12dffb1a7fe4U, 0x728ccda4e01f60eU, 0xf6efef142dfff904U, 0xc30d1ff7ed120afaU,
  0x1a00c8ec17d5e8f0U, 0xebe3acde113f1003U, 0xd1d704dde9dd3df3U, 0x43cd3f548f2fcebU,
  0xf90eecf50befdf2eU, 0x3ddd192e5df4d90eU, 0xece2e60bcad6b806U, 0x35031a0c034d7ffaU,
  0x36382bf9db2f0ef6U, 0x2221201320f51bU, 0xcfffe3e0f528060eU, 0xfa129be9fce82d1aU,
  0x813806a321fced0bU, 0x1a2025f70e1b0cfaU, 0xf6f7e3cef928f9U, 0x26e1cad20d36f00dU,
  0xfd2427ebe51cf8cbU, 0xe9fb32ef070efbf9U, 0x3bd80056f0fb25f8U, 0x6290f60100cf015U,
  0xffd5e10df03331b9U, 0xd6193e01ed047fa6U, 0x113b01e3230f61feU, 0x6900fafd0e7c0ccbU,
  0xd7e2ce1710c0f4e6U, 0x2eddb6081cf75b08U, 0xdd302d29eb0b14b6U, 0x1bd61d2fd903f835U,
  0x48d97f4ae3ead3faU, 0x8e1f9fa4255ebf3U, 0x3e1eb702f5f1d6dbU, 0x9e816e1ffe014ffU,
  0xebe213772af0ec51U, 0x1aef1b070fed0915U, 0xe2281db4db4709f3U, 0xf115e1e908a5f2c1U,
  0x171002060df00f65U, 0x1d0dd915c90bfa7aU, 0x3dd04eded0403ebU, 0x81f9f40be61f6c45U,
  0xe7d742dd18e504ffU, 0x3e1a6be5cb2059e8U, 0xdbee71004e815efU, 0x113ebe0907fbf62aU,
  0x121c0ce806237fe9U, 0x1147ec2aeded09fdU, 0x14db1d1027f10e0bU, 0xc9fe0de5082cc7faU,
  0xf2241c01070105d7U, 0xe915c2ef0488fc0aU, 0x5090b0a00fdf4feU, 0xfebda0d4e0011c25U,
  0x14eb0a2f06e606ffU, 0xfbfb0e12147f0a06U, 0x34020803fcf80adbU, 0xfdfaf4e4f1f204ffU,
  0xbf01afffffdffU, 0x1b050d00e71000fbU, 0xfffd01ba1d09e609U, 0xf30a0c0b1bdeeff0U,
  0x13c93a1cc90407dfU, 0xfeef3dff6f8d90aU, 0xc5b1080f01fcd0e0U, 0xbe7f01fe3abc1604U,
  0x580fe413bf2df270U, 0xe916f7f7b0fe9d4aU, 0xcae822e42077ed45U, 0xf6a90da5313608acU,
  0xde0f24fafeedf5f2U, 0xd5100ff70e23fcU, 0x17f924ef1d3a120bU, 0x28d70003e37f03e9U,
  0xcfe0faec2e9607ebU, 0x70fd3f1f8fc04ecU, 0xe621fc115aad0508U, 0x6c6d6f1f407f4f4U,
  0xfdddd50313fd08f5U, 0xeedbd8ff3506c831U, 0x7e21009fcc0ce06U, 0xe77f072e351729f4U,
  0x14d721fb25f6063aU, 0x36d9f40988ebbd19U, 0xf7ec1400091703cdU, 0xd20bf23d07fa0cc3U,
  0xe9f031dfdefe0a01U, 0xf3fa1b070affff09U, 0x1a1ab1ea2109e9e9U, 0x2efbe3edfbeb07faU,
  0xf4eb0a2d08df057fU, 0x38f6070f10ffe2f4U, 0xd4130030ed15e3d7U, 0xf913070002dffbd8U,
  0xf8fc1a3817fb0505U, 0xf1f10ce1f1d7ff0eU, 0x81ea06f1110f01efU, 0xf4f501ecff13f004U,
  0xd05eacbf3e2fb13U, 0x2f7f1fdf2f7fcffU, 0x6f70aeaf4fdf7e9U, 0xc0cfdfef4fa0ffcU,
  0xf32581122ffb0f24U, 0x3f6110bcac613d3U, 0xefdc57040ff61541U, 0xef20008f13dc5e0U,
  0x1712aad8271dccU, 0x60bf4d1fe270a18U, 0x2dfe0a01049b110bU, 0x2151d134b3d3741U,
  0x684017a50df1d71cU, 0xe30ab02b20af9e0eU, 0x814ffa182df6d0e1U, 0x1537bd24f8f0f2d0U,
  0x6e48186117dc0fe7U, 0xf71310fada17c028U, 0x727e26ac22fbff3U, 0xf02d29f13aeda232U,
  0x4411357ffaed1ae2U, 0x2bf5031eebecf6f0U, 0xd1c701fdf3e637d5U, 0xfe0a2efa0b190bf1U,
  0xf928dee80701f931U, 0x56000cf7f809e5f7U, 0x230a18cbefdee0e5U, 0x16d1c82e1b021cfeU,
  0x87ed0f13dc1fbf0dU, 0xea1f0dff81330863U, 0x16d41bbe1100169bU, 0xd8ee1c2301f919d9U,
  0xdaa1ffd832e8081fU, 0xe957f60d2befcdc4U, 0xfdcd5817f8e9f9d9U, 0xf9de0e190e0a0b56U,
  0x5fafb2206ff0eefU, 0x8faf30cff7f00e9U, 0x4b0b08000312f8f5U, 0xafd0506faeee5fcU,
  0x8f5ff39fffe04f1U, 0x10fa08fc00eb06fbU, 0x41300aef9f4040bU, 0xef0e051a12f40703U,
  0x4fec33251217dc15U, 0x3be4fb23f1120323U, 0xeceff32111f41a07U, 0x7070bf1fd0d0ac1U,
  0xeb20bdea5e2f1cdcU, 0xcef1effd1f0dfe38U, 0xb20d81f40271d09U, 0x27faf47f1e04d215U,
  0xe85f4e00e217b81aU, 0xe601dee1efeb0a40U, 0xe31fee38a0f3b1d7U, 0xc6ff9fa0be7f7e0U,
  0xeb0d2bd73837f101U, 0x7f1910fa1e1bfd0dU, 0xf717ff0d79961002U, 0x4612df0c30dff01cU,
  0x1422201ef7f9192eU, 0xb220300e40fede2U, 0x2dc130ceb13f1ecU, 0xeb21f807e3de257fU,
  0xf10f0e11e3161013U, 0x1e022de8c90fd510U, 0xd4044dfd31d80131U, 0xfac209060dfe211eU,
  0x6f4e0150b17fcf2U, 0xfe2000f2f006f8eeU, 0x14e416f1f7040500U, 0x277ffb0efc20dad9U,
  0x12021402150c17faU, 0x2001d9f6fd1ade08U, 0xee26f80d08e6f509U, 0xf908f934ef0bf60bU,
  0x2eee0aeeecf3010bU, 0xf101ecfaf7eff921U, 0xf1b10fed1e71b04U, 0x418f7e9141014efU,
  0xb220620180be27fU, 0xcfe12f4eb09060bU, 0x50cfa09c31cf6f6U, 0xf40e0dfbf8ef13efU,
  0xf3faf8000205fff7U, 0xfbf3f510fe06fd08U, 0xf01f15f90cbff7f8U, 0xf10607fcc9d9f8d9U,
  0x3f8f1fd0c1305eaU, 0xf707087f04f80b06U, 0xc000500ffcc0407U, 0x12eef91300f30704U,
  0xed341bf50be1e627U, 0xf5b7ef07fa040103U, 0x15ffd01034f808f0U, 0x20b7431c2510edfcU,
  0xf0dfe3fad60cfaeaU, 0x810503214117e8fcU, 0x61de7511a4904f3U, 0xfefa0c00fb1601dbU,
  0xfc14e6050c03041bU, 0xe1f70cf00ad61522U, 0xddc7160ad9fbf4f3U, 0xf57ffd070206061cU,
  0xec0118fafaf58cd3U, 0x4d072c02e8ecf3eeU, 0xffcc0bed4beb0837U, 0xfff2ffdc08070208U,
  0x7f7fc00e9000303U, 0x8030c1000041700U, 0x5fb10fcfbff11d6U, 0xf60247f601fe0200U,
  0xe030816f3eefefaU, 0x2f804f7f3f9ff08U, 0x5f901f4f8000004U, 0x3f9ff0bfb7f1000U,
  0x32df3f725c022c12U, 0xde0ef2f0f156f8ebU, 0xe1ee06e8e8cd1947U, 0xfad376f313e7fc23U,
  0xf203ec20f829b906U, 0xf5fbf50516e1eaf2U, 0x23183681af3b1f19U, 0xd4cbee44c1c93ab8U,
  0x2837320ddcf0e9efU, 0x2fd1451fe0001eaU, 0xd0d9bd67ff9f6efU, 0xcd001fdffa3bf1f9U,
  0x181dd51c0df2eefdU, 0x11a10e3df3bf9c9U, 0x254afabfc6e4f9b7U, 0xd607f9fd25e115f0U,
  0xfb16c62a04fa340fU, 0xf6e70def12360206U, 0x2bee50713d7e71aU, 0xf8f33420220f1303U,
  0xfbfcac1681ea09eaU, 0xf608fc03330beff3U, 0x1ec8e5c41bc70edeU, 0xf1b2e4efd7180803U,
  0xecfcf9020307ebf4U, 0xf2ed06130505e7eaU, 0xfdf0f5faeafcfffaU, 0x121503f0000fef08U,
  0xf8060e01060e0e23U, 0xf5f700bff9fafdU, 0xff8112060503f8U, 0x70e0e10eb010c10U,
  0x405fbedc0ff0cf6U, 0x8fd0b0dfff8f3feU, 0xef08f5f60cfdf6c4U, 0x3061b0204fb00faU,
  0x60f02f10201fe07U, 0xfe08ff0f0208f5f4U, 0xfc08f405f815f4eeU, 0x305f8f70b7f0c01U,
  0x40ac0ee5f8039817U, 0xe8018108fefce91aU, 0xfdedfef770faba01U, 0x4d27020408cf5fc7U,
  0xd828dcfa17e9f9ffU, 0xd0054ce9eae502feU, 0x9507030fd6cfdd24U, 0xf6fbf0ebb30ce4ffU,
  0x5c7affffc83dU, 0xa13900016731U, 0xffff7d92ffffc203U, 0xffff4c9b000010caU,
  0xfffffeea00007529U, 0xffffce5f00003ed1U, 0xfffffd5c0001346cU, 0x9a42000055b3U,
  0xfffff62e0000e2d8U, 0x1e09ffffaed1U, 0xe0b8ffffca00U, 0xffffd96bffffdf15U,
  0xf07e00002d31U, 0x490300002a27U, 0x9fbd0000262bU, 0xffffdba00000035cU,
  0x6d5ffff58d8U, 0x5a2100002af9U, 0x1ba10000082cU, 0xffffadbdfffff7d3U,
  0x5790ffffca8aU, 0x9cc1ffffcd46U, 0x1113ffff6923U, 0x1d500008e28U,
  0x6e710000b48aU, 0xfffff851ffffb91cU, 0x40ac0000878fU, 0xffff9dfc00001aadU,
  0x5031ffffeb36U, 0xfffffb4800004e6dU, 0x12ad500013a03U, 0xffffcea4000070c9U,
  0x1137a00003eccU, 0x18129fffff6d5U, 0x8a8500004820U, 0x8e8dffffbce8U,
  0xffff6fec0000d248U, 0x1006b00005081U, 0xd868000013ecU, 0xbe48ffff784bU,
  0x147f00007912U, 0x9c310000a4dfU, 0xe29000034a6U, 0xffffd915ffffdd13U,
  0x32edffff9881U, 0x3b0effffbc95U, 0x39c500002daaU, 0x59c5ffffd9b2U,
  0xc8e80000532aU, 0xffff9b92fffffcfcU, 0x935100000a71U, 0xea8d00000c71U,
  0x14d2000070fdU, 0xdbb0ffffdd47U, 0xffffc0960000b231U, 0x1603d00000c7fU,
  0xffff549bfffff21bU, 0x4b9bfffff7ecU, 0xffffea06ffffe256U, 0x2c1400005fa0U,
  0x18ac00012d87U, 0xa6f20000eb7cU, 0x85340001a4a4U, 0x3203000035e9U,
  0xfb083c07e31df0f4U, 0xf614e6f9f10308fdU, 0xb03f22003f1070eU, 0xf3e10f003208f8f7U,
  0xef091afc1818170dU, 0xe90a06f416eb3204U, 0x1d027f18f8fffa03U, 0x1d1616dc0cf50011U,
  0xf508e4fa200debdcU, 0xdb0303000a43f4U, 0xfbfa0802fdfeff1bU, 0xf41308f9fef6ead1U,
  0xdfa16ff13fb060aU, 0xf2fe001607e00f04U, 0xe8fff7042d00f411U, 0x15f7f507020917feU,
  0xea137fe9e47ff9d4U, 0xeab6d830e91d00f0U, 0xf9f4f100faed19e6U, 0x781f9f77fe8f6f7U,
  0xf91b7fe8f1190a2aU, 0x810c0e1b7fbc4ce2U, 0x7fd8ebf0f40df5e9U, 0x7f7f7fc023f60624U,
  0xdc138e0ae41c11f3U, 0xe7f50bcbecf47feaU, 0xee50507f3f502f7U, 0xf0ff050afcedc27fU,
  0x6d434247f010407U, 0xd11f1f8da837f15U, 0x811de61079d5cfeeU, 0x1dfed6edf5f47ff7U,
  0xfb172806191deffcU, 0xf5edfbfe0103fc03U, 0x150117e0fdf100f6U, 0xfae6fc01240200f6U,
  0x1b021afaf015040cU, 0xdb020af010eb2703U, 0x270293f3f6f9f902U, 0x1d1819160713f310U,
  0xf608e1fdfafdfe2dU, 0xf61f03010f0244f5U, 0xfc08030d0202efU, 0xf9edfe01fdf2f834U,
  0xecf4100514090607U, 0xf9e901ef01e00704U, 0xeb01f20724011afcU, 0x70cfa0605051a06U,
  0x232f7f4c5ea0009U, 0xed0dc1fcd915f9ddU, 0x21d817f7fd9137fU, 0xdc007f08d77feddaU,
  0x891aede67f161e1fU, 0xa527121607c74de8U, 0xf9d9197ff3daf1edU, 0xf9fc0a273490c938U,
  0xed1a01027f22a892U, 0xec8114d4e77f4bf1U, 0x7ee806fc8efafa7fU, 0xf17f158700ed2005U,
  0x81e52314ffb4070cU, 0xf015eb7fe3f9ea18U, 0xf426eefddbe6e77fU, 0x24810bfbf87ffafbU,
  0x7f7f9e7f7f9e7f7fU, 0x7f7fb57f817f7f7fU, 0x8181fbef8f817fd2U, 0x7f16897fa39a817fU,
  0xf57fc07ff17f7f7fU, 0xe07f7f7fee817f81U, 0xda81a2ad7f7f8181U, 0xcbe1ea7f7ff17f7fU,
  0x7f7ff57f847f7ff9U, 0x81057fb3a0d72e7fU, 0x817f7f8ef18181f9U, 0x81ec7f7f7f7fa044U,
  0xfc47f7fee81817fU, 0x816a7ff8b900977fU, 0x1a7f7f7f817f81b0U, 0x7f097f7f8183e08fU,
  0xee14d7f0fef6f603U, 0xed1cfd03e410f107U, 0xc197692f2e711f1U, 0xe2fcf80a04e1f8dfU,
  0x7f12eae992271619U, 0x9e1a161b09f23aeeU, 0x6d316dff196f8f9U, 0xf8f80607227fe01eU,
  0xf110fd0afd1adb7fU, 0xed760adc7fa945f3U, 0xbe509fc7f03f08bU, 0xfc901cf102ebd239U,
  0x6be81517fecb1004U, 0xf981e285e4f7eb19U, 0x19ed02e1ef10d9U, 0xf7206ea00fbfd7fU,
  0xfc2bee02e4faf0f4U, 0xf2fa38fcff0501f4U, 0x6fdf61e0ff6f911U, 0xfd201408e114f7f0U,
  0xee04faf81715ffffU, 0xf8060ef4e1ef1efeU, 0xe7098e13effafcfbU, 0xf4efe90b0ceefc18U,
  0xf0021aff14fef1d9U, 0xfdf30121021333f6U, 0xf5f9ff02f8fa041bU, 0xfd1807f9fdf24fdaU,
  0x41613fcebfa0a05U, 0x1e04fc161020fefeU, 0x1df7f808fb002b17U, 0x8ecfe0b0a0feeffU,
  0x610e3e0eae0f4d3U, 0xded87f14d706fbe3U, 0xecee06fdf7e901e9U, 0x373f001eb1c01fcU,
  0xf726bed7fb130f1fU, 0x9f01191e93ca2feaU, 0x8ed41af6e31a02ffU, 0xb49387d516fafe25U,
  0xe5fe7f0805270df9U, 0xf3ff0a7ff5f24cebU, 0xfadb027ff4f8fafeU, 0xfcf614fff9ea7fe1U,
  0xf27f121992e9160eU, 0x790fe6f97f7ffb1dU, 0x7d08f1f80cee76eeU, 0x18fcece90fe69ff5U,
  0xf9fce40019faedf9U, 0xef191a020103f7f9U, 0x10fe1fe6fae801f9U, 0xf21df701f0f0fefaU,
  0x1605f6f6ee0e2301U, 0xe0fe0bf6e6fc1d03U, 0xe90b63fdeeeffaffU, 0xeff1edfc0e16ff19U,
  0xf20824fdfb05ff2aU, 0xff20ff1e10fd2cf5U, 0xf7f5030112fdffe7U, 0xfef10908fbf10cb7U,
  0xc1b0e00eb050c08U, 0x1cebfef0132001feU, 0x2504f30af7fc45f7U, 0x815fb070c04e905U,
  0x2281fffff795U, 0x375500001f8aU, 0xfffffea7000006deU, 0xf6fffffdfe0U,
  0xcb900003ea2U, 0x9a72fffff459U, 0xfffff926ffffc92fU, 0x1a61ffffdb1fU,
  0xffffd0d1fffff891U, 0xffffff960000eceaU, 0xfffffb3500000161U, 0x843d00003d24U,
  0x7779fffffa07U, 0xfffffdb600004328U, 0x65000018f0U, 0xffffeeceffffff11U,
  0xffffdf0effffd612U, 0xfffffe24ffffe25dU, 0x43300003bb5U, 0x174ffffc2fcU,
  0xb570000791aU, 0x1d000009bf2U, 0xffff815affffd2fbU, 0x125f5ffffd7fcU,
  0xa3dc00004540U, 0x129effffff07U, 0x4b7c00002579U, 0x10bc00005de2U,
  0xfffff180ffffa8d5U, 0xffffaca7fffffdc6U, 0x6d5ffffddfdU, 0xfffffb45000001ecU,
  0x17000002031U, 0x1b15ffffb4e8U, 0x45affffe604U, 0x24f2fffff85fU,
  0xfffff61400001f9eU, 0x169fffffcc8U, 0xffffc87d000002baU, 0x7efcfffffd27U,
  0x38a6fffffe73U, 0xffffffbc00007a2aU, 0xfffff32d00000d81U, 0x4da5fffffff7U,
  0xfffffe9b00004c00U, 0xfffff57500001d2fU, 0xffffc434000003bdU, 0xa410fffffdcdU,
  0x3fb2ffffe0beU, 0xfc0000603aU, 0xffffed32ffffd76dU, 0xfffffcd5000005dcU,
  0x585ffffb8e9U, 0x6450000026aU, 0x3779fffffdfbU, 0xfffff98800000302U,
  0xffffe3d0000006f8U, 0x57f00001eddU, 0x165dffffd2d1U, 0xfffff59cffffc65fU,
  0x2d300000219U, 0x417a00000047U, 0xffffe66dffffe82eU, 0xffffec6b000002beU,
  0x263ae938eaf21fb3U, 0xf91108e820cce747U, 0xe7e3cd0bdef6fbf3U, 0x24dc0a22e3d844f5U,
  0x2f8d941eb502156U, 0x397f6348f1dd8bffU, 0xfe4919fef0c6fc59U, 0xf2fde1e74fefd83bU,
  0xdff3d707f129df1aU, 0x27c7eed7e70914e0U, 0xf3b2d4f4eb13dbU, 0xc8d63bf6150afa13U,
  0xcae9ef19041a1736U, 0x2ecd2d0d380fff37U, 0xd6002760103a13daU, 0x54fc0ad5eecdfd41U,
  0x4ee0bfb0b060307U, 0xbf9fefef5fffdf9U, 0xf70b06f80a0aff0aU, 0x70802f803fdfdf9U,
  0x8ecfef4050cfa04U, 0x803fefc01fefc04U, 0xfd08f51416fb0cffU, 0xfcfbfafffc1709f4U,
  0xf811030502030d0dU, 0x3fefc05f617fdf1U, 0xfbfeeffae4f71100U, 0xf7ec0c1401090700U,
  0xfe000df6fe01e90fU, 0x5f7fff3eb0505fbU, 0xf705ff1a09070581U, 0xfbe9fafc0bf8f9faU,
  0xa2df05210d26cd14U, 0x7f123100cd0afe2cU, 0x50bad60912e6ecf5U, 0x1d1101dd2705c1fcU,
  0xf7ca1ef703cbe20cU, 0xffa1ae05ecccf4f5U, 0x1e09021b16250287U, 0xe1cfc19dc02f9d0U,
  0xede908be2ad129f1U, 0xdbe1e104d6fddbd9U, 0xf31defd610af0beaU, 0xfee001aff0317feU,
  0xae0cfdd209d3f0d1U, 0xf303fff9e106059aU, 0xbf01c02e3dd32faU, 0xdcfcffd41212ff0aU,
  0xc20b10f0609e8eeU, 0xf0bc89f7f517fcf7U, 0xd08e01a120a32eeU, 0x16f60321a61fffeeU,
  0xcedf6f700331703U, 0xbf51527a3fcf205U, 0xcf021905f843110fU, 0xd616e9c4f90b0419U,
  0x32fc0e20f40129f0U, 0x90b02cb020bfaf2U, 0xf80ee7cf2216f111U, 0xf511fe211a20810aU,
  0x70beef407bb01e6U, 0xac13ec1ff8069d28U, 0xcd2b0c17d0d9e1ffU, 0x18fcdff40b21f527U,
  0x1110916e801f0fbU, 0x1506faf3f5f608f6U, 0x1c090b1aee27fbU, 0xfc03f300fafd120bU,
  0x1ff70f020cfcf818U, 0x1415fbf20eefeef7U, 0x110050ff9f113f2U, 0xe8fa2614ee16f1U,
  0xc02f0ea0c17183dU, 0x7e4e004ef811808U, 0xd0e0ff54ae711e5U, 0xfee7142efbf63001U,
  0x1afe07eef4fc0305U, 0xf3e216f6fb071aeaU, 0xf9e02009fc06f921U, 0xf6050009ff03f9eeU,
  0x1804c50913232e22U, 0x75f014e60ccb05U, 0xe533f90d0bfb5902U, 0x3f122a20544efe9bU,
  0xf50ceaf9ebc51611U, 0xf41b0601ff0ef4eaU, 0x2212e3a4e3fc07fcU, 0x13f8fbdc02033531U,
  0x7fb0e471600d50eU, 0x425350381e7fdfcU, 0xc5dd1def06f320c3U, 0x4fe27fce7f0e1f0U,
  0x17d40a1cea1d2e10U, 0xe0e818f42002211dU, 0xd8ef0314e6d80dfaU, 0x6f0f1e82919ea45U,
  0xef5d324ece83329U, 0x1ceb06c405f1341fU, 0x119b115db12e30aU, 0xe02e5dc0f0bfa11U,
  0x8312dbf40ef8eb14U, 0x1712fcdd03e1f107U, 0xf720de09fef9f101U, 0xf9fc06e338810de7U,
  0x1f9eafbbb00db18U, 0x29ba10fdbf25fe26U, 0xfafe03e03112ffebU, 0xf4e9edbb2323bff8U,
  0xf3f41618fe2cd8f9U, 0x6090ff5f9182305U, 0xe6f0292b1cf30619U, 0x15b8101de2def6d2U,
  0xbf420880f1d053cU, 0xdaf9fa34d10a44aeU, 0xcfe9efc336dbecd5U, 0x25c6fecd240c3310U,
  0xd81c10bcc1c9c255U, 0x36feb7f2c838d218U, 0x108d31eebf203d9U, 0xeb021407f9e214bfU,
  0xbdbcfc1c0cac07fdU, 0x4e62114f0e10ffaU, 0x1bfe31e3ca812fe6U, 0x64bf2ad3f62fe3c1U,
  0xf724070c03cad9d0U, 0xe9c8e4bcdd03f0d5U, 0x2cf7c2d4e2f51306U, 0x44e8c87531da211aU,
  0xf6f7be03f20b000cU, 0xec1d21ffff0af1feU, 0x31df50cf8fc0e15U, 0xd704db0854e50205U,
  0x6f300fefff8f814U, 0xa09eef100e9f900U, 0xfa0ed6940adafa0bU, 0xeff8df0a0cfc03U,
  0xfd07fb071a01dafeU, 0xb17eedf81081005U, 0xdf18f7c929fc08ebU, 0x13040816fb01f4fcU,
  0xffdf40a0c1c12f7U, 0x310f8e9ff020af6U, 0x14fd11f909f1021bU, 0xfc020ff80bfff337U,
  0xcfb321dc20f71f04U, 0x1f3f9ce916efed21U, 0x23dce2fd1fc93bb0U, 0x81f2c3f3997b0702U,
  0x1320822fc1a381fU, 0x92e13c69bddddfcU, 0x32258c3c31f207e7U, 0xcebd3c721d6ef17U,
  0xb355fedbacee2406U, 0x10f9fae9360d3f3fU, 0x23dff8cde2d1b6dbU, 0xecffd0e0f93b1aebU,
  0xef4e1d910b1de604U, 0xdd011325f1034b8cU, 0xfebe510511f811f3U, 0xeddbd4fac48b0809U,
  0x13f807f60528edf4U, 0x515170bfceaef02U, 0xe50c1600ecf8050aU, 0xd190ff5030a0bf6U,
  0x80ff30f08f30908U, 0x510eb040d01f9fcU, 0x8102fa08ff260313U, 0xeee11bfd02f807f2U,
  0x1c04f7fc04fa06f6U, 0x609db280ce804fbU, 0xf9d20b1400ecffdfU, 0xf8170c15231b16fcU,
  0xf90e020cbaeff206U, 0xfd1305df10f00cfcU, 0x310c12ef0cef6de5U, 0xeefceefef30907dfU,
  0x106fceb011206f4U, 0xfd1702ef00fa040aU, 0x91c0603f105fe02U, 0xb1717040a04fbfdU,
  0xb03dcf80efffa11U, 0xfb010900080803fcU, 0x14090efec1f700ffU, 0xe2a06121332f100U,
  0xf2fb0d090a0cf00aU, 0x604f914ec13f8f6U, 0x4f2faf803030007U, 0xe602f9faf9f703f4U,
  0xd7ffd10f001fdfeU, 0x100801faf8030afaU, 0x7fcfef002f00323U, 0xee1af204f3070600U,
  0xdadd06def2e7fd57U, 0xd6f4f85215efd3d8U, 0x34fac84122e91e27U, 0xc8007829f955e69aU,
  0x3226b8b24716feebU, 0xa9b4290b02ff5ed3U, 0x1eba6074f26f58fU, 0x13ed29f1e717fb37U,
  0xf621e6e7200910f6U, 0x182efadd24e345eeU, 0xc7074fd021fdb97fU, 0x124d3455ce01afcU,
  0xcadd2915f9f6f105U, 0x4d49ce3cd8fbf805U, 0x223ea011dd8dd2fU, 0x2172125beb62df00U,
  0xf208fbfd1781ff04U, 0x14f7f6f3f615d9e9U, 0x2003ec2213fa1e2cU, 0xf2b8eafc2be40602U,
  0x71afa2f0208f4edU, 0xfd13fed00717f3e1U, 0x690ac4010722e01aU, 0xfc179ecf19f43ff6U,
  0xf2f61508fee61bfeU, 0xf613dfdcf71419fbU, 0xeff334e00a002ed4U, 0xec1de254e50cU,
  0xe7f5dcf035f92400U, 0x1a1ef6e0c3bb34f9U, 0xab20e20ee2e3eceaU, 0xdafa04e30226f72aU,
  0xf8f50bdc0504f812U, 0x3f7020afc04ee03U, 0x70fdbcf0a0002f3U, 0x20cef0305feef08U,
  0x8103ff0cb006f2f9U, 0xfef2f7ff04f1fb12U, 0xef4030a02e915f6U, 0xb0a06f5f99ff503U,
  0xc03010004fce106U, 0x6ce1503f3b90fe6U, 0xf71b12eda1f8f9b4U, 0xeb8f9f128eb01feU,
  0xea070b0504ecf9fbU, 0xf9e6dcb9010907fdU, 0x807010a0beb00f7U, 0xf8a2fffae8fb0106U,
  0xcd030609f412e60dU, 0x50c00e7f4fa107fU, 0x170702f1fd0206f7U, 0x5fdaef00dfaedf9U,
  0xd8fb0afce706010aU, 0xf81308fc03e90e0fU, 0x20ff0fc05eef204U, 0x20eee0014fe01f3U,
  0xaf5f9e11105ec27U, 0x140af40a07fc2402U, 0xf4120ef70df9bcf7U, 0xf802e3061b0ef4f4U,
  0x1210efff03f519fbU, 0xfffe0ef50e0b0602U, 0x600f60dfd0c02f8U, 0x31fffeee2f8dcf8U,
  0xf214ee14ff10e41eU, 0xeefb02f914f0f61bU, 0x636dbf105bd1dfdU, 0x181c1804fa1210f2U,
  0x2edcf3fe9070315U, 0xff070102be16ee0dU, 0x12f9a1f7fc0bcffdU, 0xbaf681e2f4e10dfdU,
  0xd14e1051001efffU, 0xf4f9ff0c0d033322U, 0xf2b1e70d2bd71218U, 0x1d8f60820f0f51bU,
  0xc91102190d0b211aU, 0x2823e8ffe914ffU, 0x2237efeae20305deU, 0xf60ff40510fffa1dU,
  0xefe6e3161727ead6U, 0x7ff5f40afff20f1dU, 0x49e7020fd5d70cecU, 0xea0bfff4e5efedf2U,
  0xff41050dedf9d209U, 0x12e1e615b89cfcfdU, 0x1fda02f925eeb617U, 0xf1f3e1e3f3f0e8e8U,
  0xf21901f60cf4fffdU, 0x690828e4e9fa32a8U, 0xe90206fc15e70025U, 0x13f7dd10d40ff106U,
  0xd1ffd311ebf5e9f4U, 0x190b23ed0800d2f5U, 0xfffbf7f30adc1ceeU, 0x2bfffd36c6bef9f4U,
  0x81cd117815250268U, 0x3de856eefe1213c8U, 0x1dfe0630eb2cfc14U, 0xe10df41b25fcb5b0U,
  0x205a6e820eabce2U, 0x12c2f10cf204ee35U, 0xcdaf90240e434f4U, 0x5eede4f8f7fd33d2U,
  0x3afae8f4020fd509U, 0x3505320aefebde14U, 0x321b5d38ec29fa1dU, 0x1c42e407530931edU,
  0x382dfec6f701e534U, 0x15fc062d01ee42e8U, 0xebfc3b01dbea05f8U, 0x2eebdff8199faef9U,
  0xf4d50dbcfdeb02fdU, 0xec01f5f8e202f814U, 0xea2afdf0dc2504f4U, 0xe92308fff3f6e91eU,
  0x11beeee12d1da27U, 0xe101f7e8163355e7U, 0x1fcce0c0df40fc8U, 0x6d82ae9fe02f7e4U,
  0x15fbedf408e6daf1U, 0x19e050edf97f26U, 0x92302def7bee0ffU, 0xed04fc1013d5def5U,
  0xe42119f8ed0120f2U, 0x1a14ee0306eb3106U, 0xdf9001b110207f6U, 0xff050841d315fcefU,
  0xe1e5cd1112cb0026U, 0x3ff3dfd40a03dc3fU, 0xf7f6e7e9814eedd1U, 0xed16b624e3f4cff6U,
  0xf130ef02d3f4dc17U, 0x233912edf0d0f8e7U, 0xa1ad80203c53228U, 0xfa061bf03bb5de0eU,
  0x2117efccf40bedf6U, 0x3fdfb15dd040de6U, 0xf60de3cbe5a3f0dcU, 0xffdf0c1dd9d805f2U,
  0xc90dcb1c1c3e1df2U, 0x28081bef05ea0bfeU, 0x12fff009212b20ecU, 0x5dbfdfba4ca15a1U,
  0x39ddca6614aaf3ccU, 0x11f212bfdda7f40dU, 0xc207fc2b3712ce26U, 0x2e06d5e1f3f84d1dU,
  0xce19baf9f9ffe12dU, 0x7ff31bfcea55cf10U, 0xdb1d704ec9f8280cU, 0xc2bac60600a91edbU,
  0x1905f5112fe4e1d9U, 0xd1fc00ecc2cfc93dU, 0xf2ee4d1ec95b25a9U, 0xe40053e952281d08U,
  0x5a2047be0bc6fb96U, 0xf9021fa41fedaeecU, 0x8e03b02e32be7f6U, 0x35aef60ee6ddf106U,
  0xeb890f01e1e90027U, 0xfafcf0ee5a2ae5fdU, 0xadbdf3d00a7fc730U, 0x151a29882c07e8e2U,
  0xf413ea04faeec7e8U, 0xc1bee32fa3fece3U, 0xceb110fe903931aU, 0xf0f40bdd16e8cd24U,
  0x12eb0eded95b101fU, 0xfbfcfeddfc3d9f13U, 0x19f81b081dd2e5e5U, 0xce05ea030ee4d902U,
  0xf30031540fe3da08U, 0x36c416ead80f4855U, 0xebdeee1437140601U, 0xf4e415f70de305ffU,
  0x10f2da4c0700e200U, 0xd0ee102204e014f8U, 0x2cdfd02d54bf9e8U, 0xeef70c51db034c0cU,
  0xfbd927fdedf2f9d8U, 0x12fbe01bd2dec726U, 0xee10e5ea0fe0ee27U, 0xed1806f325f0fbe3U,
  0x58d50e0cde04f2fcU, 0x12dce1ef0b10d8faU, 0x6fb81d813d4ec15U, 0xee16fef21128fbffU,
  0x6f8231304047835U, 0x1ec90e110421f6d1U, 0xeef047e9f30514c9U, 0x28f5f3bb25d1d8d2U,
  0xd040b04fa30b91bU, 0xcbfd1cfb05dfbfe2U, 0x143316f2051518f8U, 0xfc01f2250bf9f12aU,
  0xdbeae3c608e4010bU, 0x1e23f323f91de529U, 0x1c1cd70b17f9170dU, 0x1f4090b2bef00f5U,
  0x2c2dee42270fe5eeU, 0xe3f016ed0902e14bU, 0x1709d0d00b1a03e0U, 0x20211a2125ea211dU,
  0xf8f24c1f0af67f5aU, 0x152efc1004f810f3U, 0x9ff2adb06090fe3U, 0x21fc310e22c7e80eU,
  0xe0223cf2fcfaf801U, 0x21329e3b9ebe906U, 0x120cef08ec8cf8dbU, 0xae9f9653bf5e97fU,
  0xce5eddcf4240b10U, 0xfa02cbdbce1bdadeU, 0xe90eb10d11f23922U, 0xfdeaf913fbe51615U,
  0xc5ee0bf019b8e2ffU, 0x5ff01e9f7eb3e4bU, 0xf31aefd70efe090cU, 0xf3f11610d2ff38ffU,
  0xdb0a0af1e807011dU, 0x100c0203da03cbecU, 0xecf5241adda90f00U, 0xfc0ce1eadaedf2feU,
  0x26d21251220f1e6aU, 0xb510ff132a483424U, 0x1301ef081338ed06U, 0x10dd742211e29d9U,
  0x1b36d2122dea07U, 0x5c4726c1c1cbadceU, 0xf2f3eb02dad72c60U, 0x1d0529140d1f0c2fU,
  0x1ce01f4acd2f3417U, 0x9f0f40fc657e355U, 0x3d1d3c5e22d62cf5U, 0xbd043fe81d44de06U,
  0x170b263b16305140U, 0xf2ec19fd17fd2509U, 0xcfe8b3c06c810fe2U, 0xe704832a2bc10e1fU,
  0xf80d040d04f7150bU, 0xf7f902f3ff000c08U, 0x9100810fa0705f5U, 0xfd19f1f403fbfdf2U,
  0xe9ff0afa06fb03ffU, 0xfa0802f607f7f9fbU, 0x309e9100ade0708U, 0xa050e0ff916fa04U,
  0xee202f471ffea7fU, 0xf9fd06f7ffedf903U, 0x10e904f7e8ebfb21U, 0xf60ff9fb0d1608e9U,
  0x4f9070f03f5f7fdU, 0xfe05fefd0805030bU, 0x3faf703fb0d0e0aU, 0xfd0c0103fdf404ecU,
  0xe5fffe590ef70d0bU, 0xe6eb09df000b15U, 0xcc0c03f0f7e11212U, 0xfc1603250307f2e9U,
  0xbfe1b2500edfce5U, 0xf605f1baf8f00509U, 0x90728fee8f2d9f9U, 0xfe1e0ef9fa1016eeU,
  0xbfc14a807f5e407U, 0xe700d1fffc0ceaafU, 0xfeef13d407f7f903U, 0xe511dc01037fe20fU,
  0x211418e30bfcf3eeU, 0xfd0529fe1bfed6f3U, 0x1a1805da1dc2f4feU, 0xc6f9ebfbacfd0600U,
  0x17b010a250f0cf6U, 0x23b924f1170acacdU, 0x17f420fdeee0c00dU, 0xd5fc14d51929f8f1U,
  0xff00fad1f11f8bfaU, 0xecfedaf60c1a0a0aU, 0xf9eb5b1300f4ec0eU, 0xe230e7f11f40fdfU,
  0xf2d100f909a2ed08U, 0xe2f61cf3fb08f41cU, 0xf0120a10e3001702U, 0xe71404f2c8072113U,
  0x23ffe2f2ff48090bU, 0x5fe041b130630dbU, 0x2d4be70019120ff9U, 0xd2130a11230e1aeeU,
  0xf3360b15fef5f1e5U, 0x1ad32fdffe10fe8U, 0x12f9fef413fae4dfU, 0xd9faf90f2fdf0e32U,
  0x608eb2176cb13U, 0xdcfb1efc061a0cfaU, 0x71bfa21f6e0f1fbU, 0x13ff0633fcfcdfbcU,
  0x9130800e3b80112U, 0xe1fb0b041ef6141bU, 0xce0fe4ec04f1f5eaU, 0x10f9ec0be12d8101U,
  0x8f614eef71c0de0U, 0xf6eb170dfc1715f8U, 0xec270febc214fb12U, 0x110a0f19e6f291U,
  0x7f92724e80920daU, 0x27ebf19915d2380cU, 0x2c1cfcc5c6e917f1U, 0xd310f2f229115212U,
  0xf324ec23f6f90318U, 0xddec2feadbc5e80aU, 0xf50fef05bfc4da1fU, 0xdb04e6ee19eac61aU,
  0xe529f1bbdd13041bU, 0xce0aecb41c0e220fU, 0xfbd987f6fee703caU, 0x2fabce5bd3f1110U,
  0xad37fa302f8dd34U, 0xd702f9e71327f5feU, 0xe8f42c2afcf047f4U, 0xe6f44f1d01cbeaebU,
  0xcd01aef020af8ffU, 0xf1150719f7f7fa05U, 0x14eefed3e7deadf5U, 0x128ebf8f21312f6U,
  0x10d502fce8123b07U, 0xd0e3e9eafffc0a24U, 0x1b11ebd409f0eaeeU, 0x40cfbcffb1befd9U,
  0xcdfd160cc7f4e60eU, 0xf9110310e112fb1eU, 0xf7feeafffbeef8e8U, 0xf6fcf80f02ed040dU,
  0xe9fbf50bfe2e01e7U, 0x61800dafc0d16f5U, 0xfc7fffede5e9fde8U, 0xdf23f5dcf6111219U,
  0x1ee7ca1bf2e30d29U, 0x1ceceeeb1b0b33e0U, 0xd70302e40969c911U, 0x315eabfd2fc22efU,
  0xf1efffd3f420f4feU, 0x112272b02310d05U, 0x14fedfeb0e16b405U, 0xbf505d60d03f134U,
  0x10bf607173511fdU, 0xe6e2180cf900ef38U, 0x20e550d0bddfdfeU, 0xedfc11e945ffe4e8U,
  0x9070044f7fec902U, 0x12f0f3f5f914027fU, 0xf4be112d3228090fU, 0x302122532eefafdU,
  0xbce9ee2fdd15ee0aU, 0x2ad9044b13c64661U, 0xf716f124f1eaf105U, 0x25de040b014041ccU,
  0x7f5f9091013f77fU, 0xe5d4efc59abfdfebU, 0xcb42f3f2f7cdd4ebU, 0xdac0bcd009e7fd2dU,
  0xeb19e4f4092b0d09U, 0x1033070f363f5e3dU, 0xe809e02f3d0df32dU, 0xf204cf2a73fae31bU,
  0xecf8310c10cbe4b1U, 0xc41c322a0ff60914U, 0xe3fd1d03f9ec14fcU, 0xdaf8f2e8e5daa50dU,
  0xfbfdf89c0903f208U, 0x1a1b13f4022338ceU, 0x740e2def7d305f7U, 0xe3d7f103f9f9810cU,
  0xed020bf8e8e9f5b0U, 0xf9f2e8f023dbebU, 0xddbd0b07ebd91423U, 0xded50a2bd3ff0cecU,
  0xd6c004250700e30eU, 0x54ea340b071c5120U, 0x122c2c0dfc060d14U, 0x85d5d4febf2f03f3U,
  0xfeef603bdf2715fbU, 0xfdfdec06e5f3e0ffU, 0x6f4d015ecd6ea04U, 0xf30e28274bebf90eU,
  0xfbf0f9051523c30dU, 0xc9ed050710dcc7f2U, 0xf514ed05164200f3U, 0x34f4e9fbea0ffc19U,
  0xe3fcecbdf70cfb0aU, 0xa1608f1d40d0ef8U, 0x1bec3410ffe2ebd5U, 0xfee1f90bf5dff6ffU,
  0x3f38e4220c130df8U, 0x24f308deebf13941U, 0xf6e3f8e9dfb60cfeU, 0xcbcfe32a001b18ffU,
  0x14f37fc1e7206ffaU, 0xe1ef9fe0de4fc18U, 0x2820372108101efeU, 0x15ea020bdcbef0faU,
  0xe4ede71b0ef5ea1cU, 0x51eef90810000325U, 0x27f4ddf5cfef2dfaU, 0xdaf4061d0b04f5c6U,
  0x9990a343c16cffdU, 0xf3d504e2bdf21415U, 0x110be704f0f3f7ecU, 0x1407edfdd10ac51dU,
  0x7daeeadd815f211U, 0xd9e6fddae100f2ccU, 0x1d10330000e7caf8U, 0x54ffd7c5f9110a20U,
  0xf2fd0415ce0dd881U, 0xefe4e702f42b24fdU, 0xe72ab90727defc19U, 0xd50fe20c49f9ffe5U,
  0xf5510410eb07e4f6U, 0xdf30d9e05d0fe5f5U, 0xf3090d0d1600f900U, 0xe8040e08fb03072cU,
  0x2060d131ea281ffU, 0xf0110a071a060ee1U, 0x1052c00ea070afeU, 0x10f8f820f6050842U,
  0x81806e0f392f301U, 0xf316f5ee11e60512U, 0xef290b240703fbf2U, 0xd0d03f0f0f9eb0aU,
  0xffff918edf10809U, 0x3f610f9dbe411f8U, 0xf03018fe08f701f0U, 0xfc140e0d0605f807U,
  0xedfb61000809f40dU, 0x19dfda120a0e09f5U, 0x81a14192ef91ec2U, 0xfdfff80fb3ef0706U,
  0xf5ef11eb11f0f706U, 0xe06e9e6fdf5e8fdU, 0xc0dc57f0cc7e704U, 0x40ef70d142509f4U,
  0xa07f1f0caf30e0fU, 0x1c12f9e953160f01U, 0x1d2c04baf712f008U, 0x1fe8de2f05013401U,
  0xf416e91108160c13U, 0xc0dfd1706eb29e9U, 0xc0f0905fef20ff5U, 0xede4150516cdeee0U,
  0x50ceb0a110e0326U, 0x5dc9e324e50fe706U, 0x7d70d0fef032729U, 0x80ff4e407d9b42cU,
  0xbfc173419fdead3U, 0xf137fce10ee0cb13U, 0x40e81d6e301c106U, 0xe73ee1dbf7000b08U,
  0xff221aef16e7e117U, 0x1a01f917380c01eeU, 0x150b14be09d6dc32U, 0xc2facdec0a2cf724U,
  0xf515fd302dd6f646U, 0xeff9110524042601U, 0xf93103ac08d51e06U, 0xe5110b105cf01ff4U,
  0xe7f3f3edf81b0518U, 0x21fbf72603f60b09U, 0xb12fc001605f710U, 0x19f00a170d010604U,
  0xf1fff8fc07041cU, 0x10f07eb06eef103U, 0xf8ecfbf61005de1fU, 0xe3e5f2ecfded18ffU,
  0xe514f3f4fc08ff06U, 0xf802010dfff5041eU, 0xeb0613100e0efef9U, 0x3d05f1fff17ff821U,
  0xf01aeff50017ef1eU, 0xe30906f8feeef311U, 0xf3f99df4dfe8e804U, 0xf9faf605ff0bf912U,
  0xed7002511cbf6eeU, 0xf8d81613f22c30f3U, 0x2e9e6dff7c8ef34U, 0xfbd40cebfbf840feU,
  0xf239010df0f8e8f1U, 0xfed105fb03147fedU, 0x6edfbfddd09ebfdU, 0xf6c822dfd4ff1619U,
  0xb1ad6fbff00e4ffU, 0xd8e30c0717fb4e24U, 0x4e91b1cfedff8dbU, 0x6e5fcf0f0eb140dU,
  0x11eb31f6ffe0e1e9U, 0x1cf419ede7c3f539U, 0xe807f140f8f3f5faU, 0x13f6fc2b0008eae1U,
  0xd6fefff2fa09ebe2U, 0x4fafbed1639dcf5U, 0x10013eadbf0f3f6U, 0xf1101e0fedfeedf1U,
  0xa02020f08d7f20dU, 0x1000e606f3cafcffU, 0xf1f612f10c1a0905U, 0xf301f7e7f41c03eeU,
  0xe4fe05f8361221f2U, 0x32eae526041a09f0U, 0xed1b81f11bf605f0U, 0x10ead21a3516f31aU,
  0x10bfade13ed18d6U, 0xf01ed9050e1bd9e7U, 0xe308eb24ffff0b10U, 0xe05020df70e0bd1U,
  0xce9ee2e603d0bef6U, 0x2dcff08d2cc0fe4U, 0x211b02e7076fe9e0U, 0xf3f4fff60e0a012aU,
  0xf0e8091211b5c103U, 0x6203f30f12166d32U, 0x3defa9fd15e5050fU, 0xe701d9b5fefe05ddU,
  0xf7f6000a42ebe413U, 0x4fb2323fbe6fa2eU, 0xdadc0ae51ca51fe2U, 0xf0cb0c0f38e4ece2U,
  0x87f16e5e614d4U, 0xde10e3ea00d52403U, 0x2bf017f80f1a1b17U, 0x19d623f204faf2cdU,
  0xf2f816a30dccfbdbU, 0x7b7005c10ec8f8eeU, 0xecc9e0ffc3fa0f17U, 0x10c70c000612ccbcU,
  0xfcf7bac9df1c0810U, 0xfafadbaed506e1feU, 0xf2043304211414cdU, 0xef12396d1b08d017U,
  0xeafbfdcbed041cf5U, 0xd5ef12dbc3f4e3e0U, 0xf8ecfc8602810626U, 0x3af1e1d99b330801U,
  0xae8e9f7dc7515e9U, 0xeed502ed9d10ee04U, 0xd93b2d640059001fU, 0xe6f65f13e0061003U,
  0xff4e05d3b427ed39U, 0xac0fdf1d111e94b7U, 0x18fcb4d5e0df63e6U, 0xef75f843ff39ee1eU,
  0x16354705e55a35c0U, 0xe5130615fecdd5d2U, 0x16b78112d2c62302U, 0xee33103cf8fb2e79U,
  0x1006190229e13a06U, 0xaa2efa0a6f151accU, 0x6152edd162c1316U, 0x3f6de00b0fae60aU,
  0xf5e7e8e614334ae0U, 0xdbead5ed101f4240U, 0x4c71ddfc3cf73314U, 0x3f0fdde21aff5148U,
  0xfdf6fcf00221e600U, 0xfe90c0e1920180aU, 0xbf3f80b0ff9050fU, 0xe4f0f8070509f8ebU,
  0x4fc12ee1c14fe32U, 0x33d9fb07221a16ceU, 0x61ee90181091ddfU, 0xafcfeeef9e12017U,
  0xeff2f407df11010cU, 0xbf9e5f60e20fd29U, 0xfdf10cf11e1721fcU, 0xfe0f2b221ae70ef0U,
  0xf92e1c14ededec11U, 0x66d028afa02f4U, 0xee00eb00fd0ce708U, 0x12120311fd06f6f4U,
  0xaf2fcfbeb98f8eeU, 0xf6dc0ff1dd130102U, 0x210f180302f6f9e8U, 0xddd100b05f2e010U,
  0x60c3a1618f5e630U, 0xf1f8041a18fd00f0U, 0xdb1cfbf6f1e9eaf7U, 0x14172aed0320e0ffU,
  0xf8ede7f9fcebe103U, 0x171d088105f8fd05U, 0xe20ffe03ff04f2fcU, 0xf914f61f4ada0be8U,
  0xda3e910eaf614fbU, 0xf3fef2e0b4cc0df2U, 0x36fd03f92810db05U, 0xa021cfee7f103efU,
  0xb98060e08fff100U, 0xf13cf6e08102f107U, 0xfc020c070c0c2fedU, 0x80bf711fef61109U,
  0xfd060d07152f4108U, 0xf80412081e0d01eaU, 0xfb07c5fbfdf9fa04U, 0x20307fbf9fdf5cdU,
  0xd1308f1ed50f7ffU, 0xffe6f0f908050c2cU, 0xf6fa0027f1100a0eU, 0xdfefc0dde10ea04U,
  0x1dfcf4fef70908e9U, 0x2fb07fefd00f7f2U, 0xbc10afd03fef102U, 0x5f30efd05fceb13U,
  0xdd15b6afe7360836U, 0xebfdb81c42fd5105U, 0xe12cb8de13e03222U, 0xfcfded32bdee63e1U,
  0xff0add05d73f2c27U, 0xee0a40fbc8d636e4U, 0xfed2824e6e2ffe5U, 0xd110e0d0f4cff039U,
  0xfe160242cd450718U, 0x1d0cfcd5efe13bf5U, 0xe700270df97fc3d2U, 0xfbbcfde11df9c71aU,
  0xb10cdf042d412b1cU, 0xeef03304cd18f52cU, 0x1a3ade3a04ecede8U, 0x3104f9f484e8350aU,
  0x6df4251ef5181efaU, 0xe4040b04ee0f2181U, 0x290bf609f9f819eeU, 0x21c0b0f0ceef301U,
  0xc60e05061ff2e1d3U, 0xf9f4e9eceaf9efe8U, 0xfa8b05fdfdff0812U, 0x4e8f2f7b607fcebU,
  0xece1e8eb0010f40aU, 0x40ee0d04fceeebf1U, 0x177e6fbf1f75d0aU, 0x23f4faff0a07f70bU,
  0xfd02f605f4f6dbf6U, 0x20fddaf6edfe03e8U, 0x1504f504f6f50703U, 0x1412fc05f809f60fU,
  0xc801e9361e01d0d3U, 0x34c2dc0a11fb34f0U, 0x3ad60616b7d7d3d1U, 0x5fdd700e7ed0204U,
  0xd5fe067401cde6e3U, 0x2ebe2e4b30b04d7U, 0xfbcab2e423f1e1f1U, 0xc6d816a8c6f700ecU,
  0x622ee1fe0d00cae5U, 0x10cc02eeeb003633U, 0x4bc1d1f6f6e11bU, 0xe21fbe1606cee12bU,
  0x2606fdd6ffe66a8cU, 0x3ec4b140be4dcceU, 0xd6f84f32a9f62c04U, 0x23fdfff7d5f5d481U,
  0x4ee0707200efdf3U, 0xf7c1d92de9fff603U, 0x18f065fe0426f5beU, 0x8f9d1d421180ff7U,
  0x5f5fd0b02e60bfcU, 0x1211ff120df5f600U, 0xf1f310fe0cf6ef29U, 0xe9faf3fa14eb09fcU,
  0x13dcecef81081c1dU, 0x6f100092312110aU, 0x311d0001f5f706ecU, 0x19dffe38261b50fcU,
  0xeaf812f8e4effa13U, 0x5eef208fd0a050eU, 0xeaeef3f4e20cfa0fU, 0x120c1302f501f110U,
  0xd426f603ffebd7f9U, 0xcee1340a55fef805U, 0xef181ff4ff1d81f1U, 0xf11418f0de03f141U,
  0x1afbeafa22f4c113U, 0xecec180500ee1de6U, 0xf4e9160f08f3f4f5U, 0x1f1e3ded0230f3dfU,
  0x114dfe00f870e15U, 0xf1fff21c0dde361aU, 0xcd2d1bf51001c70bU, 0x26c8e12d261cf8f1U,
  0x14f40bdbfafc13fbU, 0xf4f5101e26d101fcU, 0xdc61e8e20b0dd007U, 0x11f503ecfcef1cedU,
  0xf50509210cf10b13U, 0x230403f60d7f070dU, 0xffefd09fdf40600U, 0x716fbff06040df5U,
  0x4f60814000903fbU, 0xf50a05e6fbeef601U, 0xf6fa1a0510fde705U, 0x1204eff7f6070c09U,
  0xa0b02f3fe070104U, 0x3f1f31603150efdU, 0xefebf9010efa060aU, 0xf5fce90503160306U,
  0xfd12fff616f2f030U, 0xfbf61a04f10402fdU, 0x10105070603fe03U, 0xf1fa0effdf000d09U,
  0xfb6064f62010d2f0U, 0xeefd26c0e7f43edcU, 0xc7f25e21e3a6bffU, 0xf1fd069d40240a0dU,
  0xea2f0be0fcfa5712U, 0xf3330f4b210d042eU, 0x1425c6d90bd78817U, 0xf2e40dfb0bf11406U,
  0xefc7dff02dd8ce0fU, 0x46220df4511a10acU, 0x18feeebf176709fbU, 0x521ada22ab0414ecU,
  0x42cb452e1ee4ff35U, 0x2516df07f0fb13f6U, 0x1f5d192bed6fd810U, 0xfd051f170dcabc24U,
  0x8109ff15ea35f5f8U, 0x13f7040804fe031cU, 0xef08fafef61307U, 0x9f3f31902d4f3efU,
  0xe151518f0f8fdf9U, 0xfc0d02e910d53710U, 0xebfc07f9f308010cU, 0xd3fdfcfcf6fd14faU,
  0x11ff1d02fdf00bf3U, 0x7fe0016ef0e11f3U, 0x175b15ff0406dbfaU, 0xfbf9e3101202ffbaU,
  0xfaeae70bfafceef4U, 0xe9f7080bf7c41708U, 0x114eee7f20bf20dU, 0xead0f6ebfdf99500U,
  0x28ad045befeaffc2U, 0x1ff9e6fed1d8fbe7U, 0x2abfe8dab8cd3af4U, 0x19efcce4ec25d42aU,
  0xc02ee518d9c89717U, 0x8a7d1e205fbf618U, 0xf20cedfa1bfa2041U, 0x4c5b21723decfd9U,
  0x1bbfd8f1d6d40cfcU, 0x1fe109e0e311430fU, 0x18e01310cce113dcU, 0xb5d4c1e81ce12737U,
  0x21d2a8cbd5df4481U, 0xd9ea1accc6c629feU, 0xc61c10c50bd2d6dcU, 0xfd4edcaecbaaa15U,
  0xe7e0c80ffb0e14e2U, 0xeb072700db10bdd3U, 0xe8e70b0caed5010fU, 0xf2effee8f3ad08e3U,
  0x16191ced0dd4d0a6U, 0xcc7eed976ab10e7U, 0x3ebf5fafa192a0bU, 0xe6e942f7b02bd000U,
  0x61ef09fee8e62afeU, 0xc6c606fdd6e3c0f6U, 0xdef1f088e1ed0efdU, 0x41169fd812cf1542U,
  0x1400230a0bdce7edU, 0xcbc2c6f63ed8b0ddU, 0x17f6e2f6818c41fcU, 0x130835c9ca1602d2U,
  0xe5282be5d8d701c8U, 0x10f9d8e941f70b60U, 0x4c0f28262feb150bU, 0x1dd9283b16dc3b2dU,
  0x4200f372cfb2c2aU, 0xe90b0d2e02032c00U, 0xdd17e8ebec08d3ecU, 0xfb00ec022701f430U,
  0x261ce3e413130c07U, 0xe616f6d8551b1c02U, 0x2b3522cfef0ad01eU, 0xc59b4f70e420007U,
  0x121a811cc61901f9U, 0x6709fb33e1dfc9dcU, 0xeb312e09fa37d1f7U, 0xf71226c9cfeffa09U,
  0x23c4e00706fef40dU, 0x415dee70b19f302U, 0xeeceef5df140b0aU, 0xe5ffe9dbfc7ff5f6U,
  0xf2ff0404fa0de705U, 0xf9dbf22321001105U, 0x609040602031102U, 0x1fff03ebeff60f08U,
  0x2e80fec05190bf5U, 0xfafe03db2400ed07U, 0xb8060d14f6f80a08U, 0x6fe09ff04f806f7U,
  0x10eff608f6fc03f6U, 0xf90710e6fdf0f901U, 0xffebf518051601ebU, 0xcf6180200edfdeaU,
  0x91209ee7f0c0424U, 0x15eb0be218e7e459U, 0xcebdd703e32a034bU, 0x32daa1246f856f5U,
  0x15d697e0fa142224U, 0x311de851cfe5b612U, 0xd21ffcc5a2ae0f11U, 0xea1a38d23cd3fb1eU,
  0xe6cd49d5fe0dd1f0U, 0xf215fcd7f9ace120U, 0xedef07bb19a8f7caU, 0xd4cd221123080f15U,
  0xf623eb2ff955510dU, 0xe6234fe90ad93005U, 0x18f73b1b28156fU, 0xf1d014d6172cfbd0U,
  0xf8fa0ff8f8f60b02U, 0xfdf7030cfa02edd1U, 0xe011fc050704f0U, 0x17f3f5f91503ebeaU,
  0xfd00f209f9f6f4e2U, 0x804f2f700061806U, 0x10e806f6f80a0b0bU, 0xfff1f7f6fdfd1506U,
  0x1cf303fc0f0201f9U, 0x10ea10e20deb080eU, 0xfb1c0c17f5f5fbf6U, 0xdfaf60620f6157fU,
  0xfd01f80cf9fa0efaU, 0x18e7e40600150d0aU, 0xf8fffcfcfc0e0707U, 0x1603fcfdfef4fe03U,
  0x42f100deb12f1e9U, 0x2b1606dbf431d00aU, 0x20cc2016be0101eeU, 0xe20500ef167fdfe2U,
  0x18f6e72322ef46ecU, 0x210fde141609e9efU, 0x6db12e1e1fdd61eU, 0xfaf9e227110059ddU,
  0xe2f010e501f100f9U, 0xe619efe226d7f107U, 0x900e1541fae202f2U, 0xcfdefdaab2c22f3U,
  0x101aedc5eb2d1930U, 0xd6e2031517eb21ddU, 0x2c0200fc281aee0bU, 0xfe001101401b0e9fU,
  0x27f4e40fe19a050aU, 0x1aed1a1fefde2a1eU, 0x38c4e3fb18c3122fU, 0x44f9220a079eff09U,
  0xee392d251bc1f20bU, 0x905ad142d12133aU, 0xd11b2aec1907cdeeU, 0xb2cfd1fc11ebed01U,
  0x13c143d8dafa13e7U, 0xf6f23cb2e40b12f4U, 0xf74a17c5f219171fU, 0x8f30ddfed6df0deU,
  0xe702d6debed9a8cbU, 0xbcfffe0ed45e1e9U, 0xfc0741dbbe7f03f9U, 0x17e8e12ed7cfed1bU,
  0xd50703f6021bfdffU, 0x21f9f10bf2fbe6c0U, 0xfdedf4fefef90f13U, 0xbfafd0cfbffdcf6U,
  0xf6f3d207fb0605cfU, 0xf0f9fbe40403fde8U, 0x2ef0bf97f03ebf8U, 0xe409fdf3d1d80002U,
  0x27270af6fbf3f704U, 0x6f8e6150702f325U, 0xf70af5fc0906d007U, 0xeb0ae00604e4f117U,
  0xf6e210fd00f72b21U, 0x3fdf4ff0110f0feU, 0xf6080df700010edfU, 0x121e00e633030309U,
  0xd614d628e603bceeU, 0x1fe11a699f1ca20aU, 0x73b8dbf515ae59dfU, 0xe5eef212fd1df6f9U,
  0xc3b90410e7d3231fU, 0xdc7fcff8d3d1fa10U, 0x2543e111180c0f36U, 0x1506ffcd32d346cfU,
  0x628213dffab7eaf7U, 0x2d05cf0a04cbb946U, 0xe3face0cc3b3f4b5U, 0x3aca00ffede33afeU,
  0xdc2313c4181fd92fU, 0xcde900092cfb4ef8U, 0xed51f6ba14cf16f1U, 0xbcf606e81ceec0dfU,
  0xf6f0ec000ee62429U, 0x18dfe18b71f715f5U, 0xd73b4d0b103fca28U, 0x1109359d11eb1be3U,
  0xaf7be14f33a14deU, 0x35041b2300000519U, 0xe9ebd3ccfa22a810U, 0xe8220fd41fe91612U,
  0xc7fa08050e7f0c0cU, 0xd23e80e2c13ca22U, 0xc9e301f52ea4cd15U, 0x32d1f1dae202faf0U,
  0xfd05ec5a4c25dd37U, 0x1a0b0b0c15ebde30U, 0x13ceea2129100fffU, 0xd90a27f1f9093035U,
  0x95e6f9faec1be1e3U, 0xd5e80c07ee11e22cU, 0x1ac1e703e422efeeU, 0xfa13f2f8f6e5d407U,
  0xe01c0a26e4f9f0e6U, 0xfcccf909e5e5fbefU, 0xfdcf07eb13fc4d1bU, 0xb0d0ef1a7dee2e8U,
  0x3cf7f8fff2f8f9eaU, 0xfef30303fde632c4U, 0x1c560ec9cdf3d1e4U, 0x4ee4d10754351beeU,
  0xe4d301c2dade7f06U, 0x20fe22d7e6f1f30cU, 0x5eb3314f9f41bdfU, 0x1de017a9f200f2eeU,
  0x2d092500002317ebU, 0xf70625d4fdeb0fdeU, 0xf52320631f2e51cU, 0x161efdcd1a1cee2eU,
  0xf31c81e3310000f7U, 0xf1aff27230a00d3U, 0x7d0fce113e62bceU, 0x2ef5e41ef4fb0215U,
  0xca17eaf1200cdd05U, 0xd6ff00f63620123fU, 0xe5360d2600f0fb15U, 0xe11c0019eeed3cfcU,
  0xf2e704fdf8f827f6U, 0x5c36eed756e124f1U, 0xf2f2f317e736e7efU, 0x14f0f02ce8fded12U,
  0x2ad2dcd6d8fb17d9U, 0x21db1705e70b07f5U, 0x14ef03f51e1adc06U, 0xe6de260cda09340bU,
  0x2bdd140f31b0d516U, 0x23dca5e012f44effU, 0xdc0e12f1d51926e4U, 0x1c39b9ec340d17a7U,
  0xeada1f2602f4eceeU, 0xb06a6bc0415fa39U, 0xeb0722e624cffbf0U, 0x1d16e8f40ef6281bU,
  0xdbe9ecffebd4812eU, 0xe0cecf4fef9fad1U, 0xf9e952dafff5d03aU, 0xb0162817fbc5d11aU,
  0xe086c6e2d0cffa0dU, 0xf8110d458306f23aU, 0x23faee0600226e13U, 0x2605e63402150aa7U,
  0x1aea170923434b05U, 0xcaf42e0cfdeef9b5U, 0xd8f816fee312e3f1U, 0x22210aefebe7f8baU,
  0xd92d03d1fe7f00d0U, 0xf904ea2fe60d78fdU, 0xcc042c320137bb06U, 0x104bc0a1f1715d7U,
  0xbe3c2c841ff06f2U, 0xfa11052e1de0fdc8U, 0x30850bc802dbe015U, 0xfc11f7a3e607193bU,
  0x11f40e41f4ff07f8U, 0xeff81a02faf405fdU, 0x1107080b15dcdfcaU, 0x32ee131721590821U,
  0xbfc0c00f9fef7f5U, 0xf8040bf0f206edefU, 0xf9fbf707ee1206f8U, 0xa0706fdee11e6f3U,
  0x151cfaf501fc0ff8U, 0xe900faf4e50609f1U, 0x81e320f6fb2e090dU, 0x6fb1bec0607fef8U,
  0x26f40b10f9fe0106U, 0x24f307040004e4faU, 0x8fce51420dfecfcU, 0xec030b070e02f438U,
  0x29e6fbedf8091517U, 0xf80dfa0a82f8eb07U, 0x152324f0f3cbebefU, 0xf0e50c2ff20fc543U,
  0xff00f0c02404fefaU, 0x119b1efffe172729U, 0xfd050706ec02fbb7U, 0x1100141225d21305U,
  0xcc0f0deb0b81fceeU, 0x7fd330cc0fe0d5cU, 0xd24e4140519f9e3U, 0xfffdd4f5bffc0efaU,
  0x21e619030b1b1d19U, 0xe407d2fcec08ecf5U, 0x2ef7036e396f2fcU, 0x915e7181ce8fcfdU,
  0x21ced8011edfd3e8U, 0x3fee8f0e4f1d402U, 0x1b4df8e4e1baff0cU, 0x1c02e9e2f8e90503U,
  0xedf1fefc01f4cf1fU, 0xe1ccfee50846dde3U, 0xf529cbf7dfc8fbe6U, 0x14ec06ea1ae5020aU,
  0xdf3df6d218f7b507U, 0x4f90214e9340e16U, 0x1af931ff14cf22f3U, 0xbddf060b1fe3ef11U,
  0xec0d7fe5f6e2f005U, 0x81e1aecf8121be8U, 0xe418fa181713f3eeU, 0xe7f31203acf4e2c7U,
  0xef05fbec0c091025U, 0xe51304e4120e0710U, 0xee3216183f0419ffU, 0x330477370a2d1321U,
  0x45ef10333d06f617U, 0xf3d41df90dfa25fcU, 0x63d2409eb77dbddU, 0xbeefa1be87f3a13U,
  0xddd50bd74b043ef7U, 0xc741cf1a173307ceU, 0xced5e42f4418035eU, 0x3c40045a0a201df0U,
  0x110506f006eba02fU, 0xee59e11c10f822ddU, 0xfdfdd8e617ecda49U, 0xaf7005dd4462f334U,
  0x141733041a110725U, 0xf4fede05eafbd1fcU, 0xfb240af1f3c20c03U, 0xec17d72c0c23daddU,
  0xf1090df3f9f102ceU, 0x8ebf2f4f8110bfdU, 0xec1bcd157fd8f328U, 0xaf0fbe2c4ddf5U,
  0xf0010a1628f3eb10U, 0x310a06410828eed3U, 0xffe3ec1404eff2feU, 0x13d9fad80df0f2f2U,
  0xe24d81d2a173900U, 0xe0e99712f113ef10U, 0x105f4d6f409f2a8U, 0x3edef70bf8db0bfcU,
  0xf4fccd2411fb0c67U, 0xffdd05d8090c16ffU, 0xf015feff2fcf161dU, 0xdf041818df3dfc02U,
  0xeb0dfd081bffef05U, 0xfaf60c008112fb19U, 0xa1cf2d91a081cf7U, 0xfbe1b318037b15U,
  0xf41708d3240ceef9U, 0x1e3ecdb4115f42aU, 0xd616da2f0626daf9U, 0x1d0df4f6f849f200U,
  0xe9c8d0e2fce8feU, 0xc70dfd02ffea41f8U, 0x914557fca1afa01U, 0xfe079fe7fa11fe14U,
  0xfc46091412fa5aecU, 0xb5f06f65b06f0e7U, 0x19fd4d3c3118c71bU, 0x1819253b1eec7cfcU,
  0x22da05eb2a1541e9U, 0x881efeef4cbea2fbU, 0x16f1641b0410b89eU, 0x31491769e1fad521U,
  0xc2f2108996b191eU, 0xf216d32521d216bbU, 0xec0d0d120e3aef53U, 0x4f3d2df181ee29f5U,
  0x3f21bf30394c81fdU, 0x2b0a02114711f415U, 0x30cd268de1d82806U, 0x882433b5563a384eU,
  0x82cf2391104220aU, 0x13051ad3f013fb40U, 0xf6da0614f8f7eeb6U, 0x2b06dfa9f3f71efeU,
  0xffdeee260aff5d15U, 0xca3a0e1624c2f7dbU, 0xe906ec031b01512dU, 0xd812ecf10915f2d5U,
  0xf0f01d70902c8f5U, 0xf202e534fa09e8efU, 0x1af3ef3fdef3f507U, 0x17ecefd381092317U,
  0x207f2bcfd0e4213U, 0x11050af432e2cdd6U, 0x2ccdc1c961115f4U, 0x11e8e7c3efe10cfaU,
  0xdce704e802fc01f6U, 0xffeb01c8fa0cf7f7U, 0x10e316030aeef5U, 0x8f102ecfb1afa17U,
  0x8f90b1c01e8f0ffU, 0xfee3ecf910ee0405U, 0xfcedfd17edfae7f5U, 0x401f0eef90a09e2U,
  0x919f7fe0601f7fcU, 0x314faf6ff04450dU, 0xef07e6e6110dfd04U, 0xfef2f0150ae0e7f2U,
  0x70f03f4f303010fU, 0xe20f71bfd0fffebU, 0x2200f923ffe27f01U, 0x30f0dee0008fd0eU,
  0xd520eedef01bcefbU, 0xdde8042e0e10f6f0U, 0xea8321fa1be7474eU, 0x58f0f141f5e30e2bU,
  0xe5f7e09bfa3622f7U, 0xee0f35020c27fffeU, 0xf8c82a201033efe9U, 0xecefd70eead32b2aU,
  0x80ffdfe0dfc40ebU, 0xfe26fc01e798ee53U, 0xf7417f18ca29f30cU, 0xfe4137fb18f820f7U,
  0x26fbd5b3e89e40deU, 0xdfe8df0de903f42fU, 0x154a0ba8fdd0d5d5U, 0x2b0007e72e0afc07U,
  0xf11c04faf7cff630U, 0xdaeaea01e304fd5bU, 0x28fbc2e317af57f4U, 0x4aee09fcf6f431U,
  0x1dd9101ae3eace14U, 0xb0d9dc0b04e60d03U, 0xf722cffd36d4fad9U, 0x7000510ff1cefdbU,
  0x810cfedca8cbebf0U, 0xe718e5231aea45f2U, 0xf817ebf13ab2a8b2U, 0x10f0f20efceedce6U,
  0xc407eeeeee4012fbU, 0x3bfe15d1da073bf7U, 0x19c2f2ee0adee6e0U, 0xce0e0fdee10b1610U,
  0xec00061106f91203U, 0xe91802f3fe020ef8U, 0xeed070be306fd0bU, 0xfb1207f7fe06fafeU,
  0x190401fd0a0209efU, 0xf70a03f50b00f4f6U, 0x70bf8f40202f906U, 0xe05fe07fbfdeff6U,
  0x2ee02fcbcfddd81U, 0x706fff110f0f006U, 0x410fbf7eaf40207U, 0x31902d9051201f7U,
  0x3fafa01f3fff708U, 0xfbf6f4dd08f3f405U, 0x500fc0101061124U, 0x2ef02f5fd11fd03U,
  0xe805ff0efff9fdf3U, 0xf7fc01fc0309f3fdU, 0xa06090101f50903U, 0x305f604fcfc03fcU,
  0xfe04fd07f7f8f7ecU, 0x13fdf7fef0f51202U, 0xf901f2fa09050303U, 0xe4edf3f6f6f7f6f8U,
  0xf5f881000efc09fcU, 0xd04f3fc090106ffU, 0x41e00fa0403f7fcU, 0xfc04fc0e060800dbU,
  0xf9fbf8ee03faf7U, 0xfafef20108d8f5f9U, 0xf80afbfdf701fd00U, 0xf9f6f5f805040701U,
  0xbfdf7c606fd2a26U, 0xfb124be4e9fd15f9U, 0x11feef07f43f1615U, 0xed46f2cb31fac011U,
  0xe8fa25efebf1e510U, 0xe517d8ea34f1bafaU, 0xc12bdf019c20023U, 0xd263efc2df727e6U,
  0xbdf522f90bdab0f1U, 0xd2f2163111ef08c3U, 0xfbf010e6f00207e4U, 0xf5f8ead681d70718U,
  0xfdef232a3d3360f7U, 0x1ee0212102d1c13U, 0x618121ededffc0eU, 0x3ddfb21f91634ecU,
  0xf5f03af6fbfbdaf8U, 0x1145b3dfadd606e5U, 0x18080eedb0fb240eU, 0x42dedaf10f08f001U,
  0xf9000d04f2814103U, 0xd10e36cfe5f70f1bU, 0x526ddccee06f9f2U, 0x25ee1e9ff80ae67fU,
  0xe83311f00ee5e5fbU, 0xe308010bb81b0b34U, 0xaefdddbf80a1eU, 0xf5f8d216e12649fdU,
  0x37e910fa1a0a19c7U, 0x131010100e1e13f9U, 0xebd241f9d33e21e9U, 0x100818102716e4faU,
  0xa9e8fdce14ebe5e2U, 0x7ffd30248e0ac8f0U, 0x16c0e734b750f541U, 0x273001fdeb32e95bU,
  0x2a041b17e6a2cac6U, 0xc9b39f18eb0300c9U, 0x20be41d833f6da06U, 0xf0060feec414d4abU,
  0x49ebe4d8fa980706U, 0x104effe539d125ebU, 0xdde3f53604d41209U, 0x19fbb3fcd5d7320eU,
  0xeeb95de0de9e3f0U, 0xb6dcee56fddb23adU, 0x18eb51d11e360a13U, 0x6e2e0d78f2ae5daU,
  0xe4e6a8fb1101f7cfU, 0x2e22f6e9100b0826U, 0x308f90bc113123dU, 0x7f23030340c9faabU,
  0xc0e2f0ef6ec04U, 0x401e7071b00110bU, 0xfd1307af12da14f9U, 0x2080bedff16e6f8U,
  0xf8e9e5c9231ffcf8U, 0xeaeae3f5def1e9f7U, 0x56f7e81413e0e906U, 0x190fe813d6f92bf1U,
  0xf60003d102f7eafcU, 0x2cdf0002fafef60bU, 0x11e018080d18ed0aU, 0xe9e313fc000ffb0bU,
  0xf71a01030f0de512U, 0xb5f4ef2b13f612f4U, 0xf416ff0ef91eeae1U, 0xe8e7f302fb1fbde1U,
  0xf3df07f5f6040e0bU, 0x7dc0112fddd08deU, 0x5e0090ff6db230cU, 0x416fe081aebe601U,
  0xff7f0205000a02f4U, 0xdf000c17f50b05f3U, 0x5098b12f30af9d6U, 0x2ef50802ffdb03f3U,
  0xf3f4f305f8ff0ec1U, 0xeef135fb1cf5e8fcU, 0xe0eefecff2fdf0fcU, 0xe4fef5f009f4eddfU,
  0x1b81f616f90ffbfcU, 0x1a7d12e9affef5edU, 0xf7fd11fa07f369f9U, 0x341dfdb1fa03f2f9U,
  0xfe25eedc0bd969e6U, 0xf521d2062019f1edU, 0xfbd53107d50de4f3U, 0x1a0501cbfc07f22eU,
  0xfbe305ff0f34f400U, 0xfc1a0306fbece62dU, 0xe2f72801fdee1301U, 0xf06f9f0a4f91adbU,
  0x1efee7ec045023dbU, 0x19010e19fb0d1ae3U, 0x34d400081f03d9f9U, 0xe3f906f935df02f6U,
  0xeee6ebbaf826e032U, 0xf9f1f0240910e2dcU, 0x733f2f032fb0dedU, 0x5dff2f1dfead606U,
  0xd6ccbad702e2c10aU, 0x11dec79106dbd326U, 0xf726011621faf9f4U, 0xc7cffadf13cc1eceU,
  0xbd10f7d91c0ee7f6U, 0x2b1c0dd7e0c12911U, 0xd943e4df00db11ebU, 0xa0b04497f18e808U,
  0xc1004fa80f0528e8U, 0xf20d40fdbdffeacU, 0x2bf0fc18c3f9dc04U, 0xb7e02f4ec1bc0646U,
  0xf7fd08ec7ff70500U, 0xfef7f1f8f8f708fcU, 0xb0d0df0fdfa05f1U, 0xfdf3e8040afcff02U,
  0x3020900f7fb0301U, 0xf3f702fe03f70e04U, 0x13f6f6fcf0fdec06U, 0x130006ecfff9f805U,
  0x1f7fdfbf5fa01fdU, 0xc1afa06fa01fcfaU, 0xf6ff05fbfefdfce9U, 0x17f900fa05fb0009U,
  0xa0c080e09e9fcfcU, 0x513fbfdfcfbf615U, 0xf40104040104fa00U, 0xdf6fffa0704fc0bU,
  0xed8fe2f80cfbe1fdU, 0xf028dfdb81241efeU, 0x3041d5f23f00033U, 0x252b27dce7bee0fdU,
  0xf2f9120732110fa7U, 0x10d69be422b920ceU, 0xf7c5df000a4ce720U, 0xf5effbdcb61c3183U,
  0x9daf4c734fed0d7U, 0x14c1f518f1d400ebU, 0x21271817ec090f30U, 0xf53edf13f7fd10d2U,
  0xfa041de3faf7f41aU, 0xe413dc23ecf707bcU, 0xfffc14f601dce7f8U, 0xfb2001f4fa341010U,
  0xf1f90afaf42eddffU, 0xb1ffb08fbddf514U, 0xf3e500ffe6ee05f3U, 0xf21011160cf6f218U,
  0xc01330cf9fcf616U, 0xf10afafc0bfef2f3U, 0x3e14f4ee1302fdfbU, 0xe4df1e090b00f9U,
  0xa14250901fe0609U, 0xf8f9f9f40801fb16U, 0x6fffa06f6edfb00U, 0x5f2f40a0300ec09U,
  0x2def8141017f504U, 0x101ebff7f280702U, 0xf80204f4040bff0fU, 0xf00a10f2fc0512f1U,
  0x39fee7f7fefd53b2U, 0x1aecd0150404e31cU, 0x219e80130e5d312U, 0xd0bf7dbd1cbcc3aU,
  0x101dfdf9fd0a0efeU, 0xf1e5fb16d00f0117U, 0xf20cdd073635ef04U, 0xeed4d3c60afb140bU,
  0xb9b10015f40656ffU, 0xde2a36effbebcedfU, 0x1bd44ee9037f2229U, 0xd3fe07263e180a07U,
  0xee001037fabdd8b3U, 0x1208fcfaca0cfd02U, 0xffd1f90623aef2fdU, 0xfa0517ff101df025U,
  0xe91b06220012fd08U, 0x6ee6e81a18dce003U, 0xef1fcfafae2ff00U, 0xe8fe0013f818e6ddU,
  0xf9c90127f2fa1cf5U, 0xea0303cf02e12dfcU, 0xed712fd0feade0aU, 0xf627fbfc13eef606U,
  0x12ecfee90c17dbfdU, 0x3b05f913f011160cU, 0xc0124ee140e24f4U, 0xfde5f4097fcbecf9U,
  0xb0a0bf41bf74efaU, 0xff012a0f0a06fcfbU, 0xfdff00ecedcc07f4U, 0x8f6f814a8df0ef0U,
  0xb2e90beb25730efcU, 0xddefe5ef0ac4df08U, 0xb14040100250f07U, 0xb3ebf6081909ecU,
  0xf71fefe80f07fef9U, 0x16f30ef61ed2f5deU, 0x1d06d903ee072b39U, 0xfdc1fffeb2ea4c29U,
  0xbe7fb013206f104U, 0x22fbe733071000f4U, 0xf1e0e0f10bd0d407U, 0xe406db1150f4eb35U,
  0x71ce0f581cf3002U, 0xfcf8f1e122161108U, 0xceec05fae91edde6U, 0x17f1becfe902e6f1U,
  0xc9e035f004e71031U, 0x1d312ffe592015d4U, 0xd6d0da04f674b8c3U, 0xd6de21811929f6c9U,
  0x11e2ebfb34fb1d18U, 0xe222fdd41f0b1633U, 0x1b15d0fb06fcb5afU, 0xa250b11caf10a30U,
  0x19daf0f4c96215d0U, 0xf84df208e1ebeeffU, 0xeefffc250f8cc124U, 0x12dbc1f05acb3915U,
  0xff6dd40074a32d4U, 0x1304d18fb36d746U, 0x1bb1d722f541140dU, 0xeef96a4112f4442bU,
  0x6124473f916d1dfU, 0xbf00f03e2ee6d708U, 0x2013411a02e377d9U, 0xd1f4d7e734fde0e7U,
  0x1cdc03e108f503eeU, 0x9163efe21172bd7U, 0xeffd141fd8f61a1fU, 0x1bf50101d416cf1eU,
  0x2adae23a012cee03U, 0xde610e5f71aea6bU, 0x29f207e916ae053fU, 0xf82de5f3b5f6e605U,
  0x51d71b2efae15fefU, 0xdbf403e7b80af441U, 0xe96c814a0306060dU, 0xe00eef24b831e8f5U,
  0xcd1dec4410d9f6acU, 0x811df45420d5252bU, 0xea1404122f53d539U, 0x3b9e21fbedb23ee4U,
  0x1914eeef0b272a34U, 0xe5e7011bd42d1e11U, 0xf4fd56d905f9dcf5U, 0xfcf1d0fc1706e233U,
  0x281bd5092d110813U, 0x1519cef948ef13f6U, 0xd0e1b2f3e4be843U, 0xebe40f3454fcf02bU,
  0xbf13eaf2cbf0e20dU, 0x574c2af88decbeffU, 0xac642fcd5dde108U, 0x122333c3fbebbd4aU,
  0x6fef781d90fd312U, 0x184f0522230614deU, 0xf7fbf1f0e8120ed7U, 0xffe50511e4ef96efU,
  0xf6edfcb5fe23fc0dU, 0xf7271f00ef04082eU, 0xfb2305190c0eeec5U, 0x350e022f0fd9d723U,
  0xdb5c082b132727f7U, 0xdae51effecfb0308U, 0xe5210bdee21318d9U, 0xfae4271c27f701f6U,
  0xcee0271aff22eb18U, 0xe817c8fced04edfdU, 0xeaf5df320802040aU, 0xf20215290e1525d9U,
  0x317fb0409aef909U, 0x291d0ab1263cc300U, 0x1adffb17d3090019U, 0xbd4609e7217fde1bU,
  0xe9d1280cd2eee41bU, 0x27590ea609eecf20U, 0xe91bb90f1beb1301U, 0x1835e6191829720aU,
  0x211d1b2428e7d208U, 0xf50f33ecfe09fb0aU, 0x8e13140e23bce3e2U, 0xefd0f4e4e01900b1U,
  0xfd07ed1003414a1eU, 0xd0f40203d83e3eccU, 0xf826f6d122f3f519U, 0xe51d314bf41d0eb1U,
  0x4ecf0d0fcd2e4f8U, 0xfaf2f308f711fcf6U, 0xf80bfdfe0214f7f9U, 0xffa20c0bf7e6eeffU,
  0x800baf20af8ea1dU, 0x20df906c9dcf802U, 0xfc04daf6eee805f6U, 0xae81bffaed0e04faU,
  0x3feb50d12f7ecf7U, 0x17f601da13000c1aU, 0x4071b06fcebfa0dU, 0xfdf5010c0af1ef1aU,
  0xf9f30602beef1908U, 0x30bfafce0b9f502U, 0xd2fbff0c0314ef00U, 0x209fa1ef4019ff3U,
  0x9c8c0db0ef51507U, 0x1efd81dd0012f205U, 0xe7f8f8fb01fdfff2U, 0x1516fdd3c825f2f9U,
  0xf2f7e4eaf305cd14U, 0x2333fbcefe02fa0aU, 0x1ecebfe09f626f8U, 0xf7040a0219f90d14U,
  0xdcf2e5f104fdfffeU, 0xe8f5fd3106f60210U, 0xefffe50e0f8febf1U, 0x40fff507ea319200U,
  0xf11eefea2127e918U, 0x12fdf820e92dedf4U, 0xec0a11dd16e4fb12U, 0xf8ee0d30fa03ffecU,
  0xc7a0b3a09f5ade8U, 0x6ee091d17e305d6U, 0xf6cd21e1e5360afbU, 0xedfeddd8010800d3U,
  0xf8f4dfe3ec0d6e1cU, 0x2468156a0d3c61c4U, 0xf0ad010f2ac7ce5U, 0x7d9fbf81ffbed0aU,
  0xe43adeec2707bafbU, 0x31e9f5bf2c05f548U, 0xf007d3d1e4e205f2U, 0xac122dec02040a0bU,
  0xec04d4f707393612U, 0xe20501edfbe03724U, 0x1cf307082acee7f4U, 0x7ffefc2f030004e5U,
  0xbaeac3d8020828fcU, 0x9fb8e00ee52454cbU, 0xd4018370119ef34U, 0x1aeef22ad606c433U,
  0xe6d700e2040305dcU, 0xed0611f7bfde16edU, 0x2bd0fc60ff91805U, 0x18fd01bedc121bf1U,
  0xc80efbe20e06ecffU, 0x291ae17f564ddb6fU, 0xe524e21820efe05bU, 0x2344c116f309c805U,
  0x416f8ef36fa2727U, 0xe94318530263f814U, 0x49e31bd00f081c0bU, 0xc04fcccf62301faU,
  0x4becd91158e9f90aU, 0x18fad4cc0010e712U, 0x3feb0dd83ad553b6U, 0xd429c64c3e3bf8ecU,
  0x2433f707071d4634U, 0xe706f90ecdede4dbU, 0x2429a3d006d2dee0U, 0xdf8fcc301e1e4fcU,
  0xcb31efe10a26e5d3U, 0x2c080c0955383327U, 0x2095fb143613e109U, 0xd1ef02edff1f3423U,
  0x32c4331abcd301fbU, 0x810be50801fb53edU, 0x2c8641301e81cfeU, 0xfaeebb00d4fbd8e0U,
  0xf80c182301f8e8f8U, 0x3f80ff0fd04f4ecU, 0xecf4ec091001e5f1U, 0x1fefcf927fc17f2U,
  0x60208e8187f0408U, 0xf6f83ff915e914f6U, 0xb0006f7061d0ad4U, 0xaf10ae8fc08fc7eU,
  0x25f70808ec02f907U, 0xd402ee1cffee0511U, 0x1a2bc3000500fdffU, 0xc0cff02d0000700U,
  0xfcfb060efcd5e928U, 0xe7fafd100018f831U, 0x24dcf0ec0bf0f4fdU, 0x2fef709eaf5f50dU,
  0xed25e2010cf6f9f0U, 0xf3fdfafa09f9051dU, 0x1f4fb0803d91903U, 0xfc0716070323feU,
  0x1020bf9f3ef090eU, 0x14ff160bd0ebebeaU, 0xf10bf6f2f3fcf91fU, 0xef04f2e415ec0a16U,
  0xf8f9eefeeff9eb0dU, 0xf0ee07e10a142e00U, 0xfdec2306297ffff3U, 0xf20308011304efdaU,
  0x24fbcf00ebdf03e2U, 0xf9e415faf1e7121dU, 0x1209ee3504020009U, 0xc0e00fb1bf4dbecU,
  0x55f9fd36f7f87201U, 0x710ae7d2ec03102cU, 0x1631092824bd0310U, 0x1529e3f60c0125feU,
  0x16f920fd11d8fe2dU, 0x2814e1f62e0dfff7U, 0xfe2cf205f80cc909U, 0x2904f40a191710e8U,
  0xee0c1d97eef1f1f8U, 0xc9d8270bff37e009U, 0x22f9431619dc0701U, 0xb71724d19599f235U,
  0x4f01d23e2d48113U, 0xe819f2f5f31222c7U, 0xe721bce22805ed1dU, 0xc1ded2b03140122U,
  0xd120fadf28e426f2U, 0xe12f7faf5caba1eU, 0x9734361fb1af3cbU, 0xebe132342404b126U,
  0x35a2f7e30daf22aeU, 0x7f4ac5f8dce7b715U, 0xecb2ccc95b2c211bU, 0x61e1114da3bcbb9U,
  0x3c08071e34c520fbU, 0x22cff04a43a4eac7U, 0x1029cea6ffd12427U, 0x62ecc91f50e9062cU,
  0xc5162f1a0328b7b6U, 0x2b63b2473be4bcb8U, 0xecc418f714a8e438U, 0xa92012e438180afdU,
  0xe71ede4c0b0aceccU, 0x460ce91ff4e0aec7U, 0x7ce0fa3d16031ad6U, 0xf216ea18eaf7070aU,
  0xfb2fdde4eaff1faaU, 0x8031021c4ebddb2U, 0x62981b1a2c09ff2bU, 0xb6df0aeee0e1180bU,
  0x9bde60314f320f4U, 0x91620fa1bfdf6e7U, 0xf0469f191702a24dU, 0xb4be6190f81e028U,
  0x1cebedde170a0c13U, 0xae9f42e0832a523U, 0xfb0424fad10d60f0U, 0x2e040335c6b3e306U,
  0x250d4c333fdaeac5U, 0xdc9d03f0e01a0406U, 0x1de45afa060edb05U, 0xe3afecbf257fee13U,
  0x173416ef2d2b04daU, 0xeee090037e91fe9U, 0xc2fa0e10cf0e2902U, 0xf358e7ca394501U,
  0xf0ffe4ae44081421U, 0xf807e2d32cccdb1bU, 0xec35e201d5f40206U, 0x2045e79a211102ffU,
  0x3aed17c1f3bd111aU, 0xd9081ce5a1193e1aU, 0xeed0ce8f906ef95U, 0x19f8fe070ee4ffdfU,
  0x4c31e0160f0f2b01U, 0xda20bfe6e7f40301U, 0xe50b112aff5c0bceU, 0xff0af110ccddf323U,
  0x2eeada84f5fa3ffeU, 0xed59102aec1c98d3U, 0xf5063a00d74a2ba2U, 0x180f7f332b37ff11U,
  0xf33a2c071deb4cdbU, 0xd11ed5eef4dface3U, 0xf43debf1d757c559U, 0x12362522c1130d02U,
  0x17f60f9d283890c2U, 0x1032ef1fdf53ce39U, 0x2cf603d8f6af3212U, 0xbb24f8e4371007f6U,
  0xe307181502f2ea09U, 0xfcd738051c2bebf9U, 0xdf22072a094fff0aU, 0xcc15f4fc2624f31aU,
  0x200f08f81598eedeU, 0xeac4a61cf00cf2fdU, 0x5fc2b22fe1acf23U, 0x1fd210df01bf3d2U,
  0x16e5ecce098127ffU, 0x708ef1ffd32d1ebU, 0x14000b1c02431130U, 0xe2f7e5101dcfd001U,
  0x14dcfd0ed5e6f900U, 0xfe0ae803d5f90d12U, 0xf71e26cf13f102f5U, 0x1006daf7fd160203U,
  0x405e5f51e1df3f8U, 0xf7217f08140c000cU, 0x8f100241ec42102U, 0xfbea221a60160800U,
  0x1ae5130041db10edU, 0xe1df00f9ef07f60fU, 0xf3fb29d81bfef3e0U, 0xed07d5f3d2251b1cU,
  0xb6fbf2e1b3e4ecf4U, 0xeb1cf1fefafc3a38U, 0x152b2ee23df3ea3dU, 0xf30b0327feed28fcU,
  0x1603ceeaecf01d02U, 0x114061c05e21ac4U, 0xfb33e10005f3e6dcU, 0xd409faee0d2227faU,
  0xdf70a11122b1aeeU, 0xecec01fae6ec2b05U, 0x15e00ffe2612f10fU, 0xf91b1d0a3d04e31eU,
  0xcfcce490bfaf1eeU, 0xf61703f126cc0604U, 0x27194605adecf40cU, 0xf9e1e2ecf53df7e9U,
  0xf0d326d7cbefca12U, 0x29fed74524fcfb23U, 0xaf9fe33e7e9d911U, 0x511d8e6e2f8fa30U,
  0xc7fdae20ff423f0U, 0x38df32e5351106fbU, 0xefa1cc0cefd2729U, 0xce1810ede600e131U,
  0x102210f9effff90bU, 0x14cbfd0812100af4U, 0x12240feec929af2cU, 0x41b2622d22ce93cU,
  0xe309060be265bc0aU, 0xebf30410111cfa0aU, 0xe0deba9faebedecU, 0xf7ef013018ff7fc8U,
  0x1d01eff6f8c0f705U, 0x1d10effb4f908fcU, 0xd020fb02f5f4e508U, 0x130afc080a09f602U,
  0x4fc07f1fe1302e0U, 0xd2f5fee9020607e9U, 0x1a2af4ebe2180efaU, 0xfdde10220808f83aU,
  0x26ec39baf6fd0000U, 0x2d1117e6ed0b1aebU, 0x2328e30cfbba11d7U, 0xbcd10da3180f860bU,
  0xc811e9e022f4f2b3U, 0x3adedccf05415de9U, 0xecdf191903e91fe4U, 0x2bdfe0e9b81a0ff3U,
  0xc12cf3dc14ec0908U, 0xdbe3eefbedf1113cU, 0xd326e3cb021fee1U, 0x1e22ea02d6a823ffU,
  0x25020693f8dc81afU, 0x1b060ffef3d4d505U, 0x56f41627f5f9e4dfU, 0xffe7e96bb1b10408U,
  0x9fe0a0307fefff3U, 0xfb021110fd7ff9f5U, 0xfd04010504fb02faU, 0xf909f4050d0a04f4U,
  0x9f207fdf9f6050eU, 0xc11f3fbf21cfbefU, 0xfcfe0407fa00fc05U, 0x16faff0306fef2f4U,
  0x70af60a03f5f701U, 0x80000f1f4fb00feU, 0xf8f6f802f805efebU, 0xebf70f0104e80a05U,
  0xffe9f80102fa1505U, 0xfff0905e50ff8f3U, 0x11fef4e8190300ffU, 0xcf716fefefc0df5U,
  0x172cf506fe0321d2U, 0xfaf2ec4733b41ddeU, 0x9bdf9e2dfd91a4dU, 0x42130a47d3f4d41dU,
  0xc94737eef9112503U, 0xe7e915ec1c11bc05U, 0xf40181f910ee3113U, 0x51312de3ef4e5fbU,
  0x9dd918c0ff0feaebU, 0xedf12b0d3802095bU, 0x3ee93d90f42b19f1U, 0x66e813edc70fe7f4U,
  0xf9fdc1150a11f543U, 0x15eb1aef2929e6f7U, 0xe41f040b12dd06edU, 0x440332f500f416d7U,
  0xdce5f259070a032bU, 0xffd5f9af07bfa0e5U, 0xfb3d28f4aa25d421U, 0x1605f2f5fde15a3fU,
  0xfa2112caead4e43fU, 0xde1f8ededa1c4deU, 0xf327ad061cdad5e8U, 0x22fe20d0bb120fffU,
  0xa502fde453fdeae4U, 0xfafe0719f52c7228U, 0x41f1249b17a8fe13U, 0xb0fdbc3f5b81d807U,
  0x1d0574ae04e60dbaU, 0xc54b06b4f9012e48U, 0xe7e64b3b2b13e712U, 0xdcd9e0e1fa10ebcdU,
  0xfed8190dfffcf9f1U, 0xddf1ffbe180e1502U, 0xf1cf10fe19622504U, 0xeef804bd08c90c11U,
  0xe7ebfc06d71be8d9U, 0xfebc6a18252835f9U, 0x30e2de21df8ddfeU, 0x2f803ebe0dc15f7U,
  0x2daed0d172207ecU, 0xd603fbe90901e711U, 0xf129e516f0def4ecU, 0xfc11f0ffe417fc0bU,
  0x6073de9fe1ef4e8U, 0xfc0d1023e5cbee3dU, 0x1013fbf1e27ffe1bU, 0x2fde1010aeaeed9U,
  0xd800810a1309fde1U, 0xfeb90b49f9ff021eU, 0x1fe7f5ec49f9e942U, 0x4cdd4d2512d903e2U,
  0x18dbf4e6f903cc2cU, 0xe1e9f8c6e5fa0fbdU, 0xf813d8ffe710dd08U, 0xd9e4efdb1207462cU,
  0xee1eebdb291cece7U, 0x3a2c11d52d133033U, 0xf60b1be1ec19e5f0U, 0xda09f24c49ddcbf5U,
  0x11ef1bebdaa3b6dcU, 0x1dee2de3e1dcf9e9U, 0xec9f594e7e5fa03U, 0x1329d6d6bc14ebedU,
  0xfaf9020b0fee130aU, 0xfe01040203fcffe2U, 0xf5fbf181f9ff0104U, 0xfc0bfefb030fec02U,
  0xf701fd12edfffbeeU, 0xfefafb0b03fd110dU, 0x7f7f9f807fc080bU, 0x203fafaf3f2fa09U,
  0xf5f8050adf00f705U, 0x3fafe0d01f7f301U, 0x8040d0ffdf41003U, 0xfa0dfff70d0af5f2U,
  0x80efd0cee09f7U, 0x1ef0df8fc05f102U, 0x802eff6ff00ffU, 0xcf3ff05f3eafefcU,
  0xe9dded1ded0452e2U, 0x49eee2c0fdebd02fU, 0xef48111174f8d355U, 0x46de44fff0c8331bU,
  0x141421f803f1de0eU, 0x17dede0708fe1508U, 0xd8e3f5ee3354e6f1U, 0xf6100eebcd154adeU,
  0xdd000af72bf812faU, 0xee0d0adb59f60fe8U, 0x1f004bcfdb09f82cU, 0xfc01e91edc280019U,
  0xf9f6e8f5cadadd5aU, 0xea4100a5f8fc06e4U, 0xeddef30b1feafedcU, 0xcc0b2b0afa7fec69U,
  0x1bb60000483fU, 0x3c7000007077U, 0x13588fffff095U, 0x25dec000041b4U,
  0xbc4b0001151bU, 0x3ccf00000423U, 0x7cf70000ee53U, 0x8db00006b60U,
  0xace700000dfdU, 0xc2bcffff1b1aU, 0x21670000ca12U, 0xffff9f1100004216U,
  0x12a54ffff137aU, 0xffffdfbd00000732U, 0xffffc84600008645U, 0xcfff00001a07U,
  0xffffd6f00000ed38U, 0x17e04ffff7f6bU, 0xec50000045e2U, 0x6994ffffd0c4U,
  0x4d12ffffd9e9U, 0xacc200007159U, 0x234560000ceacU, 0xffffea5c0000d21dU,
  0x62c50001936dU, 0x4c5e00006fd4U, 0x4abd000024f1U, 0xffffc57e0000c385U,
  0x30d900007565U, 0x1f669000212b2U, 0x4854ffffa13aU, 0x90c000019b8U,
  0xffa6ffffd915U, 0xb575fffffab2U, 0x9f2d00008e19U, 0x699cfffffd3bU,
  0x78fa00014c5aU, 0xec3200004786U, 0x945c000048aeU, 0xffff0798ffffd7c5U,
  0x3f0c00009c45U, 0x19d2400013a3eU, 0x47e90000c9f7U, 0x270e0002efb9U,
  0x98bd00014d08U, 0x1d630000aa86U, 0xffffffd80001fc96U, 0x294800014d20U,
  0x6c1f00012425U, 0xa5d500001ba3U, 0xffff47bb0000d19eU, 0xb98700016d17U,
  0x136fa0000a2feU, 0x3d0900008e5bU, 0xffffefacffffae1fU, 0x1090200003169U,
