/**
  ******************************************************************************
  * @file    face_detection_data_params.c
  * @author  AST Embedded Analytics Research Platform
  * @date    Tue Jun 20 13:25:11 2023
  * @brief   AI Tool Automatic Code Generator for Embedded NN computing
  ******************************************************************************
  * Copyright (c) 2023 STMicroelectronics.
  * All rights reserved.
  *
  * This software is licensed under terms that can be found in the LICENSE file
  * in the root directory of this software component.
  * If no LICENSE file comes with this software, it is provided AS-IS.
  ******************************************************************************
  */

#include "face_detection_data_params.h"


/**  Activations Section  ****************************************************/
ai_handle g_face_detection_activations_table[1 + 2] = {
  AI_HANDLE_PTR(AI_MAGIC_MARKER),
  AI_HANDLE_PTR(NULL),
  AI_HANDLE_PTR(AI_MAGIC_MARKER),
};




/**  Weights Section  ********************************************************/
AI_ALIGNED(32)
const ai_u64 s_face_detection_weights_array_u64[9069] = {
  0x3e9c93b540276cfeU, 0xbf13aec33facaaf8U, 0x3f6cec0e3fcba145U, 0x406248cb404766b6U,
  0x3fec2929bedb6ac7U, 0x3f5e5a853fb5ab78U, 0x409a117c402e13ccU, 0xbf3f13e3be1f5f58U,
  0x4012be6d400e310fU, 0xbdf264d03ede8718U, 0x401c9a98be7b68f1U, 0x3f4a8ca43fba3489U,
  0x40058f1a3fe227d1U, 0x3f70cc2f3fb6f4a9U, 0xbc11f07a3c5bca34U, 0x3ff0fd783fbd3977U,
  0x3f87f78f3ffcd4acU, 0xbe8a1fcf3fd3a020U, 0x4027520040103537U, 0x3f7e77e23ef07e69U,
  0x3ff21ec73ef9faa2U, 0x3f44f2bd400ae276U, 0x404efc593f9336e2U, 0x3fb670774036ea15U,
  0x3f6146683fcca9d2U, 0xbf23b8103e00948cU, 0x3fce8fd1402c10e1U, 0x3fed00694017e1e5U,
  0x3fdfff1dbde0b9ccU, 0x3fcfd4b53f45b65eU, 0x3fb2ae563fd5f73fU, 0x403176033f8d4a0eU,
  0x3f90b5773f86bd49U, 0xbeb0d5933ff9d257U, 0x3f9274f7402b7fdfU, 0xbefc710340011cbaU,
  0x3fa891a6bec988dbU, 0x3fa2cecd3ed9ecfaU, 0x408ec67f401751cfU, 0xbfa2f9a63fd4379dU,
  0xc002b5da3f865452U, 0x3e7b6354bedccb45U, 0x3fc6bf093fcce4a0U, 0x3fadf7513fcc18beU,
  0x3fcb853b3fd19b13U, 0x3fd21e303fb05e69U, 0x402f53c7400591b3U, 0x4053b74bc03a0ddfU,
  0xbeb66840bdffdf66U, 0xbe9298343805cf48U, 0xbe2b48b83f6c225aU, 0xbe4de382bcdcf922U,
  0x3d17e312bd74de5cU, 0xbcaf365c3d8185bfU, 0x3f3efca43eb2491eU, 0xbe5b1a473ec5cd2eU,
  0xbe386d4dbd1cd096U, 0xbd95dd02be4789caU, 0xbe304bf9be663d8dU, 0xbebb9d993f9d7e18U,
  0xbe806ae8be4aedcdU, 0x3e20d94dbe794bb0U, 0xbddf4e343c7eb238U, 0x3e3ecf9c3d77e95dU,
  0xbdaeb0bb3b86ed33U, 0x3d27596f3d1bdcc6U, 0x3eacec21bdca2b98U, 0xbf0bca263d1c3951U,
  0x3f5178e5be937e3cU, 0xbe936e1dbcf13fc7U, 0x3e20625c3da557c0U, 0x3e246e3ebd7a5e96U,
  0xbf6fc818bdebf486U, 0x3dd92e7c3f08bd0dU, 0x3eee092e3f0b80e7U, 0xbdf19af0bf4a583dU,
  0xbe05f0593f02f14fU, 0xbe75bd7c3fd4de6bU, 0xbea043a23f041e44U, 0xbe36f945bf0adde3U,
  0x3d852205bedc7e12U, 0x3d9e622dbe133143U, 0x3dd18ad63e20f345U, 0x3d15d52d3e561622U,
  0x3e6db5353dd5d125U, 0x3e2b4968bcca1c2bU, 0x3cfe27d93f425398U, 0x3d133c493bc17254U,
  0xbddcb6703cce61d5U, 0xbd12670d3e6b1a63U, 0xc011bae13fda6665U, 0x3e50e7fb3ede7a0fU,
  0xbd961e25bdb328e0U, 0xbf56ad3d3f23591eU, 0xbe97b89a3cf9e75bU, 0xbdbe394a3dc454bfU,
  0x3eadcc53be091d8fU, 0xbdd4e4adbc0dc807U, 0x3f6aee71bd94595eU, 0xbfee7124be9fad3aU,
  0x3f4c7f82bd73aaf7U, 0x3e6a3bf2be20d38dU, 0xbd94af573c7a5bc6U, 0xbe096125bb0eb189U,
  0xbdf10959bef361b4U, 0x3f1498583de6150cU, 0xbe1171363d6c667eU, 0xbe498992be4d3168U,
  0x3fff7c62bed02f3aU, 0xbf09b341bef265d5U, 0xbf443633bdc1d007U, 0x3d3af2a0bc91fc16U,
  0xbd1e7eaebd9ef118U, 0xbdb634ea3f83f7bbU, 0xbdf4f940bd21290aU, 0x3ebfaf1cbd7a751eU,
  0x3d1757b13f2ac286U, 0x3f6225283ee6fa92U, 0x3d6aef8bbd81cb2eU, 0xbd952605bdcf28c6U,
  0x3d91585a3c83e3d8U, 0x3f0c1771bd827707U, 0xbeea1809bd8b9d9dU, 0xbc15dc7b3e32f4eeU,
  0x3e61ff6cbe48e82cU, 0x3e51c016bece942aU, 0xbfd35d5dbe98b797U, 0x3d3f91e7be8d326dU,
  0xbda12c74bf0428e5U, 0xbcedbf6cbdc339b6U, 0xbe892a80bd0f44b6U, 0xbebaf356be31022dU,
  0xbe32a6a63c330915U, 0x3d42b07e3d08f029U, 0x3e1ff2bebe0e3d0eU, 0xbf99aa97bdf36627U,
  0x3e4e119e3eb0d30dU, 0x3e314d6b3e5e0bc1U, 0x3e1915983e14282dU, 0x3dec44803c88efffU,
  0x3d86c7893e7c8163U, 0xbd407c06bc9f2a9eU, 0x3c0742eabd2f0cebU, 0x3e31c4e9bf3798c4U,
  0x3e3174a4bf6ad624U, 0x3e6450793f0e8919U, 0x3d0669a23f0f09d1U, 0x3f3c51763e360247U,
  0xbe23c14e3e167720U, 0xbd8de620bec4744cU, 0xbe805931bdbf3217U, 0xbf01f8aebdfd8f53U,
  0xbefae7f63ec84332U, 0x3ffa201e3e7ee0a7U, 0xbebfb05fbfe1be96U, 0x3d768718bfd63be1U,
  0xbf10fe283c97bc56U, 0xbeac9ccc3bab0e73U, 0xbea48c303f981255U, 0xbedfd6233c2ab32bU,
  0x3e297d92bd2813e0U, 0xbe956c2ebe920117U, 0x3f920a43bed84af4U, 0xbe60cf55bebc902eU,
  0x3e2c91f5bed8bc82U, 0xbf1cd49f3e8067d3U, 0xbf3c15503d6d28f0U, 0x3f389f71bea48e37U,
  0x3f154e7f3d49c8f8U, 0x3ed2ccc1bc83cb84U, 0x3dc94adcbe02ff6bU, 0xbf8659d7bd3e8762U,
  0x3cec26de3f14efb9U, 0x3ecb494f3f10ff0aU, 0x3e22a4443df3cdb8U, 0x3e67d1a7bcdae5aaU,
  0x3d98a0d63f3ed33fU, 0x3da21f0ebd3cbc9aU, 0x3d806af23b251af7U, 0x3ca439433e36bcdeU,
  0x3f222a223e3d7e94U, 0xbd097b353e4043d9U, 0xbcf0aef13e5a0ec8U, 0xbe85eac33e00ccc3U,
  0xbe89ca623e7a6e65U, 0x3ec228e5bf2e7d73U, 0x3e91d4183e85d825U, 0x3ec1fdc13e36b7d0U,
  0xbf14e48a3e0e929fU, 0x3f734d4c3e58482fU, 0xbf12164c3d803ae6U, 0x3e67bc9cbc7bca60U,
  0x3f19f450bd452facU, 0xbf2652833e5771f9U, 0x3f210e7dbd49b048U, 0xbf216444be51012fU,
  0x3e40d1803dc8d102U, 0x3def174a3dacc29cU, 0xbf5dbc56bf00ab86U, 0x3ef3e79bbe9f6a0aU,
  0x3ea21af33eebef31U, 0xbdaf9b913d3a87c4U, 0xbee2ec803da317a0U, 0x3f7c58babf6b180bU,
  0xbd9e05e9be696963U, 0xbdc721793e2ccbfbU, 0xbe135991bc366d35U, 0x3f50aa1a3cadf6fcU,
  0xbe28a7debc90d3c9U, 0xbe13cd04be1c3abcU, 0xbedf8e6f3d861c2bU, 0x3f9254933e50840cU,
  0x3f79f608c0106037U, 0xbefc98f53f0a68b5U, 0x3e6be150be001dc9U, 0x3cbc1ea63f1a8a2dU,
  0xbe5e0548bc6427cdU, 0xbe289c903cccb3dfU, 0xbdfa74adbe0195faU, 0xbe0b9f07bdfe2b15U,
  0xbdccd3bfbd8e11bcU, 0xbe4ec0963e4e2436U, 0xbe8d1870be0828e0U, 0xbe4174fabd837c3eU,
  0xbe1e9f04bf633faaU, 0x3f436f3a3ea46e3aU, 0x3df1de483dbd77c6U, 0x3d37b725bc374206U,
  0x3da8135d3e3133afU, 0xbe2174693d847711U, 0x3e94038abf858d7cU, 0x3ec155bf3da984e7U,
  0x3dbc7d483dd733d3U, 0x3ce0add9be58847cU, 0xbfbb26de3f800426U, 0x3dfb16cc3e889820U,
  0xbe0ac150be0c2f96U, 0xbec45bd03ec08d01U, 0x3cfee4cfbe539477U, 0xbe9f41c33fdef889U,
  0xbe360d53bee6ef15U, 0x3dda3f7f3e8e555fU, 0x3d74259a3dcd3d1aU, 0x3f5865dbbc8a927cU,
  0x3deab1fe3bdc504eU, 0x3d64661f3e698e1bU, 0x3ebfb8f3bf281eb4U, 0x3e8b29af3e4596dcU,
  0xbe399d4c3f7cc7d2U, 0xbe5c41a73db88bf8U, 0xbdf74fbebf130ae2U, 0xbd8597a6be8efecbU,
  0xbe8a0952bdfba0d0U, 0xbe36ed9dbdf3812bU, 0xbd95aadebdd1d866U, 0x3f92a9b63e699b87U,
  0xbde2bb183e34479fU, 0xbe000e26bf780410U, 0xbe2231e4bdcd6fc9U, 0xbd116739bdf1ba6cU,
  0x3c518606beb82fecU, 0x3f86bb7dbe82c69eU, 0xbb38d1bbbeb0d1e6U, 0x3d2a4edebec92017U,
  0xbe62f020bcf07c22U, 0x3ebea74e3cb6c0f7U, 0x3e7302f6bd1dee66U, 0xbe342889bcc792b3U,
  0xbe0cd358baffb6d6U, 0xbd291ad53ec4b111U, 0x3f70fbd13eafd461U, 0x3d50c74d3e07c090U,
  0xbdcbd3243e46252fU, 0x3ebbc813bd34ce1cU, 0xbd001b193d5bbdedU, 0xbdb036a0bf6fe6a1U,
  0x3efda8d03de7fa19U, 0xbd15e3f9bb4cba3aU, 0xbd0578773d244ce1U, 0xbf3e5a603dec7c1bU,
  0xbd4ee2623e657df1U, 0xbd08b3603e0d1578U, 0x3eba06353ee78e75U, 0x3ed1810d3d196c5fU,
  0xbd68eec7bf943398U, 0xbdd250573d812213U, 0x3d711a1fbdb019a3U, 0x3d67d9f9bf1e1f0cU,
  0x3fa18f0a3dc57c4dU, 0x3c9d2e05bd276d94U, 0x3db736ddbf48ebfcU, 0x3e894489bd9270c9U,
  0xbea23878bd475790U, 0xbf24d8563f89a8c1U, 0x3e85df28be41053fU, 0x3d36a0dabe0f3057U,
  0x3e1e50b83f87994dU, 0xc01b5605bea3a949U, 0x3dfe2d60be879896U, 0xbdab07923f806bd6U,
  0x3ee922d5bcb35ff2U, 0x3ec6b6e4bda5aa1dU, 0x3e95371e3fc1ebf2U, 0x3e5c35b1bc213823U,
  0xbe9e6c08bbabd598U, 0x3ecf0f153ec2c6ecU, 0xbf9305333dd4b1c7U, 0x3ecbf0913e3b9b6fU,
  0xbee09b193e729842U, 0xbecd79f53de446eaU, 0xbefbcffc3ce9d523U, 0x3eff624fbe26a387U,
  0x3e9833f3be450e3dU, 0xbdc3256e3d1be57aU, 0xbb4c5dab3e850f3aU, 0x3e01736b3ecafb47U,
  0x3ddfd436be8be96cU, 0xbdacd14bbe2ea14aU, 0x3fce07d03eb6c2a2U, 0xbeee318e3e1099f2U,
  0x3c8260bcbfb0d470U, 0x3e6defd5bd9185b2U, 0xbcce3c7cbe93a135U, 0xbdde79aa3e3e8cccU,
  0xbe1c8ae9bf0062f1U, 0xbda58ec73f342b8bU, 0x3e896d5cbea44f8eU, 0x3ca756433fb35f00U,
  0x3e6ab4af3c8b2546U, 0x3b4d03f6bf4b54aeU, 0xbdc0f0c13d42fc6cU, 0x3e15a9c23da189cbU,
  0xbdbca43fbddcf537U, 0xbebdfc133f2fd816U, 0x3db7dafcbe401bf1U, 0xbe1f61eb3b25098aU,
  0x3e938455bdc32633U, 0xbecfde67be33025bU, 0xbf3e0f7d3f5bb6d9U, 0x3de97265bd5faeccU,
  0xbda4bad7bda2966cU, 0xbe045b0cbe8cd4e7U, 0x3f6c7bc5be81ccbcU, 0xbd905ee8be4d8a29U,
  0xbc8960e8be3ec067U, 0xbeb518da3d149359U, 0xbe9c59783ddfbee5U, 0xbe87cbb1be72d439U,
  0xbeebbc413dafc150U, 0xbe0c4fe43e00f1d1U, 0xbe0784833ae7a27aU, 0x3eaec0383eaedf53U,
  0xbe1475323e898fccU, 0xbe14b97ebe18abfbU, 0x3f02554b3f6d2956U, 0xbef3a8c5bfb7ffabU,
  0x3e5b097e3fdcaf36U, 0xbe186953bf403f87U, 0x3e9802e53f262011U, 0xbd7dbd2dbe7ce248U,
  0xbf6258d83f87dd96U, 0x3ddb2b96be108704U, 0x3d6885edbe5e574eU, 0xbe082922bb32aeaeU,
  0xbe2ccd223ea712ceU, 0x3f5f1ab1bf7c4d09U, 0xbef8f2b7be3ff704U, 0xbcd42d823ecf631aU,
  0xbd8762373e566056U, 0x3f0a55c53e722429U, 0xbd2dc47c3de3efabU, 0xbda9025e3dc5a129U,
  0xbe6f2d533ed2978cU, 0xbe42ca4fbf2b5831U, 0xbdffdc63be6bf9c5U, 0x3e3b6744bf1a580cU,
  0xbe3f54aa3e0df9e4U, 0xbe0d2f68be890601U, 0x3f3a0ce8bea6675cU, 0xbe3f48b8bea7bad7U,
  0xbea89dd9be87bc64U, 0x3f38df173eec3acfU, 0x3e72dc08bdbcea64U, 0x3d8e5461bf5ee8e8U,
  0xbe59382ebca5d650U, 0x3cb9b5c3be059433U, 0x3e0becdbbd385075U, 0xbf8b4f913d6972a1U,
  0x3e1229613ec76078U, 0x3e397513bd78838cU, 0xbf249fe73eb81e4eU, 0xbf406a823e7a819bU,
  0xbf194fd7c02d1fd3U, 0xbf78c7d73e934fb8U, 0xbe9130913e63b8eeU, 0xbcc2940fbe00e432U,
  0x3e902c48be1fb6f7U, 0xbccad396bc9664deU, 0x3cda8fe33d701145U, 0xbeadf0ec3ea3270aU,
  0x3fac396b3d7f0b16U, 0xbef34504bf4e02f9U, 0xbf16cd3b3f203318U, 0x3f4fbea3bd7a6f7dU,
  0x3e242aa53f432770U, 0x3fd186d23f17f595U, 0x3e5c2da3bcd2aca5U, 0x3e95e40c3d5e7de0U,
  0xbec8023a3c6d72b1U, 0x3f455d12bdb2c2e2U, 0xbe8e9d91be7fc161U, 0x3e97b6b43e0e6eb7U,
  0x3e38f63fbe3225a2U, 0x3e7e24b93f351288U, 0x3fb6b59b3edad003U, 0x3e72d00b3d827e0bU,
  0x3eb9e25f3edcd74aU, 0xbdec2da53f446455U, 0x3d1257ebbe619541U, 0x3e988cc43ef62662U,
  0x3dd534b7be78cfd7U, 0xbdc2e88e3f065bd9U, 0xbc111cb63d6e7402U, 0x3f5ddd66b91c0869U,
  0x3e05a53e3e3cda9aU, 0xbdb088143da6df89U, 0xbd6e7ced3e4af6faU, 0x3f26ac59be53e3daU,
  0xbeea87f0be49de74U, 0x3cf468cc3d8bacf9U, 0x3dc9f9eebdb8e639U, 0x3d8d6e6d3e28443fU,
  0xbee513bc3dc5e316U, 0x3db63d8b3df2ff19U, 0x3e4633de3e5e786eU, 0x3e942e35be07e9c2U,
  0xbef94edd3e07845eU, 0x3f259c21be03ead9U, 0xbef72810bde206f9U, 0xbe0c9c603e4fd6a2U,
  0x3e890341be9ae31aU, 0xbf4a141e3eb32de9U, 0x3d8d3de6beb415fbU, 0xbd9587723f6fd27cU,
  0xbe61109d3e952c59U, 0xbe951ddbbe6327ceU, 0x3e7e6732bf82df1dU, 0x3df098973d035109U,
  0xbd0b503a3f62c203U, 0xbda538c53e76ee73U, 0xbf16614ebe27d2b9U, 0x3df15ff3bdcdda2bU,
  0x3d7190423f1481b9U, 0xbdb9f495bdd43ddfU, 0xbf32f7323e2523c3U, 0x3f5ad77dbe1df75bU,
  0xbe6347623e196f8fU, 0x3ec4c3783c899328U, 0xbd48c4293eacccc6U, 0xbf18633e3e3d63d5U,
  0xbcc67d9ebd3734e8U, 0xbdad6628bda31a7fU, 0xbf3f287bbb1abbcbU, 0x3f0d56273dd46ee3U,
  0xbf25b720be012e18U, 0x3f29b7b13ddf9ffaU, 0x3ec43e973d998eaeU, 0x3e0bceefbf0a1b42U,
  0xc0159d3a3febefa0U, 0x3f3c8be63f1d6c5bU, 0xbec3b241bec2a0a7U, 0x3fb642f4be1111f7U,
  0x3fd4c5dfbe2c40c9U, 0x3fef857fc0ead869U, 0x40304087bec8c475U, 0x3d2a7303bedc94a0U,
  0xbe247989bedb1035U, 0x3ece1840be4d4515U, 0xbdda2f583d7f22b8U, 0xbe2dbb7c3e9071cdU,
  0xbfa1c7e53fe29160U, 0x4009f2d33f206070U, 0xbf45903fbe7c3a1bU, 0x3e90b5e2c06cd7f1U,
  0x3eba1a8dbee193a1U, 0xbf135c1a3f147bc1U, 0xc031348a3dbe079cU, 0xbf5da1ea3f676640U,
  0x40a0f3f1bd1b1b00U, 0x3f1237aa3fd5f59aU, 0xbec270263df42450U, 0x3cc45d803e09dde8U,
  0xbeabb9fe40664367U, 0xbf1cda2ebdf997f3U, 0xbf61b214bf510528U, 0xbfcd98393f63dc10U,
  0xbe3748683de7237aU, 0x40144938be9ba1fcU, 0xbecd9d083f41db2cU, 0xbc7702203f864327U,
  0x3ee7e946be0a3d6cU, 0xbfa166f6c05c0610U, 0x405e2a57bfb3f0fbU, 0x4052d4b83dfaac7cU,
  0xc011a108402870ffU, 0x3fa64a903d26b510U, 0xbde0fd2e3fd39120U, 0x3f7a8699bfa8eee8U,
  0x3e8bcf22c0708b84U, 0xbf0430b83e1355dbU, 0xbda265f1be5496f8U, 0xbccfa534c05c6674U,
  0x40338c123e9c1467U, 0x3fe30e34401f8e93U, 0x396b4800c0857287U, 0xbdd2c7e2bfe065f2U,
  0x3fb1a85940b96a38U, 0x3d7104d83ca28dbaU, 0x3fcece34411463e0U, 0xbff27aacbdceb818U,
  0xc00b8fd0beabf704U, 0xbf16d1333dfb10f0U, 0x3e979f463e10dc69U, 0xbd4246e83dce3ab2U,
  0xbea6cb9c3ea5bd66U, 0xbd91ecee3c83ccc0U, 0xbe2ca0d43ca4a44cU, 0x407686283fa235d7U,
  0x3eb7df07be6b6a5dU, 0x3f1daff9be17fb54U, 0x3fb8345d3f63afb1U, 0xbec0dec3bee0bf47U,
  0x3e6488333f574577U, 0xbcd9c7b53e0b864cU, 0x3dbbaaf2be439016U, 0x3fb2b8973ec82939U,
  0xbd974b6f3e3ac4bdU, 0x3e078155be6fa631U, 0xbf75840e3fe5c110U, 0xbe4b4b373d25304fU,
  0xbf351832bebf772aU, 0xbfd64535bf400669U, 0xbd0215173bcafe9bU, 0x3f58b5733f5187abU,
  0xbe257915400d61f9U, 0xbdce4cbe3d55d4c1U, 0xbe449b9e3e223390U, 0xbe587c41bf013fabU,
  0xbd9ed47ebf005dd4U, 0xbf0216323f06529fU, 0xbf0f7a6c3dd5819fU, 0x3f274865bdb04c46U,
  0x3eb79697bed942c8U, 0xbe0da2c73c13742cU, 0x3c0843c5bf2fea40U, 0xbe0c35fb3d72235bU,
  0x3f0b8da93f4b0af4U, 0xbf3d722cbe8831d6U, 0x3f0129a4bf916352U, 0xbe27b05ebec341beU,
  0x3e6182d93d2d4285U, 0x3d4736fa3f81e718U, 0x3d56859e3ec0b5f2U, 0xbf104080bce0d45aU,
  0xbea45e1fbf9819e9U, 0x3b8a7226bebf2f3cU, 0xbfe50532be7a1adbU, 0xbdb1d9c03e2a2b5bU,
  0xbe425aef3f6dba50U, 0xbf762b44bf723f46U, 0xbe73d01f3e9190c0U, 0x3e9396c53d0a22e4U,
  0xbdf44829be34220eU, 0xbf0cf5133e6f5632U, 0x3f0e281b3f1a5c46U, 0x4018ac3cbe598293U,
  0xbf92ab983f1cdd5bU, 0x3f5d2dc73f046474U, 0xbf6a5cbbbd808a2bU, 0xbf1fcbde3caa2006U,
  0xbf6b546fbeb482bbU, 0x3dbbe62bbde88f07U, 0xbf616f3e3e3a4414U, 0xbf2fb59cbebbecb1U,
  0x3dd53221bf9385dfU, 0x3eaf329d3e7dfd03U, 0xbfa23409beb96362U, 0x3ebd2315bea9d7c3U,
  0xbf0174133fadd7c8U, 0x3ea923f3bf22db5aU, 0x3f8170a2be7ac25cU, 0x3f3386d6bd1a1c75U,
  0xbd3ebb763e8cc02aU, 0x3e1949c6bf165c10U, 0xbe88be74be504b6fU, 0xbe95746f3f4040c1U,
  0xbf554826be37f94fU, 0xbe82ecc93f5d41f3U, 0xbcde331bbf28935fU, 0xbd7c91a43ef9599bU,
  0x3dec4e2f3eb52ebfU, 0xbf2278353e4c6e80U, 0xbf6cc1303f57acc5U, 0xbea7f77a3ee295afU,
  0x3d8c76263bc27a0dU, 0xbf7b6d01bec57bf8U, 0xbf0c755a3ec2af8cU, 0xbf0a61793dc14102U,
  0xbf82a566be8c6595U, 0x3f1e7b483f08136eU, 0x3f04abc83ee5e567U, 0x3e44559bbede80f4U,
  0x3e878e1fbfad4412U, 0x3f13e90ebe32927cU, 0x3f5af0713e51ce54U, 0x3dd5c5653e4ea07eU,
  0x3de71f843ea6061bU, 0x3ef2ed5fbf460a9aU, 0x3f2599ccbf809f9dU, 0x3f37bd30bdfbf94eU,
  0x3ea4465bbf01d801U, 0x3e16dfb03e005b98U, 0xbf0c1a74bdd8f865U, 0xbe56d2db3ea5afa6U,
  0xbd04e4a93e81645dU, 0xbe2c09603e1b16f3U, 0xbcba535c3e1226a5U, 0x3f1f65bfbdd3690eU,
  0xbdd81cc13f2c7945U, 0x3f3b09663d6032eaU, 0xbc23e4ddbd58a6beU, 0x3d838a763f01dbd4U,
  0xbe29ff4fbe4210d2U, 0x3d88c1543e881f1aU, 0xbf081de7be7023c3U, 0xbf3a45b0bcfb8fdbU,
  0xbe3b9e7cbd0bf629U, 0x3e90489dbe778f49U, 0x3e1ec77ebea9364dU, 0xbf2140433fa99899U,
  0xbf4d4a873e893b32U, 0x3f1034a6be916094U, 0x3fb6620b3e57457bU, 0xbeb50718bf28335bU,
  0xbe88008b3da01f66U, 0x3e8fa857bbd769e3U, 0xbef7c15ebed420d2U, 0x3e21ab9bbf4642fbU,
  0x3e5729f93e50f701U, 0xbe90b65ebec4a3c2U, 0xbdd95d553d3f36eaU, 0xbedaa2bcbcd45b87U,
  0x3cf615c8be74f5fcU, 0x3e844b47bcbe949dU, 0x3e3047c73cee4573U, 0x3f898bf23f4ae761U,
  0xbf4f86e6bd82126cU, 0xbf2c0c433dc4be04U, 0xbe24b9b9be0ad6e6U, 0x3e0ff6aabdcf68b3U,
  0x3c20085ebe8d8adbU, 0x3e2f10b9be709d22U, 0x3f34bf523c6575e8U, 0x3ea7db923db0b31eU,
  0x3f853d2b3e1813acU, 0xbe7c9cee3eb26fadU, 0x3dd2d146be8eb806U, 0x3dcf76773db50081U,
  0x3e0dc8e93e1b087aU, 0xbefd35b2bdcc88faU, 0x3e0693d3bef8b7ecU, 0x3f32c30cbc937101U,
  0xbe4fc3e4be63ab21U, 0x3e74e7c5bebd7b8aU, 0xbe34e4f33e349476U, 0xbec16325be0613f9U,
  0x3d96638ebe69a54cU, 0xbd3f91de3dc9700dU, 0xbe17c4f73d4dc034U, 0xbe8f74f73f0be540U,
  0xbed5d7ca3eb46376U, 0x3d7dd1703d8dacdaU, 0xbe3f4b53be68ec4dU, 0xbccfd1e33c4cfc29U,
  0x3e03311f3b15512aU, 0xbd905933bd274ceaU, 0xbeea23e63e5054ddU, 0xbe764fdd3f148322U,
  0xbcc3bcea3d34360fU, 0x3f032804be683a57U, 0xbdc434eabe2bdd95U, 0x3e41e07c3dbd826aU,
  0xbf2400b1bda871bfU, 0xbe4e624d3e8cd461U, 0x3c24bdedbe173b81U, 0x3a73e1a4bd895083U,
  0x3eff1c58bf8f78e6U, 0x3e6fa720bdee0b0eU, 0xbee5c78cbf80bdb7U, 0xbec8ba51be9bcf7eU,
  0x3e4e4d403e549dd4U, 0x3f0f73e7be8af780U, 0x3e10013fbc532ee1U, 0x3dcb4e343d899bc1U,
  0xbf5ec1f9be1fd4b0U, 0x3e1a233fbeca18b1U, 0x3e040e003ea239acU, 0x3e6dd847bcec3fafU,
  0x3d1f4901be91bb96U, 0xbec816043c6caab0U, 0xbf255f90bee84189U, 0xbeb7dcbd3e83c73fU,
  0xbe7fbb39bc2a9e1bU, 0x3f45f9883dd8e6d6U, 0x3f2733a63ec104d7U, 0x3e7574c03ea0ce69U,
  0xbe14ae6a3e6214cbU, 0x3d085f3bbc271c9cU, 0xbd395968bec08c30U, 0xbead74e6be60e0d7U,
  0xbef2262e3c51ee3bU, 0xbf9ee7f53d73a64fU, 0xbe5167483e0b3a2cU, 0x3e0e183cbf2ee354U,
  0xbf15b7e4beb696f8U, 0x3b927fbdbde6d0f7U, 0x3f89faaebd4ae915U, 0x3e2b8e90bd9875b7U,
  0xbe475a073f4df75cU, 0xbdea72c63e697e73U, 0x3e69197fbda607feU, 0x3c8bfe943f51ee8fU,
  0x3e0463bdbe7b2fc3U, 0x3dee20ac3e951a8bU, 0xbe21765c3ca01264U, 0xbe67ece53d0a6894U,
  0x3e6b36c1bf1db366U, 0x3bf21a873c0d3a69U, 0xbe61cedc3efeab08U, 0x3e35b88b3df3e2a7U,
  0x3e5d8c0f3eb2b20eU, 0xbf0375c9bfbde12cU, 0xbe82ae8c3f006db1U, 0xbe94bdf8bd277eaaU,
  0x3f7ef0113e8e9cdeU, 0xbd6bb5c4be0396aaU, 0xbe87e803be535f61U, 0xbd4da2913dd07840U,
  0xbecaab61bd3b00e5U, 0x3f0e52b13e22c643U, 0x3d84b45f3e749de2U, 0xbe88f85b3d855916U,
  0xbfd843ba3f4c4fb8U, 0xbeaa66c53e2ffa72U, 0x3e1ef850bf232084U, 0xbe21926abe49e2caU,
  0x3ef99b213df1172fU, 0x3f05990bbe5cc2fbU, 0x3f627207be49499eU, 0xbebee9cf3f7808bcU,
  0xbdddb5a7be653111U, 0xbf2195ea3fd6752fU, 0xbeade4623f1e99a9U, 0x3c876c29bc9bcb53U,
  0xbd19a4e23f8c9b39U, 0x3ebefa2bbd71d2bdU, 0x3f0a7177bf20cc61U, 0xbf1766993cb471b8U,
  0x3d5beb44bdcc0cd5U, 0x3d72d5853e17e263U, 0xbe8741903ca8a6e6U, 0x3fc0ff253e25c43cU,
  0x3c94031c3f6a91baU, 0xbf42b2d6be69b1ddU, 0x3f08cbe3beb8b558U, 0x3ec710e83f234ffbU,
  0xbe10c693bd8b93cfU, 0xbf0cf10a3d736896U, 0x3c9d26b5bf2bfdb1U, 0xbf39762c3c6de27fU,
  0x3e4945543e6e8f31U, 0x3f9a58b33eb2c3d0U, 0x3d829c153f9f108fU, 0x3f4574c93f5e0726U,
  0x3eeefabebf5ccbb0U, 0xbdb78f4f3dddd38dU, 0xbf515b88bf266c33U, 0xbe321db1be97a300U,
  0xbebb7651bf4d864dU, 0xbe3bb5c83d54446aU, 0x3e1407833f885ae4U, 0x3e816e393dc32cb8U,
  0x3e57477e3e059325U, 0x3e1ff108be047d46U, 0xbe821d22bed49561U, 0xbe3f1d66bddd528aU,
  0xbe7391bbbe88daccU, 0x3f40377fbe3dd46cU, 0x3e461f0bbf503644U, 0xbf160298be2f6ca0U,
  0x3e85c2fd3e29b09aU, 0x3e84d938bea97cf1U, 0x3f173d0bbcab93ffU, 0x3dce77433d107cf3U,
  0x3d830c283e02fb90U, 0xbe282e553e8b87e9U, 0x3ec01c52bd60dc9cU, 0x4005c7343dc65487U,
  0xbf0f75d53e50f792U, 0x3f370c263f181924U, 0x3d4faf243d2922e8U, 0xbebc9a4a3edfede3U,
  0xbda7ab9dbe220c06U, 0xbfe97fe73ec20678U, 0xbedd2689bea66171U, 0xbfeffe12be18929fU,
  0x3e1abde9bec3aeddU, 0xbf3829683c09aad8U, 0xbec45cdbbb90ba6eU, 0x3d7967babd5c2f41U,
  0x3e8345abbc788cbeU, 0xbde0267abea4fc13U, 0xbf5835153f08cd7eU, 0xbe99eeae3eb240b0U,
  0xbf6a24a0be348950U, 0x3da031273eda2160U, 0x3e3e5e46bd627c55U, 0x3eff5051be88c748U,
  0xbdbd30933fa245f4U, 0x3dbed031bd208136U, 0xbe2d16093ee42155U, 0xbe6285fc3d5e7d17U,
  0xbe448d30be522d3bU, 0x3db752c7beb4fef2U, 0xbc583bd03e88ea75U, 0x3f0aee0f3ec08ca7U,
  0xbf170630be1e65c6U, 0xbe9d2be1bf122ec1U, 0xbe898f7b3c8ed634U, 0xbfe68e6a3ebc2702U,
  0x3f03a8c33e61dd3fU, 0x3d3528d23ece0a5cU, 0x3d86802b3dfc7b19U, 0xbf37f47f3ba8ea60U,
  0xbe0283f93f1a937eU, 0x3e1f7391bd9eca8fU, 0x3ebe8f7d3eacd869U, 0x3e196dd23e7a2546U,
  0x3f861b803efa65c1U, 0xbe7f75da3ef9077aU, 0x3d167df0bec00e8fU, 0xbe60093c3df64c73U,
  0xbd45bd9b3c9050b8U, 0xbdcba3ef3f271359U, 0x3efeea79bef1cfb6U, 0x3e84fdf0bd79291eU,
  0x3c2443a9be6ab024U, 0xbe9a4af63f5f146cU, 0x3f23a9283c05d28fU, 0xbeaa08153eab3ab9U,
  0x3eb34f0b3e3a38a2U, 0xbd7d0e76bebd5508U, 0x3e0253dbbe83bd63U, 0x3e3b4892be2baf84U,
  0x3e635cd23ea02f59U, 0xbe63fd8a3eeda037U, 0xbd69ea3abd9a6107U, 0xbf08033a3d8e0ff9U,
  0xbe731b4c3d36e1c3U, 0xbe999c68beb1a040U, 0xbfaeb052be5f653aU, 0x3e4799463f215115U,
  0xbeefbfd0be00ca63U, 0xbe3160d8be3666d1U, 0xbe5053f83e205b69U, 0xbca31453bf071aaaU,
  0xbe6d81e9be8af422U, 0xbde2e671bc948a0eU, 0x3da308403e4a07a6U, 0x3d1536ed3c242d22U,
  0xbe3dd98abe1bea52U, 0xbeb7d368bcb5ab4fU, 0xbe88fff73e30c261U, 0x3e630f56bf2d151bU,
  0xbea89d023e1cb459U, 0x3ebd55c0be4c9d98U, 0x3e7414d4bd17abddU, 0x3f8c402b3d9aac32U,
  0x3e9fa7c3bde90456U, 0xbee20d8abe770c17U, 0x3e170835bec1a972U, 0xbf63271d3b8d1305U,
  0xbd9034ee3f29fa62U, 0x3e4462cd3d6f85dcU, 0x3d8a8cdfbe14ab8fU, 0xba223bf7bde20b0bU,
  0x3f231b60bed0c0d4U, 0xbead7b3d3e8ef3c8U, 0x3cb778f6be000adbU, 0x3f53ff5e3d907fbcU,
  0xbe6ee373bea9070fU, 0x3e82d28fbe070207U, 0x3d16460b3f2c9aecU, 0xbdd398ddbe33a2ebU,
  0xbed126623e851be7U, 0xbd23d1203f3c32ecU, 0x3feb6798bf1eacd9U, 0x39f20c993cb60e93U,
  0xbe72e3a5bf3a9187U, 0x3edd78743dbbeff7U, 0xbd2cad54be6fe5fcU, 0x3dcefdb2bdf12ab1U,
  0x3ec6955fbf069186U, 0x3d3d5830be9d9424U, 0xbddacea13ec8439eU, 0x3e8c07ac3d8778aeU,
  0x3f4d1c033e58c696U, 0xbd765882beae37cbU, 0x3ec4d6fd3dc586b3U, 0xbdcc82b93f33232aU,
  0x3e5350d63df95bf4U, 0x3e7e07adbf2d1e4cU, 0x3ee162403e8fb0f1U, 0x3d97c7efbedcb7fbU,
  0xbe1b9d92becaa961U, 0x3df6710c3dedb1b1U, 0xbf2203eb3f026746U, 0x3d6c5821bd543065U,
  0x3e043b2c3e5942dbU, 0xbd3713133e3d5668U, 0x3e9ba9053d4dc15bU, 0x3ec2ced7be9562b2U,
  0xbcebef12bc728701U, 0xbf87b6df3d70845cU, 0xbe04fea5be827335U, 0xbdd077463e89cf20U,
  0x3e22d123bef55a57U, 0x3f0d2d333d9590bbU, 0x3f02b7b7bf5c4ab3U, 0x392e9906bce8bd79U,
  0xbe7923ad3d948372U, 0xbdecabf9bd4ec297U, 0xbec072ec3e16c31dU, 0x3e744e003ebdf225U,
  0x3e87c57cbe21c0ebU, 0xbd366a253e89b9adU, 0x3dfb07203d09423dU, 0x3f31c5b53e8a9145U,
  0x3e8f3c01bea9e2a4U, 0x3e34fc093e5d58e3U, 0xbf1dedddbd18b961U, 0xbe272ecf3c2a624fU,
  0xbc3fa0533e53bf2eU, 0x3e4e80513ea0de7cU, 0x3d788564bf0506baU, 0xbef41ae93e88aaa8U,
  0x3ed4920b3e1c5cebU, 0xbd7e55b4bdfa4f0dU, 0xbe964fb83f06da3fU, 0xbe48a9c2be520a1bU,
  0xbf37cf0c3e5930c6U, 0xbf07cf27becca99cU, 0x3eadf9df3daa7da5U, 0x3ebdaa67bea92eb3U,
  0xbecf53ec3e8d1d3aU, 0x3e96f5ce3dba33b6U, 0xbeb110b4bf039dfdU, 0x3e0bcfcbbdc820c8U,
  0x3db310b2be948947U, 0xbe762ffe3ebc9dc1U, 0xbd2cb884beb222a2U, 0xbf1ba087be95a31dU,
  0x3e22fce83ef07bc5U, 0xbea410f33ec1c1f7U, 0xbedc6596bf06705dU, 0xbe48d813be1cb8d3U,
  0xbc84b143be09fc69U, 0x3ef7891bbda62327U, 0x3ef27656be439650U, 0x3ec714fdbe8fb73dU,
  0x3ea4a6a53db0c86bU, 0xbf671a64bea7fd3aU, 0xbdb6fd54bca34771U, 0xbfc05a3e3e313463U,
  0xbbae8e2bbeb37c85U, 0x3e919a873d070538U, 0x3c5e1b72be9fc654U, 0x3d8468fcbd97e542U,
  0x3e2d00c9bf158b87U, 0xbc87185cbeadcc29U, 0x3e85b1d33e489f0dU, 0x3e497071bd896b01U,
  0x3fa11d993e5ff30fU, 0x3ec5bda53ec10915U, 0xbe54fd5e3d759158U, 0xbef311fc3c93c59bU,
  0xbc9bc002badd1df6U, 0x3e0c18d0be91ee6fU, 0xbd22cbc93f3733a8U, 0xbd3430043e2ac0efU,
  0xbda8ec6bbefc8685U, 0xbf0322a0bcc6a3c9U, 0x3eb84c1abac84421U, 0x3d737bd7be8e27edU,
  0x3e895c44bf2b78d2U, 0xbd3fbf08bf1107d1U, 0x3dd831a0be1ccd60U, 0xbe211bd03dbdd126U,
  0x3f8812313f08d35aU, 0x3f11aec9be92b8ffU, 0xbff5f8ec3f9a8741U, 0xbf06167dbe0caea5U,
  0x3f56881e3e52e42fU, 0xbd2d21053f033f87U, 0x3f06ed2cbe525700U, 0xbfb363893ef55bb0U,
  0x3f1832c53e2bfe21U, 0x3eeee7acbe88dc30U, 0xbe0d67f1bf9f9030U, 0xbed2997abd56e11cU,
  0xbe63dbbcbf89194fU, 0x3f4340cfbf4df049U, 0x3d2e66563e6012f4U, 0x3f3e1d09bde13432U,
  0xbe23f508be683d13U, 0xbe073fd93f25af2aU, 0xbec54f9f3fa9ef3aU, 0xbd40ab40be62e64cU,
  0x3f71b868be1ecb86U, 0xbeccf8503f3554b6U, 0xbe93824ebf423bc0U, 0x3e6bc113bef6f857U,
  0xbe9b0456be8b84abU, 0xbe3d60b7bf27b32aU, 0xbde25934be0a6887U, 0xbea802debe19dcb4U,
  0x3f0ae38f3e030a98U, 0xbd56ec33bf0b76faU, 0xbcecba49be289435U, 0x3eb920c9bed3a358U,
  0x3f6cada63ea2733fU, 0x3ef259643f799ee4U, 0x3e44a3193f3ab3e6U, 0x3f68dbfc3ede193eU,
  0xbec0a7a0bf8ba40aU, 0xbe939374bf0e0c99U, 0x3e468645bd2466dfU, 0x3e239317bea99195U,
  0xbda537cc3f375dedU, 0xbf1aa730bf774bd7U, 0xbf474e3f3f7045ceU, 0xbe9dcdbd3fc94839U,
  0x3ec67d2bbf03813cU, 0xbd8dec663f1280cfU, 0x3f3e455a3fbde286U, 0xbff5e277beca3cdaU,
  0x3f97e8ff3fa93043U, 0x3f27dc2fbf315641U, 0x3eb358c33c16a450U, 0xbd3df3ee3fdf162dU,
  0xbdf641603e102454U, 0xbf4eaeccbf0ee6efU, 0x3e8dbc8bbdae8977U, 0x3dffdae23fa9c7c9U,
  0xbe9845373e41bca3U, 0xbe67137ec042394dU, 0x3f5126343dd42862U, 0xbdcb5ef73ddee83cU,
  0xbeccd067bf9810c0U, 0xbd0cd9d3bec74e43U, 0x3f33ea093eaef807U, 0xbe86ee96be50e530U,
  0x3ef6cf26bea5ddcdU, 0x3f434aa93eaaf91aU, 0x3ec025fe3eff9938U, 0x3f0b6d9b3d41fe10U,
  0x3f0456afbe295037U, 0xc03a467c3fbbc3a4U, 0xbf996dc63f779141U, 0x3d5b34fabb85dbb2U,
  0x3f172227c0796143U, 0xbfb522da3eb26998U, 0x3eef8d223f4f0494U, 0x3ebafe8ebf6102bfU,
  0xbe3c0553be77ddc7U, 0x3eb1cad03efa5b19U, 0xbf3dc6a03ea4b826U, 0x3e6bf3d43e21464cU,
  0x3fda2ce3bfb372d5U, 0x3f3a166ebeb6d3c3U, 0xbd17e5363ed176adU, 0x3edfb1ed3f1b50bbU,
  0xbf7177fbbfecd545U, 0x3eea23963eccbebbU, 0xbf7e03b8bdcea0b1U, 0x3ee96ce1bfbc4fcfU,
  0x3e8af0f03f71974dU, 0x3fda39024038e873U, 0xbea0ceeb3e1b3a06U, 0xbec9fa90bc8b449dU,
  0x3f6141e53e9e9b45U, 0xbde994dbbe8ba39eU, 0xbdd0a7d13f10cb8bU, 0x3efa6f74bf58b237U,
  0xbe494395bf4457fdU, 0x3de751433e85169dU, 0x3f5cc966bec875f6U, 0x3da2930a3e7e3d15U,
  0x3e3330b140042e3bU, 0xbe06581dbeb84b1bU, 0xbe01240b3e35c3afU, 0xbed91b41bf4c6002U,
  0x3e81d6f93f1c5d30U, 0x3fac89103e3942eeU, 0x3f16fbf43f4bac3bU, 0xbe3b5dc8be818fb8U,
  0xbd80db0f3d80142aU, 0xbf201d9d3f0ee940U, 0x3df34c20bfeac7d7U, 0xbf58d95a3f127b9bU,
  0xbdb737293cc2dcc2U, 0xbe8de902bdc981f1U, 0x3dee6f263dedcba0U, 0xbed5a0f63f3bff07U,
  0xbeca9aa9bf3e0d8aU, 0x3e6f640fbe07823eU, 0x3f1435963c07dd09U, 0xbda2c9003e208902U,
  0x3e298f8a3e83768aU, 0x3e292fa8bf416bc2U, 0xbc3f6335bc88bbd0U, 0xbdae98443e0a9c5bU,
  0xbeb022133f8b2497U, 0x3ddff6373ec448c1U, 0xbe2ac44f3e9954edU, 0xbe59ef293e5ae205U,
  0x3eb13886be795dadU, 0x3d7212f1bf3bb392U, 0xbde8ac51be15d2dcU, 0xbf150610be35c279U,
  0x3cb39f113ecd4367U, 0xbbf37c78bfc62777U, 0xbd069f2f3eac7e40U, 0xbf8308063e836254U,
  0x3e3324e0be2af150U, 0x3f0db75f3f171d0eU, 0xbef501cfbe969121U, 0xbe5f8e84bf08f5e4U,
  0x3e16e5553e8d8b6eU, 0x3f20eb77be8c5e7bU, 0xbe623037be8f0a1cU, 0x3df6a72a3ecbb363U,
  0xbe88d2a93f247b5dU, 0x3f0d7d89bedcbf17U, 0x3cde89c83f0fd1f3U, 0x3dce97013e04ae5fU,
  0x3e69597ebdbf9f77U, 0xbdaaa8263e98426dU, 0xbe012dc13e3daf41U, 0xbe3f82653e83befeU,
  0xbfc1f1203ef5082bU, 0x3e5b7090bf233de1U, 0xbebe4dfcbe1c868fU, 0x3e3fd4e53e02a656U,
  0x3e4ebbf8bce4c33eU, 0xbe200363bdd53316U, 0xbf038a5bbe4d33faU, 0x3ef7ced7be46e4b4U,
  0x3e4b4e2f3dee1794U, 0x3f6b9ed23e91455cU, 0x3d96bbe43ee84b07U, 0x3ecf9643bd228082U,
  0x3d8483febd18c3e0U, 0x3f3ebd3f3ec81f89U, 0x3eb4f5f83ec8013bU, 0xc0208c46bdc45800U,
  0xbe35758d3edaf0b8U, 0x3e097fb83dc5d61eU, 0xbe5d32a6be71cbbdU, 0x3e4e11a03ecd8619U,
  0x3ea8078abe56d551U, 0x3e7648d23eb4d808U, 0x3eacfb4e3ea0f013U, 0x3d122e47be308821U,
  0xbea304553db4411aU, 0xbf837867be92eefaU, 0x3e62fe6f3e809c5bU, 0xbf3d58e1bd48a1aeU,
  0x3f2e78c8be6fb596U, 0x3e8e26b8be5df387U, 0x3e47e90abef16bf4U, 0xbe190de33f08bed4U,
  0xbea432e43f2cf382U, 0x3edbc9b2be8b4ec6U, 0x3f19d0233e6a3821U, 0x3eaa36d43eaf8d4eU,
  0xbc05831abdf6fba8U, 0xbe462f6c3f146605U, 0x3e6584d43d42f038U, 0xbe5556e8beddc9d5U,
  0xbf9110f8c00fc7fbU, 0x3f3f8a723ea361ceU, 0xbebfb69d3ef73684U, 0x3ea6bbc7bf57571fU,
  0x3e8b931abe317fd3U, 0x3f019809bcee8b3aU, 0x3db8f2dd3f9c785dU, 0x3a057b8ec02a1250U,
  0xbeade9e63fcef01dU, 0x3f0f0219bea2f849U, 0xbedeba41be1f575bU, 0x3e5fc1c43f4bf393U,
  0x3e0d9031c012d008U, 0xbeffadd93f1a5dacU, 0xbfb185f6bf853f59U, 0x3d4f48f1bee0290aU,
  0x3d95803dbe41ec4aU, 0xbf90c8a93e93d69dU, 0x3f45f23d3f13774bU, 0x3f09de10be878285U,
  0x3f564d153efd6c94U, 0xbf13075abe94a74eU, 0x401076403e8b4f54U, 0x3f7e43ca3fac7ec8U,
  0x3f84da58bfffae32U, 0x3f47eaf23deeca41U, 0xbebe912ebf6730fbU, 0x3ca76df03f2b80afU,
  0x3e62325d3d802499U, 0x3f81724c3f7f5cd8U, 0x3f5801713f506a7dU, 0x3f30d59d3e508faeU,
  0xbec4a4ee3e65a1fbU, 0x3f493867bf82f950U, 0x3fb0a9633da58654U, 0xbfdcda39bf7a1202U,
  0x3dd69949bf9b3b8fU, 0x3f73dbe73cf92f50U, 0x3f1c1806be562304U, 0xbe9e78fb3fee72ebU,
  0x3dd5589f3f3621b2U, 0x3e163d833ecd9e38U, 0x3e93cfe93f79930aU, 0x3f2384de3f3cf4c8U,
  0x3f31abd63f2faf6fU, 0xbe6eeee53f9132beU, 0x3ec7ddf8be8b001eU, 0xbf0ce53b3ed4f8bcU,
  0xbe2a25773f9d398eU, 0x3de77fe73f037dcfU, 0x3f94665bbdc19726U, 0xbdadd80a3f0fc940U,
  0x3f36dc14be2273e2U, 0x3e73940d3dd821faU, 0xbd4f722bbf9f198dU, 0x3f103930be20b9e3U,
  0x3efdb7e73e84a12bU, 0xbe8e58c43f27cd53U, 0x3e1cdcf43e29e8c7U, 0x3f81cedbbfa6ebaeU,
  0x3b1dba193db729bfU, 0xbe492a143f0301daU, 0x3f0f2c2e3cbb70e6U, 0xbf8f989abf7e7e31U,
  0xbf2393513e432973U, 0x3cef93833f493b73U, 0xbe8e07503ef40292U, 0xbfd2a044bf977921U,
  0x3db356f83e1a992dU, 0x3f0b269fbdf46d4bU, 0x3f50d24b3eb75076U, 0xbefef65dbe107b7cU,
  0xbf5b2d9c3faa0ce6U, 0x3ea36a28bf43e346U, 0xbfd05da53f12c993U, 0xbfb7ea423f4c0ce4U,
  0xbf11c0e93dfc93a4U, 0x3e5ff78a3e94a9daU, 0xbe3bc9d7bfe01e64U, 0x3df330113b3a97f4U,
  0xbdb9cd733fa464adU, 0x3ef98c09bf520e6eU, 0x3f9672c6be7de576U, 0x3ec3a229be76bc88U,
  0x3eacb7b73f1619caU, 0x3d0356763e0bac9cU, 0xbf67d8c73e81f9f4U, 0xbea6d7183f454b95U,
  0xbd2c11f3be4fdf02U, 0x3f7db5b43ecf89fcU, 0xbe0eef92bef8b428U, 0xbf32a4b03e95666eU,
  0xbea977b7bdc12f92U, 0x3dba3c0c3f5bdeb4U, 0x3f626247bf629a60U, 0x3e31a1473df5abddU,
  0x4010b3d2c00e7d58U, 0x40d94fddbffad484U, 0x3fcfa58a40fd01abU, 0xbf8b4b79c012adf4U,
  0x3ff3406c4088556cU, 0x4165bf33411b082fU, 0x409e61cfc05a9db1U, 0xc107af17418343ccU,
  0x3d194b3fbbe7fa2bU, 0x3d970784bc9980bbU, 0x3d54a524bba5e47fU, 0xbc04f3ca395f9facU,
  0x3ca8b4df3cf93275U, 0x3d742083bd44fc1aU, 0xbd9c7d1d3c8014a2U, 0xbd95a1773ca3b732U,
  0x3ce648383bf46b21U, 0xbc3966243bc98e42U, 0xbc82508e3cca07d7U, 0xbda2fc133dcd69aeU,
  0x3d69682c39e258caU, 0xbccd8fc8bbbd7731U, 0xbd2546203b529717U, 0x3c403b3c3cb0da95U,
  0x3c729173bd261145U, 0x3c05df6abc615834U, 0xbb84d85e3b8a7764U, 0x3d3f75e83c96b6c6U,
  0x3ccefc7e3afc3280U, 0x3bb926143d25a356U, 0x3c5a8562bcb3ef1bU, 0xbca2bb263b902ea3U,
  0x3cba1135bca858e4U, 0x3c5c687c3c59b7deU, 0x3b9b64f3bc8501beU, 0x3d22aa9a3c7bce1fU,
  0x3c6da54f3bb69a1aU, 0x3c69a4c0bcfddeebU, 0xbc8e5d9a3c25acd8U, 0xbc92eeb1bcaccc30U,
  0xbad63ec23bac9d54U, 0x3d03bd7a3cb807e9U, 0x3d688260bcc61d76U, 0x3d1f50b7ba9d6644U,
  0xbca5c0e13c5d7721U, 0x3c79dc353c1e79c7U, 0x3b92347c3bf4b607U, 0xbce37428bd8f46cfU,
  0xbc9bf0e4bc7beb31U, 0x3b0897eb3d5d152aU, 0xbd301a193c9a35edU, 0x3c892967bc5e7a48U,
  0x3da1f3c6bd70b4c5U, 0xbdc62d99bcc6d48fU, 0x3cee858ebc6d8a6eU, 0xbcfe432dbd456ecbU,
  0xbbe25dee3bd0cf64U, 0x3b56dd273d53028bU, 0x3ddf639c3d706c6aU, 0xbdcd47b5bde37f3bU,
  0x3a6c2b04bb293accU, 0xbc05de093d9a3cccU, 0xbcf1de653e47d5ecU, 0xbda18dd8bb341d87U,
  0x3cac3c813d02bc31U, 0xbcea0c073df454c8U, 0xbd50eb51bcf9a281U, 0x3adbeba7bba15096U,
  0x3c8ad69abdc094d0U, 0xbd37b882bd8d425bU, 0xbc5fff793c9acc74U, 0xbc047afc3d0880e7U,
  0x3bc83fdf3b177fb9U, 0x3bca3a203c8e95feU, 0x3ca16837bbe03620U, 0x3c9558033b42a34fU,
  0xba6b77033bbbcba9U, 0xbcd1cb873b8611c8U, 0xbb8200b6bc04c134U, 0xbc8858e6bd171808U,
  0xbdf7b8913c894f6fU, 0x3d37bc203da0c062U, 0x3b8643ac3c4825a7U, 0x3ca75404bc237320U,
  0xbc0dbb093db6a6bbU, 0xbc3d54f03daade11U, 0x3cbc7684bd2b8806U, 0xbd1f792bbdc9283fU,
  0xbd959925bcad0aaaU, 0xbcbc546abb17cf45U, 0x3c3641f2bdc63899U, 0x3d83f451bc29feedU,
  0x3dbf52d13d6c2b1cU, 0xbd0d7e4a3cc934c7U, 0x3d95b0efbd137d7dU, 0xbc44a69c3d932219U,
  0xbc0ba2103cd21124U, 0xbd616b1c3b61c045U, 0xbc988fe73ab0d6a2U, 0xbd9f5fbebd89ced0U,
  0x3caa19aabcd83ac4U, 0xbc0590403c0b6e4bU, 0xbbd9c0013c4e5f82U, 0xbd216b3b3d08068fU,
  0x3bc27263ba80dd68U, 0xbc899e61bab501b6U, 0x3a97d202bbef4a5fU, 0xba0d9d52bd53509fU,
  0xbd2607f2bce02e48U, 0x3c32ff1d3a13610aU, 0x3d4a8f713cbd697dU, 0x3c54b4853d32e79cU,
  0xbd360e06bc842d4dU, 0x3cc70dd2bd26628aU, 0xbd1772d5bb21beecU, 0xbca1a7ae3bb52d65U,
  0x3cf27efa3d21e18bU, 0x3c13791a3c48f232U, 0x3c91991f3bd9006fU, 0x3ce7011c3db05358U,
  0xbc773cdfbb6a79ccU, 0x3c06a5ca3c0291d8U, 0x3c40fb9d3b2efb17U, 0x3ce22ed4b95bf7c8U,
  0x3c244e373b899d59U, 0xbb98f28c3bb9adc5U, 0x3c0a70da3bbb84a7U, 0x3cc1e822bc690154U,
  0xbcf0e1263b9879f7U, 0x3d964379bc9bc122U, 0x3b837bc03cbac581U, 0x3aee449e3e072c37U,
  0xbe3c175b3b4d91cdU, 0xbd3d501e3cfb52a5U, 0xbd0fa3453be732b1U, 0xbd629e01bb9965a7U,
  0xbd33ae5f3c4b42b2U, 0x3c71aa77bd29eb74U, 0xbcf649c5bb97541eU, 0xbd897fbf3c8262a5U,
  0x3d29ffd93d67aed9U, 0x3ba24a023d73a022U, 0x3d7fa0a63bf20ca6U, 0x3d8464c93d7277bdU,
  0xbc84455dbd090da2U, 0x3d2888a63cdd27feU, 0x3cd81e743d765bd6U, 0x38a0145dbc6c9a23U,
  0xbd0e240b3d351d1cU, 0xbcd3e43e3b52be57U, 0x3ca5d78d3c7c557bU, 0x3ca07778bd73279fU,
  0x3b5cb738bc59c5b8U, 0x3cb0bb773c43fdedU, 0x3c3d9b4abd304559U, 0x3c402f75bc2e2925U,
  0xbba9bdfabd1974f3U, 0xbd189da1bbd11837U, 0xbd9abf3ebc1bba8bU, 0x3c50b3963d1bb0adU,
  0xbcd00d1d3d5f7c41U, 0xbd84f2603d100d80U, 0xbbe928213d8688ccU, 0x3d9a3c37bd3d24f1U,
  0xbcbdb1b33d2b59d8U, 0x3cac349c3cbc1f55U, 0x3ca2d43bbbf1a4b3U, 0x3d804ac23cd6e1a6U,
  0xbc44c4203d2b64feU, 0xbd4047553d47137aU, 0xbc3d892ebcc43a10U, 0x3d47e39dbd27799dU,
  0xbd44454dbb353676U, 0x3bcfe08e3db0f61bU, 0x3ce843603ce42554U, 0x3e028b6cbcd1bddaU,
  0xbd9f77fdbdb3cc28U, 0xbd3dfd9c3caba5b5U, 0x3d1275f13d20461bU, 0xbdae7683be0687beU,
  0x3de29dbabd9eb712U, 0xbd97ee6dbd134144U, 0xbd75d3abbe1512d7U, 0xbd04a8583d4fbe68U,
  0xbc91c8093c1bf42cU, 0xbc2dd10d3c7cbc49U, 0xbd12abb33c2e58fbU, 0xbc85537b3c3b9a13U,
  0x3c7512febd8703bfU, 0xbd0654e2bc4f5942U, 0xbb6e0adabc8d387bU, 0xbc3254813d2a8119U,
  0x3cae4a823ca56838U, 0xbc60b5413cf51ed6U, 0x3c4ca3413ca98871U, 0xbcb4d328bd3c979aU,
  0xbcac3413bc6ea4ecU, 0xbc5b8b2a3dc967aaU, 0xbca0d4583e86c9b2U, 0xbd8e41623cf07fd7U,
  0x3d07bdfcbd88a43dU, 0xbe1e66bebc4745b8U, 0x3cd184c4bd40d8f1U, 0x3d9507563e0eb895U,
  0xbd1bb359bcde2f89U, 0xbe6efcfd3d74f329U, 0xbe742fadbca17512U, 0x3db37e543d1664ccU,
  0x3c2fd6c9bd7b636cU, 0x3d0da8b9bcc70328U, 0xbdc443763d8650ddU, 0xbd948849bd55f7e0U,
  0x3d69ce673cb0edd1U, 0xbdab68debda22a69U, 0xbd48ebe3bc9bd993U, 0xbced66043cc56d11U,
  0xbc3a14ff3c142d42U, 0xbd7028103ca971ebU, 0xbcc747923d4fb28cU, 0xbc536489b9f93ed0U,
  0xbcb441973d4d6b5eU, 0xbcd5d5823cf090aaU, 0x3d35806b3ba05ec0U, 0x3d8d26393b897759U,
  0xbc64e6683d59a0beU, 0xbcae058d3c3a2468U, 0xbce48f17bcab569cU, 0xbbe78a54bb051e2eU,
  0x3bed1c87bc5bbc16U, 0x3c567283bd93c904U, 0xbc2546b83c2ceec5U, 0x3ca51fbbbadc519fU,
  0xbd2b708ebdc6dfe2U, 0xbd9cdb8cbd760032U, 0xbb8fc6223d81b073U, 0xbd2565bd3d9dbdc2U,
  0x3d33fe67bc7f9342U, 0xbcc58167bd9a4746U, 0x3b8a02f73b65d004U, 0x3ce4c9f3bd5998c4U,
  0xbc60aa9cbc85930eU, 0x3d069dfe3a1c35d0U, 0xbaf82b0c3ac7723eU, 0xbc49c20b3bc49bb9U,
  0x3ababae03b8564e1U, 0x3be80022bcdc783bU, 0xbc3842ec3bd9ba8dU, 0xbc8442fe3c0d354aU,
  0xbb29804c3c381e43U, 0xbadaaf133ca71514U, 0x3c428de13b9077b5U, 0x3c68518dbb91b02cU,
  0xbc535f62bbf73c30U, 0xbbf776f13c2894e0U, 0x3b7090a439bffc00U, 0x3c12c6babc594dfaU,
  0xbd2282ca3c854bf2U, 0xbcdde211bad18aebU, 0xbd0b877dbbad1060U, 0xbca26c853c00214cU,
  0x3cf41416bbabfd08U, 0x3bd943a83d17bb98U, 0x3d1d4735bbbac888U, 0x3d8030693cf99d34U,
  0x3d1ce9b9bb896270U, 0x3c9b6da5bc8d715bU, 0x3c07f6aabd8c7910U, 0xbcc258d1bd1a0d64U,
  0xbc7087d7bd0082c5U, 0x3cb940b5bb630784U, 0x3cccda0c3c0b0f1fU, 0x3d1689103c8572b7U,
  0xbbbab2d53cb2c016U, 0x3dfbe9de3b6dbacfU, 0x3c184c543c2900cbU, 0xbd4631afbc1a91d8U,
  0x3ce16da3bdaedc45U, 0xbbde985c3d90d605U, 0xbc469a393a4f4b1aU, 0x3ddae3b83cd42d64U,
  0xbc4640903ccfb2dfU, 0x3bd5a7a93ccba186U, 0xbc9f15743d4d689eU, 0xbbb209aabd3d85f5U,
  0x3d664168bca60416U, 0xbc424cc7bcfde1ffU, 0x3c591fcfbb796cc3U, 0x3c9756e3bc57012aU,
  0x3c95cf2a3d616c93U, 0xba3831a0bca27a1fU, 0xbdca0202bb72bfa6U, 0x3c37ac0abcc58552U,
  0xbcaeedfebc5ecf41U, 0x3bf016bcbd5bd7caU, 0x3c5f5c683cf72231U, 0x3c54db6fbad1ff8bU,
  0xbb5b86473c5b53fcU, 0x3c1bd9b0be186e6eU, 0x3c49ccb13d11f57dU, 0x3c7d55bebc3a29f4U,
  0xbba7a314bd1b98fdU, 0xbca79e5ebbb6bd7fU, 0xba90a6c6bb68ef26U, 0x3cb87870bc249407U,
  0xbbaddc02bb2fa9eaU, 0xbc1944493df7e59fU, 0x3d4eb2e9bd972726U, 0xbd9c7dfd3d07760cU,
  0x3d434185bd360720U, 0x3c86aea2bda5d534U, 0xbcc2a6183d47696dU, 0xbcf8ec813c2b63c2U,
  0x3cc5205abd4d8413U, 0x3cd2f8463b85e0c7U, 0x3c96d8da3ba44757U, 0xbb6ae34e3baf91a9U,
  0xba8f60413cf48e20U, 0x3a2d9cb83d3880f1U, 0x3c6338d9bc8b263bU, 0xbc6dd81abbd65af5U,
  0xbcf25484bd001a02U, 0x3d7fc4433d02c47bU, 0xbd0dcebb3d81d951U, 0x3dbaf4e1be83d2aeU,
  0x3dad87943c78cc1cU, 0xbdb50bbabcc632fdU, 0xbd1830363c8e7da3U, 0xbbf438603c1a9657U,
  0x3d0bb5a0b94a3122U, 0x3d7c110dbc883031U, 0x3cb8c293bb19bca1U, 0x3b34ce083cdfd8acU,
  0xbc1fae8bbd079cccU, 0x3cd9f759bd05114cU, 0x3c1e1d823c61b5cbU, 0xbc134904bcad1c22U,
  0x3c28c74c3c3bf7a7U, 0xbcbdfb21bcad5479U, 0xbb5e6b5bbca8e2d5U, 0x3d5677503d8ee8d6U,
  0x3d745e44bcb9098fU, 0xbc80d6e9bc875e36U, 0x3cd52b1ebbb44894U, 0x3bf280ea3c2af73dU,
  0xbc8581ff3bbf4cbeU, 0x3a3aee9ebbdc6917U, 0x3b75adac3c59fe97U, 0x3c3ade6abc22f091U,
  0xbca2c3953cbc2af8U, 0x3c2588f03cf2a789U, 0x3b574cb03b2630b5U, 0x3b246cbfbc84c6a3U,
  0xbc933a3dbd5da80aU, 0xbd48fee43d40d7d2U, 0x3cb69cc93d1d6b35U, 0xbd855cccbd2db296U,
  0x3d44baa5bd2732c0U, 0xbd354da3bc570423U, 0xbc267b52bdeeb329U, 0x3b3350153c945d80U,
  0x3c1279223bbf281bU, 0xbc0cd4b8bc6e7868U, 0xbc5f4c63bbdd746cU, 0xbcbcea91b9447ae9U,
  0xb9c51bdd3d58b2ffU, 0x3cd3db353b8c5105U, 0x3d07b9433c4c58ccU, 0x3cae555a3b83f905U,
  0xbd58ae01bcfed631U, 0xbd4ba1e93b45cb18U, 0xbb2afcc13c9a13b9U, 0x3cc780a4bbb364f4U,
  0xbd31111f3c0a3da6U, 0xbcae6289bca26141U, 0x3d83a8e93caf2236U, 0x3d98e4edbca1db57U,
  0x3c1f4e4ebb4f6b51U, 0x3da4f792bc88fee6U, 0xbc558874bd8756ecU, 0xbd61f02f3c170941U,
  0x3d3a8650bdbf4730U, 0xbcd20535bd24a69fU, 0x3cf8cbcc3ad08bfbU, 0xbcc189563be2f3d8U,
  0xbbe6bdf8bbe239a1U, 0x3d748c7ebd536063U, 0x3d0eacfabb93bc5dU, 0xbc5da3abb8f8d7daU,
  0x3ce259f33baa78e8U, 0x3d05dd5e3d1b407cU, 0xbcafc1b2bbe793ceU, 0xbc2d87f93c3aab3fU,
  0x3ae49608b8b27118U, 0xbcf2e4da3b9a835eU, 0xbbe37ee33c09ef2cU, 0x388b200cbc0596a4U,
  0xbb3f948abc432a25U, 0x3be551473c3a0d9bU, 0x3c0615b8bbc5e855U, 0x3bf84d6c3cab948eU,
  0x3cae3e51bc479f4cU, 0x3da3857e3c7b85fcU, 0x3d8c48c1bd05f24cU, 0x3a99fca4bd5395a5U,
  0xbd4793093cb43f0aU, 0xbc29a65ebda77cc8U, 0xbd3e5e223c3e311bU, 0xbdba5cccbd319c25U,
  0x3cfbc0a33c582b22U, 0xbd8446c83ce141c8U, 0x3c533ad03d5924abU, 0x3d3bba92bbe7f2b3U,
  0xbc319b8d3db2a8b1U, 0x3be9dc1cbce34addU, 0xbc730d973c16b7c0U, 0xbc4ce3f83c87c7caU,
  0xbcdb60b33c831322U, 0xba03bb713ba669f4U, 0xbc3fed163d32e41aU, 0xbd97d677bd4e6053U,
  0xbd23c3d4bc26c831U, 0xbca8d43d3b812a6eU, 0xbc10cc193bfcc18aU, 0xbb76f8ac3afa696cU,
  0x3c3bb9093c989a00U, 0x3cea57dabb3dad3fU, 0xbc6a39683d18ad4aU, 0x3daeb557bd35b78fU,
  0x3dccb757bd879ab5U, 0xbd04b98abcef7b92U, 0x3dacb5403d8bbd5aU, 0xbd09334cbc24e2edU,
  0x3d82afcfbc65fd2dU, 0xbd87ea8b3a71d78fU, 0x3bc2e04dbd280096U, 0xbc5b693c3c9edd1fU,
  0xbd29b42dbd250dd7U, 0x3d3e4cb5bc9dc4b1U, 0xbda84d0b3a87c590U, 0xbcb62febbd829021U,
  0x3c809ab3bcae4649U, 0x3cff835f3c210014U, 0xbd1526413d64a9ffU, 0xbd6ace443bc44554U,
  0x3d2af55f3bf7864cU, 0xbd3ed8a9bc20c9d7U, 0x3e3099c7bcd3e30aU, 0xbbe4db43bd4ea599U,
  0x3d82db80bd74a55dU, 0x3a51c6cf3d7d6fe5U, 0xbb773d803cff6517U, 0xbc0fc0ccbc6efe36U,
  0x3ca4fdedbce42a05U, 0xbcc34fcd3d4f28d5U, 0xbc821689bc3f8e92U, 0x3b8326893d81cdf6U,
  0xba2b4a393d4f0e34U, 0xbd8465243c7387b3U, 0xbb16657c3d67d8e3U, 0x3cf1b98bbc308090U,
  0xbc6bb3123d539212U, 0x3d92a87f3aac3a60U, 0x3c51b0a3bc7f6c7fU, 0x3d23f5c43d6577e2U,
  0xba78bd6abbde6a81U, 0x3cd8a8553c31f830U, 0x3b5b9224bba3b9fbU, 0x3d2982563c7ffda7U,
  0x3883a83abaad85acU, 0xbc41ea663bb097c6U, 0x3c9d1314394736aaU, 0x3c2e4c3b3ae4be5eU,
  0x3e1071f13d06f40aU, 0xbde678cfbbc60933U, 0x3d5df64c3c4a360aU, 0x3d1209d4bcdc2f00U,
  0xbcb1120a3dc4dea7U, 0x3de729a7bb1c029aU, 0xbdc6cfdb3cc70e8eU, 0x3d5075033d5681c9U,
  0x3d11c9353c8c6dcbU, 0xbd7c993d3ccf8e8eU, 0x3adda8f5bcce116fU, 0xbb943a783c171ec9U,
  0x3bfa36e73c0a2965U, 0xbceb15603c8535b4U, 0xbd93aedbbb4039e8U, 0x3c0f5c2fbd3454b8U,
  0xbc371a633d1cba5fU, 0xbd21136c3dd6fb65U, 0x3e0a6e28bcd9566cU, 0xbd3250453ca7f212U,
  0x3d191407bc58ae8dU, 0xbbe72dbdbd6e1603U, 0x3c7654d43cfc00f5U, 0xbca227ae3c887319U,
  0x3b713488bc654247U, 0xbc40904dbb7ea837U, 0x3c6ae8d5bc01de04U, 0x3d1254e63cef9e98U,
  0x3c8a2c213a103437U, 0x3b86f964bb9ed9d6U, 0x3c7a9869b931f3adU, 0xbc0bab233b2c6a97U,
  0xbcb972613b6cfe85U, 0xbbcab8823b8d9bc9U, 0xbcd0a61cbd1d2101U, 0x3c8ef6ebbc8a4097U,
  0xbbe0f5d8bd0ba44cU, 0xbd6fc641bd1de2dfU, 0xbdcb3b833d0e15b2U, 0xba25e3ca3d30929cU,
  0xbc2afc983ad01f2aU, 0xbd4acad43b782087U, 0xba28f6cc3cfda9bdU, 0xbd9a9154bd6f8d0aU,
  0x3d67f6c5bcd25426U, 0xbb92000cbc05a6a6U, 0x3ab4907f3ccf74faU, 0xbcc7f84f3c8200d5U,
  0xbc0d59d3bcf3c349U, 0x3d5f7a593cda54e9U, 0x3b9a12aa3d790210U, 0xbde5535cbc9181d6U,
  0xbdb42daa3d1210a3U, 0xbd7ac31cbc014709U, 0xbc43c95cbd09203eU, 0x3c3f4ac43a7d2379U,
  0x3b9c1cfabda95a23U, 0xbd15bc4a3cb32dbdU, 0x3d59d84a3bfcba87U, 0xbd20fb713d140dbeU,
  0x3ce776f4bd5e2d0eU, 0xbca3ce483cd64f5aU, 0x3c90240cbb7c7dd9U, 0xbc6536aabbb46440U,
  0x3c87ab4b3d855c9bU, 0x3b3987cd3d80a709U, 0x3ca20b39bd802f6bU, 0x3d5239e6bc28d245U,
  0x3c59e5f9bd74b942U, 0xbdb0123e3d592ac5U, 0x3ceb163a3b964359U, 0x3ca00589bdc74f37U,
  0xbc5b324c3cecafdbU, 0x3d710eaabd0c87a9U, 0xbd1003633d2fe738U, 0xbdd2175bbda40a1dU,
  0xbdb06a843cf7be83U, 0xbc8e9719bd73ca2cU, 0xbbff3814bda25144U, 0xbc069a5cbd5b4557U,
  0xbcc403c63c6d2b4dU, 0x3ca9c29cbd50349bU, 0xbd7eff96bd2e5860U, 0xbd14f0cd3ae5a35eU,
  0xbb04d2eebc447434U, 0xbd1aaa103d1c29c9U, 0x3d0179f3bcccc4d4U, 0xbc8bffa53dace823U,
  0x3cfe9716bcb7e3f4U, 0x3d28a4e6bd4ce04cU, 0xbda1eaa83b1bcacdU, 0x3d92bb5b3c9fc95dU,
  0xbba1a0193d496759U, 0xbbb8eb923cb86e78U, 0x3d0234d53d9af49bU, 0x3caa8712ba88e842U,
  0x3c47b5a73c7994c9U, 0xbcb84be9bc8c30bcU, 0x3be02ddcbcec6c61U, 0x3d87b4803da3df14U,
  0x3d38501cbc145a45U, 0x3a02bc13bc8f3d3cU, 0x3ce638c73bc7a6efU, 0xbc7f8f1a3c14b0e9U,
  0xbbaffa6d3c2a8b85U, 0xbcea1824bc5b1ddaU, 0xb7c5ce4b3c2073baU, 0x3cf208e13bd3e162U,
  0xbcbe31d0bc964854U, 0xba3c710abbdf7c87U, 0xbd845a643c19fc92U, 0x3b9ae8913d0c7d74U,
  0x3c6e390c3bd05952U, 0x3ca60de3bbc16d47U, 0xbc1560b33c507cb6U, 0xbd273dfcbc53e1a2U,
  0x3caad6593c27a175U, 0xb9bf80f6bc60fd14U, 0x3ca3624c3c43b6e1U, 0x3c6ff49e3c565a95U,
  0xbd838a6cbc777d20U, 0xbd1dfacfbcdf8571U, 0xbc02e1d9bd53ec2eU, 0xbc5ce5f03c8476aaU,
  0x3bb9f618bc967d2bU, 0xbbe34142bc2ec50bU, 0xbcf891373c822345U, 0xbc8ac38f3d25bae1U,
  0x3d54916bbd1b6500U, 0x3de1d08f3daa3f03U, 0x3bfec690bc045ae8U, 0x3dde4354be4e1a7aU,
  0xbdb3820e3c67184dU, 0xbd2cc98dbd35533fU, 0xbcc540b9bb2fc127U, 0x3c81f13abc98eb91U,
  0xbb5b8c9bbd6aeab6U, 0x3d09c66cbcacd807U, 0x3d572d523aaff4deU, 0x3da6b5fa3d339b4aU,
  0x3d8a83e1ba081c20U, 0xbd6e8b8fbc5f0ec5U, 0x3da107e8bdb0f761U, 0x3c21713d3baed8ddU,
  0xbd346ab23ccf3b98U, 0xbaf2b969bd29a352U, 0xbd8a1cb63d5ddaf6U, 0xbda049d1bdb2759eU,
  0xbc1c7882bd175a48U, 0xbce1b980bb951efbU, 0x3c852c6a3d34ecedU, 0xbc29e4f33d069375U,
  0x3c61fcc3bd2a8e35U, 0xbcf949dbbd05d2c9U, 0xbcc769cdbd39132fU, 0xbd55cba8bcd36f40U,
  0xbbfcdb4b3e0b2a62U, 0x3cd41fb9bd6edd4dU, 0x3d63d0e2bb78d874U, 0xbd88ecef3d58b3f0U,
  0xbe040685bdb6f272U, 0x3daebca63bb1b3dcU, 0x3d31402c3dbcf624U, 0x3d0f8d05bd200000U,
  0xbd807048bce5cc58U, 0x3d4a98abbdf928b6U, 0xbc0196c03d7d5a7bU, 0x3d889ece3da8591bU,
  0x3b0f46a33cb256e9U, 0xbda1643a3c559322U, 0x3c9e7c373e0dc107U, 0x3c6f6a763d46ea1eU,
  0x3cab4a7f3db28e89U, 0x3d4f5a38bc0fa03bU, 0xbd881d2ebcb24fcbU, 0xbd976afa3d038053U,
  0xbba18b223aea380eU, 0xbd37829f3ca3d519U, 0xbb291c11bbdf5d66U, 0x3c0d045f3b9f4d60U,
  0xbc91ca50bd074ae7U, 0xbc89a64cbb1027d1U, 0x3d2b62cabb2bb84fU, 0x3c1de4e0bc5e3926U,
  0x3bd373f03ce3990dU, 0x3cab263c3c920694U, 0x3d13e4cbbb254c1dU, 0xbc45d5d2bc89bdcaU,
  0xbbf701a7bc2e4d1cU, 0xbc7809ecbc13a7f6U, 0x3c836858bb836430U, 0x3c1dbfebbd7b9173U,
  0xbc845a40bd159128U, 0xbd5a78563ceb1da1U, 0xbc86e0033b6508f3U, 0xbcc943f33bf16b44U,
  0xbc24b244bc0cd54aU, 0xbd905b07bafc2a18U, 0xbd7a71d3bce304beU, 0x3c80585abd698332U,
  0x3c933c093bf019eaU, 0xbd0dfebd39e1cfccU, 0xbca04dc5bc17f354U, 0x3ceb69123bfc2dafU,
  0x38d299f0bd4671aeU, 0xbd699e1abc7d6eceU, 0xbd5d06123cb334d7U, 0x3c6881583ad10f33U,
  0x3cb749953e1f2d06U, 0x3d416f633cab177cU, 0xbcbe7d35bd7cc282U, 0x3ca0f33abd90db71U,
  0xbcf30e90bd2017c8U, 0xbbe048873dce9463U, 0x3c757996bd0241a9U, 0xbd8182773db5723fU,
  0xbc8da812bca18784U, 0xbcdfafcc3bf8a875U, 0xbcd473d23d2e7da5U, 0x3dc3caefbd5584ceU,
  0xbdd03b53bd84fd5cU, 0xbb8e02c7bd1da182U, 0x3d6df235bb5e1a34U, 0xbdcd788f3dbce23aU,
  0xbb8194693cacfb03U, 0x3bc86e5fbbf5c861U, 0x3d502d86bd47791dU, 0x3cb6e859bcb6cd53U,
  0xbd06f919bd8241f3U, 0xbc2c97423b4f3979U, 0xbd9ed235bbfd523eU, 0x3cb2898ebc060c74U,
  0xbbe63e713c811d96U, 0x3b2f678139dae86fU, 0xbb90787fbc283f08U, 0xbaee29643aa82367U,
  0x3c269a70bb2a9bf8U, 0x3b8d613cbcd571dfU, 0xbb0ca7513c1b18ccU, 0xba40c85e3b6b796aU,
  0x3ba4b00d3bba7dd6U, 0xbbec0bca3c11d57aU, 0xbcc018d2bb8dce04U, 0xbc5b9f63bc8a7039U,
  0x3bbb08393d291498U, 0x3c546d503a36fd97U, 0xbc718a663b021d3aU, 0xbd8379aa3da7a530U,
  0x3d6efa463d336796U, 0xbc16a288bd2c036dU, 0x38914474bcfe772dU, 0xbcafe8263cab1fd5U,
  0x3d03879a3c9ca3d0U, 0xbd102265b8af7a2fU, 0x3b48f84cbc455002U, 0xbdab4776bc66f5d8U,
  0xbc3447a5bbcb6e3cU, 0xbd61fea03b6db5e6U, 0xbb3fed86bd3a6eafU, 0xbd21536b3db675f2U,
  0xbd4014c83d5750aeU, 0xbd990d693c2b0981U, 0xbc0d8a4a3d1e2fcbU, 0xb9e033f5bc996dadU,
  0x3cdafef33ba8ee1bU, 0xbdbef0abbb04b20fU, 0xbb87b64abd4a2f1bU, 0xbd41ddc03d126a49U,
  0x3ced8e4cbd586612U, 0x3dc160413da97523U, 0xbc1a533c3b39e0e5U, 0x3e2832273d92544dU,
  0x3ca079603c5ba988U, 0x3c0fa0563b9f8fb9U, 0xbc42067b3d4fb406U, 0xbdcce483bd7063c8U,
  0xbd5109753cce87f0U, 0xbc86a603bac85ce1U, 0xbbf77349bd090d49U, 0xbcb487393b429823U,
  0xbb085eb93d1bb175U, 0xbd845a483cfe9cccU, 0xbacf8741bc84f6b7U, 0x3ce9cc53bc65cfe9U,
  0xbd1c86f23c764fe6U, 0xbc813e683d02b691U, 0x3d5c366dbc40f170U, 0x3c965804bc3143eeU,
  0x3d2492e8bdb87e58U, 0x3c07d007bdabe823U, 0xbd9c8a1a3d594463U, 0xbc4d0a11bc914154U,
  0xbd08cb81bc3731ceU, 0xbd0916973d8f080bU, 0xbc80c87f3bb29f25U, 0xbc25e26abcf0b3a7U,
  0x3ce596f03b9d76e6U, 0xbd54bf083c81f2d6U, 0x3b2e37793c27d5a7U, 0x3c61448ebc77f3c3U,
  0xbba1b8a03c8e3c89U, 0xbce8d60bbcc9b3deU, 0x3c8314bc392a9778U, 0xbbb6af7dbd07c8cfU,
  0x3fb82c6d3eb8892cU, 0x4010eb4f3ff4263fU, 0xbf78db8f403e2501U, 0x3fcd9933bf4e85b6U,
  0xbfadc71c40157e57U, 0x3f5ff050402aadcbU, 0x4011c6c63f9fcaf8U, 0x3f101e45401a7a68U,
  0x3f9fe00a3edcbd42U, 0x3f966e35400e2fe2U, 0x3e851a40bd9c7e66U, 0xbf1a852e40010f21U,
  0x3d76251040288f04U, 0x3fb886ac400e3183U, 0x4060ac8d3fd82188U, 0x401df1c94036365bU,
  0xbe7cf41c3fd6a63cU, 0x3f0d17d640001f57U, 0x3fc5ecc53ef4d17bU, 0xbf132b64402752dbU,
  0x3fcb8f9f3fef47e0U, 0xbf869acb402c26a1U, 0x3fc3fd5e404ef908U, 0x402d77d03fdd4c1cU,
  0x40099e814082fc87U, 0x3fdbd7e0bded3664U, 0xbd001cddbf87fdaeU, 0x3f90b493bf88ac38U,
  0x3ff1cfb3bdd8bd6fU, 0x3fbc9a2640049244U, 0x3fb4892e3fcd9d4fU, 0x3f7b228a3fbb6b99U,
  0x3ff62958401ee769U, 0xbfa9feb23fa5bee3U, 0xbf231a953fd6c613U, 0x3fcc83983f8fe5d1U,
  0x3f8566f240047bedU, 0xbfa62589bfc38390U, 0x3d7d76c83fd5c38eU, 0xbebe0e743f44a0a8U,
  0x3fd76e8440047b0dU, 0x3ff46abf3f630fd7U, 0x3d85e45e3f92f9d2U, 0x407402af40168d72U,
  0x400e656c3fb45560U, 0xbd9124233fa6d6aeU, 0x3fcd71443fbadcacU, 0x3fd7f2473f92862bU,
  0x1f2f6cd41f6633d2U, 0x1eb36eb21ed51303U, 0x1d3726bd1e3cddc9U, 0x1e82dc2c1e88f761U,
  0x1f3674b11e295309U, 0x1e83db331ee47c8fU, 0x1e7dfbae1ec1ee17U, 0x1ec390711d5eb2e5U,
  0x1ea3aeda1eaa3bbbU, 0x1cab7eb41f134048U, 0x1e60422f9e23f28bU, 0x9ed74e1c9e41c16cU,
  0x1deb178f1ea5ce24U, 0x401801d41d5bf0edU, 0x3fcb7722bd3f840fU, 0xbf70451abe2e72faU,
  0xc0ca12fb3f681074U, 0xc05a2d96c0b9dea1U, 0xbe2533623e2249bcU, 0xbf800c18bc8563f8U,
  0xbde5b3f53e9ba2b7U, 0xbf9f8d7e3e4ca038U, 0xbdfd85f63edd0737U, 0xbd25fd303f70c6f0U,
  0x3f0bd268bdd452f4U, 0x400cb80f3d2104b8U, 0x3f5871e5bf0dc578U, 0x3e86cf0d3f9a9b11U,
  0x40187002bd77f648U, 0x3db1025940865751U, 0xbf79b56c3fcd83c3U, 0x3eb110e93e82d450U,
  0x3c6b9d583f4dd71bU, 0x409008e940056bd0U, 0x3f79ce54bf83baefU, 0xbe7211083ddbd1e6U,
  0xbff682103fcbb03cU, 0x401f29cb3f2cf161U, 0xbf3a7e8abf992cc4U, 0xbfc7fc613fb0cacbU,
  0x3bf41eb43ef45333U, 0xbd56ca453e8b11a3U, 0x3f6bd9a63e96994dU, 0xbc8480223e081e05U,
  0x3b584e1f3dcd49ffU, 0x3ea4bd4a3e3486c3U, 0x3f343623bcccba26U, 0x3e88cac53fab13afU,
  0xbe22efbdbe2f1172U, 0xbc125f223d8ba0dbU, 0xbd4ef5e9bd09ddf5U, 0x3ea604543e8e5a5bU,
  0xbd6e873d3dcfad6eU, 0x3d5684e5bca3f205U, 0x3e4fb2bf3db5165eU, 0x3ce26842bc86d6abU,
  0xbc73a9c53e78b043U, 0x3ce61708bda0d622U, 0x3dbd2ed1bca53d03U, 0x3e0115323e6842ebU,
  0x3eb65d693d842145U, 0x3d22349e3dd089f1U, 0xbd1b2a913e184913U, 0x3e5b436d3dd4ab53U,
  0x3db299793dca3aa4U, 0x3d63bbbb3eaafb68U, 0x3d8a7b53bddab13fU, 0x3ebcb1ae3d77963aU,
  0xc09e3aaa3e8e3139U, 0x3eaba862bd4a15f9U, 0xbe6ee355c0864b88U, 0xbf9560ad3fa51b90U,
  0xbfa829073e95ac5dU, 0x3da4c68ec0a8030fU, 0xc09724f2bfc7f292U, 0x3ef47470bdb3c781U,
  0xbe0dcc1bbfa8ff73U, 0xbf4f6c703f17303bU, 0xbc7b242e3da22f75U, 0xbdee92adbf59e2c4U,
  0xbf67414a3ebac17eU, 0xbf4499cd3e76ac6cU, 0x3f0494fe3ef9bf16U, 0x3f0ece6fbf881d1fU,
  0xbe82b7bc3d8e802fU, 0x3ec14e8c3e1fed8aU, 0x3f518e34bf96cae7U, 0xbfc7bc353f378ab2U,
  0x3d6213d73f733deeU, 0x3e864de6beb1c37eU, 0xbed2376b3e4e13a6U, 0x3df222c63e5f46fdU,
  0x3ec2db71bf0811bdU, 0x3dd1f49bbe2a4869U, 0xbfe96d123d421982U, 0xbdee90683ef1d4a3U,
  0xc00a8a99c0a2de7bU, 0xbf8917edbe36a708U, 0xbd7378e33f87245fU, 0xbf15d48cbf5e71bbU,
  0xc0c0aa0abe5d4847U, 0xbf186370c0974aa0U, 0xbeb50d38be71dbbbU, 0xbf93d5383e46154fU,
  0xbf4409d83fb5a022U, 0x3ed69e06bf2f6718U, 0xbf9062f9bebb0eb2U, 0xbe9c6ab33f92e158U,
  0x3df2c0ce3dea36a4U, 0x3de8545d3ddc7d24U, 0x3dda4fc93df1f1b3U, 0x3deeefd43de7f884U,
  0x3deac9003dd85af9U, 0x3dda18b13deff915U, 0x3decba8b3de5e530U, 0x3de74d463dd69bf5U,
  0x3dd5767d3dec71ddU, 0x3dedd9a03de82847U, 0x3de629343dd98c2cU, 0x3dd7cd033dee0e82U,
  0x3dec20733de6d16cU, 0xbe84549a3dd650a1U, 0x3d45f44fbe0f2c27U, 0xbdff14d0bde0ac5cU,
  0x3dbfe32dbbe6237cU, 0xbdc468633d65817aU, 0x3fb0fc5d3fa3e5ccU, 0x3f7b399cbe700720U,
  0x3df4ba1c3fcc2d25U, 0x3e73b750be0187e6U, 0xbed00c5b3eaff624U, 0x3d980390bed9239cU,
  0xbef2d64fbcf02a0aU, 0x3df7910ebdd588a2U, 0xbe88a3203d206518U, 0xbfda79bebefd29c0U,
  0x3f370ba5bebeae6aU, 0x3ed34ee73ffa6fe8U, 0xbe8b2a59be32bff2U, 0xbf99ba5cbd7fc9f7U,
  0xbe8f07afc0074d14U, 0x402840db3fd26667U, 0xbeac69e53e99180eU, 0xbcb55239bf0c87ebU,
  0xbec6aab1bf22445cU, 0x3f42f45d3d41c666U, 0xbe6bb0283ef3693aU, 0xbcbae202be2a78ceU,
  0xbc9b7ec13e092b36U, 0x3e151135bc8a320eU, 0xbe0394bf3dfed680U, 0x3e53801b3e3b1d10U,
  0xbe1ecc6fbeeec6a5U, 0xbe0f7c04be77be13U, 0xbe43413f3c1e76e9U, 0xbdf89fb5be93dbf9U,
  0xbe4eb7853d39039cU, 0x3dc9889dbe29cfd4U, 0xbeb86edcbdd84651U, 0x3f78f2d03f684c9eU,
  0xbdb987903f10372cU, 0xbe0e62c03e82788aU, 0x9ecff93d9f453588U, 0x9f2109691ec17d23U,
  0x1db2ccd99f0f2adcU, 0x9f0a8b8c9e408151U, 0x9ed3590b1e35f4c3U, 0x1f215a999e5260e5U,
  0x9ec6477b9e652902U, 0x9d9f9b711ef4ab39U, 0x9e80f9ba9f1aff6bU, 0x9e1a042f9cf9723dU,
  0x9efe1ca71f341d64U, 0x1eb253f79ed07486U, 0x9f7307c19ea68e19U, 0xbf5f98a39f0dd18fU,
  0xbe9915a3bfd48ab9U, 0xbff294e1bf860aadU, 0xbe1d8112bed97830U, 0xbdb78d60be967134U,
  0x3ffa571b3f86822fU, 0x3f7cb6953e862ad1U, 0x3ed8f42f400b38b6U, 0x3e8b208e3e063311U,
  0xbe13d10f3e423d95U, 0x3d622340bea7a188U, 0xbea1b1883c9e17deU, 0x3be4a647bcd92e07U,
  0xbd8356de3d92bd4cU, 0xbca03a213eb7cb3fU, 0x3f162b54be6fe558U, 0xbea68213be279d73U,
  0xbd23d4533e853592U, 0x3f272b05bdd4850bU, 0xbefdb948bdd7411aU, 0xbe8ad3eb3f6bc506U,
  0x3ee2f956bf18db6dU, 0xbe656dc4bde5bec2U, 0xbd6f80823ecef2bcU, 0x3f0b7f22be99111eU,
  0xbead1e9cbe0ac6a3U, 0xbd0d5e753e4f2d66U, 0xa124397abdbe170bU, 0xa10f4187a11fefd9U,
  0xa1121ef1a11a77e7U, 0xa10e0ef3a0fdfa7fU, 0xa102a50da1114702U, 0xa0816eb8a08fef98U,
  0xa09fd31fa046d9f7U, 0xa082b8b4a09baa61U, 0xa05ee5c8a06d26f3U, 0x9fe2c50ba05115d1U,
  0xa003ab43a01c1d72U, 0xa038f0aaa03179adU, 0xa059b5fda030ab85U, 0xa0225888a043e002U,
  0x3f1ee82fbe79dc69U, 0xbea9a898bebe7539U, 0xbe8bb18d3ea672dcU, 0x3f14c3acbeb3de27U,
  0xbe8afcd6be941511U, 0xbd4ce489bef8acb5U, 0x3ef72ad2be9129e0U, 0x3c3e4865bd4c64f4U,
  0x3d4513ea3e04469fU, 0x3eb5acc6bd4f215fU, 0x3eb5e2e43e153e82U, 0xbe5cfb323e8ee087U,
  0xbf14f440bc8d82ccU, 0x3f92a24ebd946f71U, 0xbf3a67b23f701424U, 0xbf7dd1e7be97c174U,
  0xbe287dbe3eb1d5c5U, 0x3e827996be98eef0U, 0xbec4c3b53e4df4ecU, 0xbee0b1d93e05c237U,
  0xbf03f3393f948696U, 0xbf2647fc3deea2c0U, 0x3f0ed8e03e0a6ae4U, 0xbe3bb1f23f7376ffU,
  0x3f1bc97a3f35be23U, 0xbeb0bfc9bf3995d7U, 0xbf015063be34198fU, 0x3defc6be3e8153b7U,
  0x3daa5c953e5629e6U, 0x3e0a94953e967524U, 0x3def8b973e496cecU, 0xbe581386bec9bfb8U,
  0xbcc84837bedc157bU, 0x3e13696c3ef230eeU, 0x3dbb40e4bdc07da7U, 0x3c240f243de57204U,
  0x3f2f5638be2b969eU, 0xbf0bab8a3f4c5972U, 0x3e35353abfa8562fU, 0xbf2e5ca73f0cb165U,
  0xbdf10988be00e56cU, 0xbe6285dc3cb16297U, 0x3f57aaddbe18868dU, 0xbe52c0dfbe699955U,
  0xbd68efdbbe466d14U, 0xbe3a88bcbe24502aU, 0xbc0a1debbe8f73a5U, 0xbe91b00f3faa3508U,
  0xbe5a5cadbec2f21fU, 0xbcc100eebe273a3aU, 0x3dbe6db73f25da82U, 0xbe45a025bf1ab9fbU,
  0xbbe364e53ef358dcU, 0x3cb6d335bf0cad37U, 0x3fb629e2beac7d5eU, 0x3e9a4412be66d37cU,
  0x3c8a2efebf3e381fU, 0xbf6028173e44f79dU, 0x3ccb0d723e217f35U, 0xbd50ab16bf5a9989U,
  0xbf8cdc83bf79835fU, 0x3e499b0e3f55208cU, 0xbe46cca83f7efc72U, 0xbe6d70cc3f1cf7d7U,
  0x3fa79154be0dd4b5U, 0x3e725207c008079fU, 0xbe694140bee8f789U, 0x3bd367d23ea2cb0cU,
  0xbda325573db9ce65U, 0x3f5933d13e55988eU, 0x3b89736c3db10eb1U, 0xbb13b5163e7a759eU,
  0x3dc22efebd886cbbU, 0xbc4d589abd815d1cU, 0xbca823ba3f99ad4fU, 0x3c6ccb75bd9a48ebU,
  0xbe86d960bd8ea27dU, 0xbdc3580d3f4930fcU, 0xbec894dcbebba534U, 0x3ecfb15a3ec81bbaU,
  0xbdd6ceaabea5c533U, 0x3f7e4e1b3e561ddcU, 0xbe0b4e1c3d7168e4U, 0xbd5aa795bf77b720U,
  0xbd8acf993d5ac502U, 0x3d62bd9e3d1a7ab6U, 0xbc7387b4be998b77U, 0xbe098f663e6f1367U,
  0x3bb297ad3eaa2317U, 0x3d3841e3beac27d7U, 0x3eac8f773d40f2c6U, 0x3e13fc68bd54decfU,
  0x3c65c1013e917e74U, 0x3e80c3a3be10a4b3U, 0xbe8bf895bdf0dcd4U, 0xbe60ebe7be27ef24U,
  0x3e4ca775be375df6U, 0xbe3c658fbe559cbfU, 0xbe29c3e6bdeec521U, 0x3ef397983f41f405U,
  0x3e9648f93e3bf4c6U, 0xbe66d213bf371859U, 0xbe6091403c9b9faaU, 0x3cdf1f0e3dca8485U,
  0xb8adb6063e76d971U, 0x3ee9a5d83e37d78aU, 0xbd297aa53cd6729fU, 0x3ad72c8abbd3bfa4U,
  0xbefd85dcbea69e47U, 0xbecd6b48bef13dabU, 0xbea0aac6bedfb42eU, 0xbeeeb22dbda58671U,
  0x3d3909393db41e34U, 0x3ec661dcbedc9193U, 0xbeb4fad6bd0ce718U, 0xbe5bceee3ec739b6U,
  0xbeb582af3eeeac74U, 0xbee773593eb74c9aU, 0x3f6459593d48042dU, 0xbf025e22be9c625bU,
  0xbeb968653e80c497U, 0xbe5839df3dfcdcc8U, 0xbecd4521be7f4df0U, 0x3f7078debe24f1c2U,
  0xbf01373dbe11cb20U, 0x3cdd45fc3e1c8fe9U, 0xbe4795f0bee18533U, 0xbdb2d2203ed8eb81U,
  0xbe7368b0bee8be4cU, 0xbdfe7e843e9fda17U, 0xc0279a4cbe33348fU, 0x3f851c643f777acfU,
  0x4010830c3fa714d6U, 0x3f49ed97beabe1d9U, 0xbf48a33abed9a096U, 0xbf6cee613f165564U,
  0x3ff1525cbe762de3U, 0x3e7d882bbff80d22U, 0xbe110a223ec550a1U, 0x3e7e6bc9bded8aa8U,
  0x3da81d16be5f462eU, 0xbfaa5d7abf89a9cfU, 0x3e84c640bf2615eaU, 0x3e2136f3bd755655U,
  0xbeddfa183d5e63a6U, 0xbf1a20bd3ab07a08U, 0xbea936e9bedc36cbU, 0xbe9b55ae3d9756e6U,
  0x3e54ef553e4af233U, 0x3dafd8283eabd75bU, 0x3f57f2cf3f1b4d4aU, 0xbd91ffd13e80d6c7U,
  0xbe29d8003d7021a5U, 0xbf9e3a003f14b0eeU, 0xbf5395783dfe8f09U, 0x3d05c0e23f83ccdcU,
  0x3e83021cbdd5dd7eU, 0xbeb04250bd86e919U, 0xbf0cdf9dbfcd382cU, 0x401be47bbf8a18f7U,
  0xbf67d29cbea546bbU, 0xbef17a2b3e01a0adU, 0xbf261054bedebde1U, 0xbf067d67bdd4720fU,
  0xbed5b8ff3ffbaaaaU, 0xbec61b1cbdfb6322U, 0xbde57199bf0c4d6cU, 0x3e9c6ff5be251ae9U,
  0xbf9c55993e9d0430U, 0x3eb67bf63ed6a41dU, 0x3cca8313be8cde78U, 0xbf071c663e9b3442U,
  0xbe8ecfb53e4ad70aU, 0xbf273cb5bf86c3deU, 0x3f9e1fe7bcf56182U, 0xbcce48743ed583deU,
  0x3d9004f93e9657c1U, 0x3f14d33e3eeba37bU, 0x3c772a283e62f818U, 0xbe3f8ca13e86fc7eU,
  0xbc509d77be049f20U, 0xbedb497e3e66602aU, 0x3f8ef25cbf156ca3U, 0x3de0d741be06c308U,
  0x3e79a7883e57411eU, 0x3de060753f941aa1U, 0xbf632b62be7e8f11U, 0xbd8c23fdbd52bd14U,
  0xbcf38e8bbe098a4dU, 0x3fdc4aacbfbdd18fU, 0xbd8e7b54bfd06436U, 0xbf0962f13fbe0a6cU,
  0x3f68178abf6e11f2U, 0x3ea9a507bf2b3e09U, 0x3e997fd53ebf0be7U, 0xbf12e5763e505797U,
  0x3ee8bba03e059eb2U, 0xbe0cb534be281193U, 0xbf46c57b3eb7a1b8U, 0xbf39cae53e89620bU,
  0xbf162613bff32038U, 0xbf12d60b3d4961cdU, 0xbe96180e3d3b0cadU, 0xbd9c3d54befb544cU,
  0xbe1fed863f0b19a5U, 0x3e015752be7fb5ceU, 0x3e91f2773ea514b8U, 0xbef0a07b3e21c00cU,
  0xbdc9ef563e1bfb1fU, 0x3d8ee82abf07aeeeU, 0xbe93a35b3d42c3c3U, 0x3f17de4f3dc86e17U,
  0x3e2ef635bf26ccc3U, 0xbfd143823f5b2645U, 0x3efaa6e03f1734b7U, 0x3e664160bf09a949U,
  0xbed4dc8bbf06f2c8U, 0x3ed96b38beda7ae8U, 0x3e5d5204406846f8U, 0xbf69ccb4bed8bb8cU,
  0x3e6f9d40be7bf1aaU, 0x3d3d3fdebf18dd05U, 0xbf04a7323ee522aeU, 0xbdf974113f0cd216U,
  0xbb65a37abcc52782U, 0x3f549e02bef569f8U, 0x3ebea710bea73172U, 0xbe6134db3fd3eaf2U,
  0xc01f23a73e3c5511U, 0x3e1aa2723e38bf6dU, 0x3d002b443f29c384U, 0x3eafb3cdbc1b1428U,
  0xbe23bbc93d4f0fddU, 0xbda01e59bf82ac27U, 0x3f050f0e3cda6ba0U, 0x3e046b28bdacb4c2U,
  0xbe8562d93f7b925cU, 0xbeb38a663e4e444eU, 0xbd213e913e2f322dU, 0x3bbd0b91be4c9fe0U,
  0x3f49ecfcbeab2516U, 0xbb75b5c8bee4c241U, 0x3d152315be220882U, 0x3eca30743e017667U,
  0x3e7b8a45bd118912U, 0x3cb7fbd83f97f918U, 0x3c29c4793d7d263bU, 0x3e8012b7bd4623d1U,
  0x3dd788f83edaf66fU, 0xbf2a6db13e25aa5aU, 0x3d9076bb3dc5f7cbU, 0xbcf268103e4e079dU,
  0xbea7bcc9bf2465acU, 0x3f6c0ab8befdcf28U, 0x3f2b81123f3ae665U, 0xbeeeb7b4befeab10U,
  0xbf4c71b0bee8bdcaU, 0x3dce8de93f333d98U, 0xc005136e4001c9c3U, 0x3edb9ff63d322378U,
  0xbe55987abdda975cU, 0xbe2f392cbe057129U, 0xbe1c209cbda19dc1U, 0xbc548380be82c3d4U,
  0x3cabff84bd0e3a61U, 0xbdffd8fdbc45e78dU, 0x3eb33561bf41c651U, 0x3f5c16d0bf10cadeU,
  0x3dc0f3733e1ac700U, 0xbe7969d43e8a9e3dU, 0xbf16f217be21435aU, 0x3fd4ae543bf67a35U,
  0xbeef2d5d3e84d547U, 0xbd82be743e5b3229U, 0x3be48bb2be10a898U, 0x3f2144a9bf1590b5U,
  0xbf9414bbbef5480aU, 0x3c2ff7fd3ff1938fU, 0x3e2f5f10be79e705U, 0xbe9c2ed23d4f926eU,
  0xbe33122c3e2fe1cbU, 0x3eed2025bf20e9e9U, 0x3d25f20dbdeeba99U, 0x3e8415513ede33f8U,
  0xba4bd8243ee773bdU, 0xbf2ae2683f5ceeb2U, 0xbcb5f767beafeaa5U, 0xbd83977abe9f1064U,
  0x3ecfc0d83ec3a7e2U, 0x3ece4268bd27ef9fU, 0xbe7d0f32bf37848eU, 0xbe96d2dbbb0d7321U,
  0xbe0ecb683e4a02caU, 0xbe5a2224beacc0d6U, 0x3f2e4353be5117a0U, 0xbe8008843d94c152U,
  0xbc466d6f3e3395bbU, 0x3ea0b9cf3f55541bU, 0xbe40b191beb23728U, 0x3edeb60bbfbb59e4U,
  0x3f383627bf0c5ff1U, 0x3e24f783bc450cc0U, 0x3e94f8503ed0fde8U, 0x3fd9ee99bb41ed07U,
  0x3e5824ecbe14da8eU, 0x3ec7f79ebe9a67f2U, 0xbf2f2f50bd8dbec0U, 0x3f890cbf3da8c38aU,
  0xbf275de4bf85a9c8U, 0x3f7958d7be879388U, 0x3db021393bcaa84bU, 0x3c79e6063e155573U,
  0xbf14800b3e389d62U, 0x3d82461a3f0ea083U, 0x3cec61f53efd539eU, 0xbe1d33833e23886dU,
  0x3f8780dabd0b2f4eU, 0xbe28d3b6bf699086U, 0xbe5422903e591d59U, 0x3f069f28bd11d4e4U,
  0x3e1cf6c73ec23036U, 0xbeaf7ae03ecbd053U, 0x3df8d6bfbeb4fb77U, 0x3daa4f52be960c98U,
  0x3fbe82483e9fe04fU, 0xbefecd543e12794fU, 0x3becee36bfccb598U, 0x3e2181d53e391689U,
  0x3e06ce1abe568b8cU, 0xbe2addc33f460309U, 0xbefb26183f1dcf46U, 0xbe0a9a5abea987acU,
  0x3db41885beb763c0U, 0x3e187a003e927fe7U, 0xbd23f275bd4d4db6U, 0xbe39e4523fb3a410U,
  0x3d368b553e98edbeU, 0xbd115955bc8d7779U, 0x3d59ed823e911d90U, 0x3fc91a063dcbdf15U,
  0x3da2ed8fbe98c722U, 0x3e522a693d8223a6U, 0x3c89ab0dbd6cd636U, 0x3db729c4bd80ae4aU,
  0x3e322714bf45b06fU, 0x3f1be8243ddf1f2bU, 0x3d889d9b3e6cac23U, 0xbc9ed1ce3e5f9250U,
  0x3ef1288f3d780307U, 0x3d02e4f43d8d044fU, 0x3c9f93883cd1df4eU, 0xbd89fe873e8575a9U,
  0xbd8ee0e1be332ec2U, 0x3e1b6c24be289a49U, 0x3dd68b6dbe276e21U, 0xbcfe98523e1ecbaaU,
  0x3c9fa9473ebde0cdU, 0x3f6621cb3dabdf74U, 0xbd8d84c5be82e098U, 0xbda80a873e2793faU,
  0x3f0359a0be051536U, 0xbeb7a018be3f06c1U, 0xbf1180ca3f825a48U, 0x3dbfb0edbd82cc9cU,
  0x3e02163c3d1aab37U, 0xbe671e9f3f9fe0b7U, 0x3e9cf93c3f96c74eU, 0xbdd11facbec989d8U,
  0xbd8e9c9bbf7747a6U, 0x3f5e2023be3f6254U, 0xbf0a8b98bdceeadeU, 0x3ec9f53abe9b6187U,
  0xbeac10db3dcfe57eU, 0x3e590a35bd31bd52U, 0x3d089f0dbe7aa7a4U, 0xbfb209773f9e6d02U,
  0x3e3b61cc3e242cacU, 0xbe468df63cb5f46cU, 0xbc6bc74d3e7eb3c3U, 0x3c1085dcbe59b0e3U,
  0xbdb27eb33df64c43U, 0x3c08fb4abe7fbd35U, 0x3dde987a3e1633abU, 0x3d80746c3eb87090U,
  0x3f1e01013e3ca807U, 0x3cf22ea3bd4e10b6U, 0x3c7896203d534863U, 0xbeb5c9b4be78cdb8U,
  0xbe3afaeebdda81e9U, 0x3e6f1dc43e9d2f96U, 0x3ed56ffe3d1e975aU, 0xbea817353e07a231U,
  0xbee4c203402829fcU, 0x3f7e52c33f229985U, 0xbf6654b93efa97a9U, 0xbf4ac4323f4d7da7U,
  0xbfcc7e66bc894f51U, 0x3f893695bf2bd386U, 0x3e6c1f9b3fdffdfdU, 0xbf50b870bf45fd1dU,
  0xbe2449e43f4da63cU, 0x3e00c55bbef9dc17U, 0x3d67e07ebf215034U, 0xbe7188323e9bde9cU,
  0x3e4c4d113e3c29f9U, 0x3d764a1dbe70df98U, 0xbef458adbec4e683U, 0xbf24fade3fec2a9cU,
  0xbe9239d9becd5579U, 0xbd8b84fabe86393dU, 0xbd617cdebe537b0cU, 0x3a16f13bbc45f89fU,
  0xbd900dcf3cc94474U, 0xbda9765abe362b59U, 0xbf2103a53be19594U, 0x3f6256e93e4d5610U,
  0xbe9dd381bef3b1f3U, 0x3e8ee8863d72406bU, 0xbe055e1cbd6cb0a5U, 0xbdfc372fbf1e18a1U,
  0x3e287e24beab6e56U, 0x3e8bde1a3ef0f3f6U, 0x3bef0de33ec0c7baU, 0xbf0a06ffbe606027U,
  0xbea13712be51be08U, 0xbeb84a0c3fde76a1U, 0xbe13602bbe811ab2U, 0x3e8a7526be4ccf56U,
  0x3af3825d3f95cf9eU, 0xbfb85e15bc8a3771U, 0xbdc609debd9af32dU, 0xbe26a6c73e858b8cU,
  0x3fee6db2bfb412b2U, 0x3f85fbc8c186ba52U, 0x3f80d238405745b4U, 0x3f88f220404db427U,
  0x3ffc8381bf5813e8U, 0x40a1307a403fda11U, 0x40746758bf9e8538U, 0xbe08b5e3400648e8U,
  0x40b53de2401de640U, 0xbe99f368be8213d1U, 0xbf51d55b4056d9f7U, 0xbc5e1358bc9bc7d0U,
  0x401792763fdb3e71U, 0xbdd96ff6bf97cc73U, 0x3f2fa06e3e8b4341U, 0xbfb3b9744005f250U,
  0xbdeb5586bf6d41caU, 0x3f8a2418be084375U, 0x3f81e430bf4a9cb8U, 0x3f3953bcbedc2972U,
  0xbc48ade0404b6468U, 0x4043c222bf63c5dbU, 0xc11947b53fa82450U, 0x40afe5df3f371581U,
  0xbfcc152c402e18beU, 0x3cef26003f183fa8U, 0x3de087d8be8da368U, 0xbf5bbf7c3f665d36U,
  0x3df506a9bf90ece4U, 0xbaae5a80c039d1f0U, 0xbe0198644128901dU, 0xbf1746143f998cd4U,
  0x3e005b30c11e87acU, 0x3b44ab80bc94db45U, 0x403307eabf0aa0d5U, 0x3fe07940bf590b76U,
  0xbe6021344032fcdeU, 0xbd7857043fe8eb88U, 0xbeaa2837c02bdb7cU, 0xbd4c3fce3e2a70e3U,
  0x3fe5cf0fbe6fc9d2U, 0xc00daed0be698d0cU, 0x3e986ba8bf2510caU, 0xbebe7aa13cbedd60U,
  0x3dde788b3ddb5986U, 0xbff3a893bf33e634U, 0xbe5f4baebe106162U, 0xbfa7b549402651c9U,
  0xc029d276bf901740U, 0xbcb2c570bd874376U, 0xbfc50e2e406115caU, 0xc15a5cb0bf58256aU,
  0x3f895aecbfe7e14dU, 0x3f94c32abf56e12fU, 0xbe67114c3e07dac4U, 0x3ef9f51bbf79e973U,
  0x4080db16c1091ce8U, 0xc12165ba3ff42133U, 0x3f8e5354c0c6f999U, 0x3fe8505fc1127c81U,
  0x3db23c1b3fd0fd67U, 0xbde9fe953deeab10U, 0xbe48b19b3f197ad7U, 0xbeaf66183ba43f60U,
  0xbd090b52bca1d2e8U, 0xbfa5ccfdbf580bfbU, 0xbe6e7edf3f6b6510U, 0x3f271c45bf167b51U,
  0x3ea0ddc23f31a43aU, 0xbfbd5fa53e4351f9U, 0xbcc26f223fbe1017U, 0xbe2e57823e20e3a2U,
  0x3cd22b1a3cc7435bU, 0xba3b4f1ebc9af6f6U, 0x3f50de793e7ea030U, 0xbe8fdd85beed5f9bU,
  0x3c91cb5abd4769ccU, 0xbe3226acbd2a869eU, 0xbed27d963cda6112U, 0x3ed6b9f5bf48c840U,
  0xbe1fbcc93dcc56f7U, 0x3e7a2f9f3e58f4c4U, 0x3dbc77643e80baf8U, 0x4004a2d53fa6ef4aU,
  0xbee9b903bfc38bf1U, 0xbece787e3e0bb857U, 0xbf0c0ea8bf210f67U, 0xbf1cbc6f3e1da4b1U,
  0x3f1d8dcdbf827321U, 0xbe68493d3dd4d6dfU, 0x3ed0132a3e85800eU, 0x3e2ccd3e3e1e9936U,
  0xbd869c95bd8ef38aU, 0xbcb079e8bd96bef5U, 0xbdca28ffbdabb9c7U, 0xbdc6fd5dbd730d7bU,
  0xbd14b640bdb701bcU, 0xbea2d16b3fbc7af6U, 0xbf8437393baee474U, 0x3b4365b03d975e4aU,
  0x3d4ab25fbe1be342U, 0xbf8568afbd88557eU, 0x3cb529cb3cfa538bU, 0xbc77df7e3e31defaU,
  0xb9b16bd4bb52f049U, 0x3f6935a2bbe766e0U, 0xbeec34e93fc7da6aU, 0xbece99b4c05697c0U,
  0x3de5c4ac3d78c7cbU, 0xc07bd23240245d38U, 0xc04f84e0c07b37eaU, 0xbfc1f83c3ff29476U,
  0xbf297662c04de688U, 0xbfe4784e3f9eb3b8U, 0x3d49d3b34053acb2U, 0x3c80c0ef3d6a0b1bU,
  0xbfadcc963db87b5fU, 0x3c9373f33e021a8cU, 0x3cf08b4aba518065U, 0x3f74d9893ed052beU,
  0xbe637fecbf4358e8U, 0xbce898283bd8582bU, 0xbe5aad2bbe4ed6caU, 0xc141c20a3e034820U,
  0xc0990719c0829e39U, 0x4073c551c01372acU, 0x4070455c40e5bf96U, 0xc1a8b9aac1937042U,
  0xbed67612bf40eb41U, 0xbf6f4a44bd3a9261U, 0xbebf0c683f25be6cU, 0xbe3cd0d0bfafe108U,
  0x3e7a84383f448222U, 0x3e346f70beb0f1ccU, 0xbe667740be9ead7aU, 0x3e71aa37bf1f8d6aU,
  0x3e9b92e23a3c8b20U, 0xbe43daf4bc1191d2U, 0xbf95b4463ef61eb5U, 0xbdb5e6b93e12c46bU,
  0x3eceac9d3e79d5c8U, 0x4090c6953d3d2fecU, 0xbfa54baa3fa991b0U, 0xbed6ea483fc8da0fU,
  0x3e373ae5be3a05c7U, 0xbd75391e3de0e160U, 0x3f1094e2bf098fbeU, 0x3d79c1a5bfcda04aU,
  0x3ec282bdbe9bddd1U, 0x3fa0f3bd3d5df286U, 0x3eb9d6fb3d1e0a89U, 0x3df368883f1a0fb9U,
  0x3e2b7d193f6b403fU, 0x3ebaeccabe8fb3c2U, 0xbf4e52a83e82313fU, 0x40391b3cbecd78f0U,
  0x3e5f42fbbe80cf70U, 0xbfb763b8bf85921aU, 0x3f7a554ebe086a0fU, 0xbf803818bd5d491cU,
  0xc014666bbfca50d2U, 0x3fce45b4bf2567bbU, 0x3e08cd223e7e0603U, 0xbf1c7bfc3f2a5616U,
  0xbf9bdb49bea21511U, 0xbf3c93903b8dc3b4U, 0x3f417316bf82ae17U, 0x3e9b9ddfbcfa214aU,
  0xbf5d0217be676ebfU, 0x3f4747b93f7d23baU, 0xbe9ece213c106e11U, 0xc0569045bef58fb3U,
  0xbf09db273e653edaU, 0xbe4050153e53eec1U, 0xbfaa2c923fd968a8U, 0xbeb814ddbf943023U,
  0xbfa256c33f2949dbU, 0xbf848fcabfb2d5c1U, 0xbdd8b464401b9bc6U, 0x3ecd754d3fb7766aU,
  0xbfd3ba19bee632a6U, 0xbeb1a8cabf867e47U, 0xbda479363e651fe4U, 0x3f6152e0bf86b5ddU,
  0x3e687ad2bf99092dU, 0x3f7f86623f7340b3U, 0x3f271fd63e5c4ae9U, 0xbf533defbe89673cU,
  0xbe4908bd3e4cee4dU, 0xbf88959dbec0f2daU, 0xbe6379d43f4f40a9U, 0x3f2fc195bfaae67cU,
  0x3f7ddf0abef501a1U, 0xbe3f516abe7e8240U, 0xbe6652be3e6d5f6eU, 0x3f1eb8023f13099cU,
  0x3f1a114dbf032b60U, 0xbf10a48fbf28e019U, 0x3fda6f86bf38c0fcU, 0xbd9a9a91bde54334U,
  0xbfcf21833ec7d61eU, 0xbf2f24fd3d9cfbb3U, 0x3f5452b6beaf9db5U, 0x3ed03e263f7ff531U,
  0xbefa8db0bfa8f253U, 0xbf26ae9ebf148bd1U, 0xbdd9401f3e586160U, 0xbf189a3abe58159dU,
  0x3fe0dff1bfa44138U, 0xbf12dd87bec1a884U, 0xbe874c25be1367e2U, 0x3ea3cff6be9a3a31U,
  0xc007a2ae3f76aa78U, 0xbd29aaeabf159010U, 0xbf808a583f197a90U, 0x3d2372af3f0bb083U,
  0xbea3c4333de18a73U, 0xbde1443f3f07f53dU, 0x3ededf90bf697c4cU, 0x3f2725c8be996fdaU,
  0xbf37f0d83f4cf933U, 0x3db0a40c3d381072U, 0x3e8e1b683f744d9aU, 0x400e43983f044aeaU,
  0x3ef2b25abd35dabdU, 0xbe594317bf4709c6U, 0x3f32e08d3f104eecU, 0x3f13a9a73e24f6f5U,
  0xbf8a9a0b3cab5fd6U, 0xbdc61aefbe81224cU, 0xbdb47d123dc51bc8U, 0x3e332a483e5bcebaU,
  0xbe2931763e08ea3eU, 0x3f1304f5be6fb6b1U, 0xbe3ec06b3e82a135U, 0x3e9535013f5f1832U,
  0x3ecc3ee93ea6d07aU, 0xbf1eb9d5bd11cefaU, 0xbdfe26613e8f40dbU, 0xbf251c423f096678U,
  0x3ea51e503e352d30U, 0x3eb0c0bebe5138f8U, 0xbf2e7e09bf848106U, 0x3f0117633e86f5dbU,
  0xbf0c00abbd111c17U, 0xbe1b8edfbcb914a8U, 0xbe56f889bd0957deU, 0x3f3cd04a3df6a404U,
  0x3e988651bec79b5aU, 0xbdb2e32cbe9f77a1U, 0xbe2933cb3f6ac110U, 0x3f060dbcbda64b5cU,
  0x3e81d1413e5d382cU, 0xbd83d2e83e97bd4dU, 0x3e9780b63cb9c2d2U, 0xbe58f5d93ebc12ecU,
  0xbe0c2a7a3e7e6532U, 0x3cecf0f8be87a15cU, 0x3e29efdbbf165e7cU, 0xbd49d861bdedd369U,
  0xbf0ae91cbeea5133U, 0x3ebce4cabbf7839bU, 0x3ec239b43f1c881aU, 0xbca308293e62f913U,
  0xbf181fd43df72135U, 0xbd465d5b3e40dc46U, 0x3e1d124cbe761cd4U, 0x3e5e2e75bcd1cfedU,
  0x3dbe8528be3cd909U, 0xbe9ed2a43d56084fU, 0xbe98615cbc250c68U, 0x3d38df45bf084bb9U,
  0x3de581013f248a15U, 0xbe1e5cff3f6c3847U, 0xbe88bda03ef49aaeU, 0xbdb79b9c3d9eff27U,
  0xbf016bb7bea9f9ffU, 0xbec86c6c3d62d4afU, 0x3e8a81c63ce9fa0cU, 0x3f6afa1a3e6a1bc0U,
  0xbe3bedc63dfc7916U, 0x3df3990a3ea04d2bU, 0xbae651033f863a10U, 0x3e719f993ec7da99U,
  0xbdd2138e3efaf3f2U, 0x3dc99beebe26167aU, 0x3eaabf403e5ef712U, 0x3f4a87b9bd888338U,
  0x3e429dbfbf46fd13U, 0xbdc9e7a73e66f8e5U, 0xbe5ba650be93df5aU, 0x3e6f51afbe439850U,
  0xbecdb1d4bf3f707fU, 0x3df51ad43f0ac0e9U, 0x3f02ab9f3e7ada45U, 0xbf37d7aebee41d63U,
  0xbec04690bf0af21aU, 0x3ea7fce3bf0a08c6U, 0xbf92ae983d5937b5U, 0x3e74b8e13e28fcddU,
  0x3f025353bf49da24U, 0x3ed07d7e3f29a381U, 0x3f4ba2773dd3a5b9U, 0xbeec53eabcbe6d4eU,
  0x3f17c6953e58cfe0U, 0xbf04f63cbe21a308U, 0xbd7849cf3d5fd941U, 0xbf1990a7bd1f2c1dU,
  0xbec0bd343efcdd87U, 0xbe931c643ed4a551U, 0xbd7390c83e37fc2dU, 0x3eb6e4113f039110U,
  0xbf304360bee13adaU, 0xbd6284f83d610602U, 0x3dc109f1be93c930U, 0x3e9af37c3e84e6adU,
  0x3cab382d3de2479eU, 0x3f0fccb93e69af2cU, 0x3f7891373e4d8c08U, 0xbeeb8af23e81bbf3U,
  0xbeaaa6473f273d51U, 0xbea62e5e3efa78d5U, 0x3f56d6f240186087U, 0xbf0b5efbbe9be5a2U,
  0xbf7d5b51bf32dbcaU, 0xbf2988ecbf367d9bU, 0x3eb5765dbf8910faU, 0x3f35f20ebdc49bd1U,
  0xbfb0e89a3eafa8d0U, 0x3fccaefcbf595a74U, 0xbe7081b9bde54483U, 0xbee9737a3f1cf1d0U,
  0xbd097309be40d6c0U, 0xbf6b433b3defd03cU, 0xbebe7249bd8f4873U, 0xbf6ad6a03f74c1a8U,
  0xbe2227de3fc6219bU, 0x3e99ccc4bf141d0eU, 0x3c0856a93f164644U, 0x3e3cd3af3dd5af67U,
  0xbedd3da7bf355c13U, 0xbe6fb9b3bf067622U, 0xbf90012ebe6b4798U, 0x3e1ed0c9beb4258cU,
  0x3d64d0273ed3e8a4U, 0xbe613dd6bf14380bU, 0xbf25206fbeaebfe1U, 0xbec769783a9a0b2dU,
  0xbea0d7ef3f151c78U, 0x3f03993cbf1c77d3U, 0x3f731cc6be1b6cc7U, 0x3e7c321e3f90a7ceU,
  0x3f3cc0c43f767dcfU, 0xbe78c6c4bec8c650U, 0xbea81ab5bf857006U, 0x3f93db283f45bfa7U,
  0xbfb587cc3ef26c7aU, 0xbec6db6fbf82e283U, 0x3eeeb2513f3350aeU, 0xbf2ec7ab3fd20471U,
  0xbf49700b3db30861U, 0xbe83e48a3d35a982U, 0xbc86ad9cbfc1c0e5U, 0x3f592e533f5803ddU,
  0x3f033a35bf8707e4U, 0xbf8249013cc788eaU, 0x3cb660643df259a8U, 0xbf376db73ef590dcU,
  0xbdff3d26bdcaee14U, 0x3ed83641be7c17e7U, 0xbe8968953ee56b99U, 0xbe9f42b03f48b702U,
  0xbf18a05dbe4edb04U, 0x3e87bf9cbe0266caU, 0x3ed606f33dbeb8f6U, 0x3ece783c3dd08073U,
  0xbe10ea22bccd8cc6U, 0xbdcf9a733e946085U, 0x3eddd11f3f046393U, 0x3fa0be86bf250e83U,
  0xbe868bdf3ee69ee5U, 0xbfb7d6723e9f20d7U, 0x3f0180e03dd12e3fU, 0x3efba5953e81b97dU,
  0x3e8387cabe1765c6U, 0xbf4ebc123e528dbaU, 0x3f0dffe73ee967a4U, 0xbcd7b64c3e1df4bbU,
  0x3e1fe6293e2763a4U, 0xbebfc16b3ea14ad4U, 0xbdd105833df209dcU, 0xbe06f3233deabf46U,
  0xbe0772e1bde072d2U, 0x3d11e2263db16197U, 0xbecc1ee2bcabc6bcU, 0xbf34ff0fbe58c8d1U,
  0x3ea41bb6becb77f8U, 0x3e4ea2e8bf1b12fcU, 0x3ec492ca3f946ba1U, 0x3f27374cbe478f47U,
  0x3f547405bdbeb6a4U, 0x3f93d06d3dee6d04U, 0x3fc9d3ba3d919443U, 0x3f0962213e98f19dU,
  0x3e9562d53d32e4a2U, 0x3f916fd83e27c019U, 0x3d38822abf13ce1eU, 0x3de7d9713e63d8a3U,
  0xbdf8d92abe887c7eU, 0x3e2f7bdf3d4ae1c2U, 0x3edf93b6bd812ea4U, 0x3ffba03cbe8d6a79U,
  0x3efdaa313d84e3deU, 0xbec3c4873dc09f0fU, 0x3e91b9b13e04c915U, 0x3ed9379bbf702f5fU,
  0xbf96c18e3e850060U, 0xbe9991733e7c51dbU, 0x3df72263bec8841eU, 0x3ec5bcb43f42e4c2U,
  0x3c476d293e6b6b0eU, 0xbf8856ebbe242fcaU, 0x3d0483ffbef12882U, 0x3f2c5a61bebfa11cU,
  0xbe012e553ee6a8b7U, 0xbe11f3dc3d44d32eU, 0x3f44063bbf35efc6U, 0x3e5898ef3de7399eU,
  0xbe0fafc9be3eaa85U, 0x3d1e5fb5be499ea3U, 0x3e8afd9bbe0c9d86U, 0x3d3420cb3f23ebaeU,
  0x3edb2ba43f87f69dU, 0xbb9f186c3f8e2204U, 0xbba67bc7bc2986baU, 0xbfc888633f15876cU,
  0x3fd540a5be1980baU, 0xbf251d6e3daff4a4U, 0xbe9da13f3e9517e2U, 0x3e9982c2be857e33U,
  0x3f388269bdae9236U, 0x3fac53f9beb8d981U, 0xbf80b08ebeb6edcfU, 0xbe0e1dfabd9e9e58U,
  0xbf864de3be1cb062U, 0xbce192b2be7223e2U, 0x3f897d49bda37e8eU, 0xbf9aebf23ef694b7U,
  0xbeeb525f3efaddf0U, 0xbe8f35573e61c81fU, 0x3e62976abd5a73b3U, 0xbc3bb3ba40085256U,
  0x3e1eec85bf4ac384U, 0x3f062568bec61d00U, 0x3debc948bfbae281U, 0x3e12534c3e47a897U,
  0x3f4b110b3ef1e771U, 0xbde5f25c3e9ebab8U, 0x3dd19f53be9fe753U, 0x3ee7714e3f0c8541U,
  0x3e83af953e878f16U, 0xbefca2483f512541U, 0x3d9fa765be6cccb0U, 0xbcfdffe0bf1c96b1U,
  0x3fe35cf1bdfe1f8dU, 0x3ebf1df63f05b1e9U, 0x3f12c3d63fc7544dU, 0xbed3b3ea3f38794eU,
  0xbed1f940be82f645U, 0xbde620e53f1e32c3U, 0x3ed1ac41be2f6833U, 0x3f0ac8193f117e32U,
  0xbee13c013eaf2b8aU, 0x3eb300d03dce1c3fU, 0xbe67a9753ef191e8U, 0x3e4c1df53ed840d9U,
  0x3dc282f63dc0e328U, 0x3e2962f63e3224bdU, 0xbe43fe273ed9ae34U, 0x3ea0714e3e80e9cbU,
  0x3e155f0d3f06759aU, 0xbda51ed6bf1086c5U, 0x3eaf09ad3eb1c3fbU, 0x3f92b2403de7a7faU,
  0x3f1ca4fabee5115aU, 0x3e3f330b3e80f3f2U, 0xbeb01742be465f48U, 0xbe1735443ee494f1U,
  0xbe66f4f2be79c8c8U, 0x3eb47b013ee2f513U, 0xbf17c8773e86b19cU, 0x3f16ca20bec4a14aU,
  0x3e7c9b7f3ec2e78dU, 0xbd550b32bea8d3eaU, 0xbeed9832bc1d7b47U, 0x3c9be2bebdbcdea8U,
  0x3f835f57bf4a06adU, 0xbf881ca8be95973aU, 0xbe835ed2bdbcb99eU, 0x3f4baaad3d7c2d99U,
  0xbea9ce8dbe8a2878U, 0x3e83bcd53eaa201dU, 0x3f81d51c3f20df31U, 0xbde81ef93ee910c6U,
  0xbecd898fbf3a3005U, 0xbdeb74e5be0fa592U, 0x3f50718ebddf1f23U, 0xba47298bbe3b1169U,
  0x3edeb2c3beae965fU, 0xbec49afbbee58bb5U, 0xbdbe7ba7bf237d54U, 0x3e1ae2bb3e70765aU,
  0x3dceed78be57ba63U, 0x3f098ce33f4ad5adU, 0xbeac327bbfc5525cU, 0xbdad0c853f54366eU,
  0x3fa186903f0922e5U, 0x3e4c74823f7b514fU, 0x3e3b634dbe3751d0U, 0x3e74c2f93eeb91b6U,
  0x3cda543cbee008f7U, 0x3d45496b3e117c80U, 0x3df9d627bf16e9b1U, 0x3f863b16bfd30ea7U,
  0xbf1f1c643ec88b08U, 0x3dca6c0e3f834b1fU, 0x3e70cc3e3e6ae447U, 0x3f440615bdc1c7c1U,
  0xbdd27f093f7bf579U, 0xbd521d9d3d9260c1U, 0xbd82f564be4881d8U, 0x3edbbce23ef00933U,
  0xbe4a62433f09ae0dU, 0x3e07ac2d3eead282U, 0x3da8de4dbe88b191U, 0x3e2c6d183efc6c98U,
  0x3e872838bfae1133U, 0x3f0ef8e13e36b71cU, 0xbe617b44bf4de86dU, 0x3f49f94abeedfcf2U,
  0xbf2d14f7be5b2bc4U, 0xbdde0681bfb2ed7bU, 0xbed9d6153ea79e7eU, 0x3c86ad3ebf14b78bU,
  0x3f84426b3e3c9e42U, 0xbf42534dbdb67176U, 0xbe8e2eb73ea65610U, 0xbea711e2bf289044U,
  0x3f411cf33efd66b0U, 0xbc986da33f52640cU, 0xbe61b3a0be34d968U, 0x3dd5716fbe04caeaU,
  0x3e58b358bfa172f1U, 0xbe622e95becf3375U, 0x3ed571b33e60d060U, 0x3f1b14b93f72bb3cU,
  0xbe98bad93ef0c73dU, 0x3f07bdb33f4ea64aU, 0x3e0833be3e178dd2U, 0x3e73b77a3f1f0559U,
  0xbf9c6c613e9e9961U, 0x3bb3f86dbe81d695U, 0x3f67dfd13f60805fU, 0xbf17d0ffbf03abb3U,
  0xbeecc0f13e6a2a22U, 0x3f5e72253f509ee1U, 0x3e0c23a9be8d8deeU, 0xbf8686cb3f4bfa56U,
  0xbe680d48bc106210U, 0x3e209f3cbe024686U, 0xbf4595bcbefb4243U, 0xbe19796c3ed271dcU,
  0x3ea7b613bf13124eU, 0x3e64a7cabe3bb12dU, 0x3d1422e6bec9f4edU, 0xbe12bc41bd8f8594U,
  0xbc9ab7963e83cd23U, 0x3ef5cfbfbf8ada47U, 0xbdae8cbfbd0797b1U, 0x3f1230dfbec40c47U,
  0xbf62f278bbe8bf73U, 0x3f485745be22f824U, 0xbe9579e6bdae427fU, 0xbf08f8c9bf53e3ceU,
  0x3e1671be3e066710U, 0xbf91fccdbe168f15U, 0x3ea8a86f3f0bab8fU, 0xbf01231cbe16d0bfU,
  0x3f37d2cf3e3e1a88U, 0x3cadabc03d64a5caU, 0xbf466f343d61947cU, 0x3f8e2a02be2d7a11U,
  0xbe7aa801bf514b5eU, 0xbe8ae29bbd8d9771U, 0x3e27082abd44e37bU, 0xbf481f9bbf3e71d6U,
  0xbe10b28e3eeab6ddU, 0x3e338f36be6e6da9U, 0xbf6886633f3fb769U, 0x3cecf3233e8ade54U,
  0xbea7c6453e27d5adU, 0x3e98dd3a3d95f1bfU, 0xbf4ee222bdb42147U, 0xbe0b2eba3e95b8c7U,
  0xbecda12e3bb18bd0U, 0x3ea848e4bf1d1fc8U, 0xbe893e5abf0bbb34U, 0xbf04e558bd20a1b7U,
  0xbec24e07bfdaf0a2U, 0xbf7260c5bf7abdb3U, 0xbe8c4e4ebf10eb76U, 0xbeb2bc0d4003a13bU,
  0x3f47a6af3f890f0dU, 0x3f7ad8ae3f866d2bU, 0xbe475eb43f79f6a0U, 0x3e524ce9bc430091U,
  0x3ee1dd243e4b9b87U, 0xbf12d194bf2a09a2U, 0x3fa90049be86e85eU, 0x3f151f7b3eaf58d8U,
  0xbf2198a83dd8528cU, 0xc0652b353ec467f1U, 0xbf92babb3f776edbU, 0xbf4d07793fda4b3eU,
  0x3f4f88e13d4bcd6fU, 0xbed5a6b63c7155c5U, 0x3fa5fbb4bd3a0731U, 0xbe01bd933ecf4b97U,
  0xbf2f01d73f408a92U, 0xbfce3bf03f2e05fbU, 0xbd0d00203efdd386U, 0x3f182ad73f646f7eU,
  0x3fb00d9d3e0f25b0U, 0xbd3855f6bf2d6bffU, 0xbf2d0ccabf7b1e43U, 0xbfcd1466bd5017e5U,
  0x3ee602923e301163U, 0xbf91388dbeab60c7U, 0x3f0b73c13f71c276U, 0x3ed7003cbe4d6e63U,
  0x402e2dafbf87dea0U, 0xbf247564bea6c861U, 0xbefbae683f09876aU, 0xbf1228b23e32843cU,
  0xbdc39182bf6ca62eU, 0x3feabded3f593ff8U, 0x3fd1022ebeb7311cU, 0x3efb2b5dbf252aa6U,
  0x3dd7bc7fbf5feaa1U, 0x3f1399ad3e0a2039U, 0xbe8f88c43ead3233U, 0x405ab291bea1b110U,
  0x3d58c7283ded7efbU, 0x3f1407873eae5575U, 0xbf543ad83f28f648U, 0xbf5d1d2a3f8369a5U,
  0x3f502891c02765a1U, 0x3f13ce67bdaa14c7U, 0xbfdabebb3f1cd8d1U, 0x3ea725c1bd7bd2ffU,
  0x3eace283bf9711b6U, 0x3f07bf633d9692feU, 0x3f3f0be33f4c9103U, 0x3e9b7031bec5c29dU,
  0xbe480ea23fa578bbU, 0xbf8974e9bfca4d4fU, 0x3e8c65c13bf15b50U, 0x3e6a2c07bed0ab66U,
  0xbe6d56ad4016fa52U, 0x3ecb634e3ffd3440U, 0x3f36aa25bf0ba8bbU, 0x3f3f8205bf8e3229U,
  0x3f72f4c3be086744U, 0xbeac4322bd1a3eb7U, 0x3ef30f03bd1bfc2cU, 0x3db200533f9f0369U,
  0x3e9ab6d03e64b264U, 0x3cb1db2dbe17c9a1U, 0x3eff8e4240243042U, 0x3ef4dc8f3fcd2ffeU,
  0x3f7679b73fd21fc8U, 0x3fc405e5bee45290U, 0xbfb1ff853e980c6fU, 0x3c96e7ea3f2e8c14U,
  0xbe45d9fcc00a3511U, 0xbf763d24bf93248cU, 0xbd79ed0e3c5b8c6dU, 0x3f320794bebcfdb4U,
  0xbeff5066beccd7b4U, 0x3e12080e3f1755afU, 0x3e81f4563f30d33fU, 0x3f4a50d0bd5f7c6eU,
  0x3ec79da2bf536cc6U, 0x3ea9942b3f865d6eU, 0x401cdb3ebf1e53f3U, 0x3fc9a58ec040a6c7U,
  0x3c62ff62bfaa6a30U, 0xc003bd79bfefe7c0U, 0x3f4df349403b8731U, 0xbe54a87f3f83c281U,
  0x3fc01c083e8750ddU, 0xbfa76745bf19b058U, 0x3fb60e4ebf1e9fc5U, 0x3da2ecdfbf1c709eU,
  0xbe93245c3e5e0588U, 0xbe7432f8bf1724daU, 0x3eddc6bc3f4c1e1fU, 0xbebbc131be8b54ffU,
  0x3df7e3fbbe964c59U, 0xbe5a30b73e0740b5U, 0xbee7e0f2bdd80d4eU, 0xbf04b6313ec05568U,
  0xbdb302d9bf32b7cdU, 0xbe365c653dff5141U, 0xbf382763be1cf14eU, 0x3f1b64f2befa11a5U,
  0x3f78817abf3f742fU, 0x3fb296abbee72065U, 0x3ee3e035bf0cbe07U, 0xbe38f592bf15c5d0U,
  0x3e6953fcbe4eeeb8U, 0x3efadb1bbd41d707U, 0xbf1e89cbbecfbdfcU, 0x3e8df5a8bdea7526U,
  0xbf02e8b5bee27828U, 0x3e5bd08ebe04e3d5U, 0x3d0cb0ebbefe6ba7U, 0x3e29ae593e6b7fd6U,
  0xbe821725beaa3b4cU, 0xbf5b8ee6bb98bc22U, 0x3e0bf3ccbe6f1861U, 0xbe598e73be57f9adU,
  0xbe9cfcc23e985beeU, 0x3eb2fc2c3f0f1d84U, 0xbf0d542bbedad17eU, 0x3f02ceb43e4f179fU,
  0xbfb3999f3f2e9c55U, 0x3f4fe8343e1471ecU, 0xc009b293bf1a7fd4U, 0x3f540346be509b39U,
  0xbdb1322b3e3ea6c7U, 0x3f874655be239653U, 0xbeffe3ce3e7464c7U, 0xbd8d8b65bc71b284U,
  0x3e6b3a7a3d8ebc93U, 0x3dc76d92bf303c76U, 0xbf001e053d94b59cU, 0xbf69116f3cff4870U,
  0x3d28415ebe8e5e65U, 0xbd03e1b73d8c69f4U, 0x3ed70493bf31ff2bU, 0x3e93007bbe40d8e0U,
  0x3f2b7d50bf45dc65U, 0xbd41cab1bd3c4edaU, 0x3dee47aebf0b530bU, 0x3ddc01e4be2afa78U,
  0xbe69aca6bea61229U, 0x3e5433283ee2b92fU, 0x3e17dfc63f48cbaaU, 0xbab7e2acbeab0430U,
  0x3e918aa3bd901838U, 0xbd8151d5bf01cd56U, 0xbdad6f653e5902cfU, 0xbeea5da33efadc8cU,
  0x3e9c86c13f345fa3U, 0x3dff57b43dd8a188U, 0xbea533083e054634U, 0xbf7efa43bec58cd0U,
  0xbe4d461abf55113aU, 0x3e445a38bd3bb745U, 0x3e925a74bd4b522dU, 0xbea96f4a3ebdbd3fU,
  0x3f424e4dbe953022U, 0x3e1c7c113b97d3f6U, 0xbdaeb2a33f04abbbU, 0xbc2f4123bddbcf2fU,
  0xbe5f10723f106eb5U, 0x3f334bb93e9c8a25U, 0xbf0363113f34fde2U, 0xbd87cc8a3f591369U,
  0x3ec3bd63bec6cf53U, 0x3db42b943ebedb7eU, 0x3e770c3c3df2bdf7U, 0x3e3d6ef0be288e71U,
  0xbe88894d3d9cca1fU, 0xbde3f9c03cbc41c7U, 0x3e67950a3d558259U, 0xbfab0eb73df198b5U,
  0xbeb9fcd63dd2c164U, 0x3dac461abf45c584U, 0x3ec6a8253f0616c2U, 0xbed20219bec8cd9dU,
  0xbe02eebc3f5b264fU, 0xbea5302cbc57f38cU, 0xbe834da63ea5afbcU, 0x3d61c8703f6c6bb0U,
  0xbca7840abe9ad2caU, 0x3e16fb9fbe39ad22U, 0xbedf383b3ec4885bU, 0x3e0692f1be5250e0U,
  0x3e650e98becbfccbU, 0xbfb7e0b5becc552bU, 0x3d81ec093ed20675U, 0x3ee3a21dbefd4cb1U,
  0xbd67bf60c000952aU, 0x3e0d10643e0e3f0cU, 0xbfbb1655bf465264U, 0xbf54ad27bfee9fceU,
  0xbe5e7fd5c004b52fU, 0x3e87b4fc3fbdde8dU, 0xbed4575f3f338956U, 0xc018e5e73f04c560U,
  0x3f3561c5bf9e6900U, 0xbf2810d6bf9f5053U, 0xbf0bd16b3da11ca3U, 0xbf4af395be1a8cdcU,
  0xbf59b44dbfaed60dU, 0x3ed2601c3ea876cdU, 0xbec3a56dbef09b25U, 0x3dfc7441be5108afU,
  0x3fb246b5bea2b1e9U, 0xbdf9cacebfd1b954U, 0x3eedf112bfb144f9U, 0x3d96c7f33dfb4c42U,
  0xbf38dd124028b624U, 0xbf17cc7e3f134d6aU, 0x3f951ea93f3db88cU, 0x3ee493a5c00c106dU,
  0x3f02f359bc7878a7U, 0x3e765d4dbffd4629U, 0x3edd3455bca9d9e3U, 0x3ee764323f970848U,
  0x3f0340fc3e1462bdU, 0xbbf285a4bdbfaf1cU, 0x3ec0295bbf96945aU, 0x3f3a15bf3f928bd3U,
  0xbeccf6a13f63d273U, 0x3e0c60b1bf6549ddU, 0xbff3a6c33fa58cc9U, 0xc00be695bf132b21U,
  0xbf6193593edc8dfaU, 0x3f8a8ea63e9b330bU, 0xbfe28ccf3f2c8458U, 0x3d4b73c1bf5be1f3U,
  0x3e718d15bf7915deU, 0x3f939be53f132ca8U, 0x3f1373513e8874dbU, 0xbef176ca3ed782fcU,
  0xbfa48d69bf5369c9U, 0xbf09c4c2be9ade82U, 0x3dca6de73e5f1beeU, 0xbf8c32893b543a63U,
  0x3efca153beee980aU, 0xbf378e62bc3db88aU, 0xbdc4afc53f3a0a63U, 0xbe3252b03f3eeeb7U,
  0xbea11fcbbfc7a9f0U, 0x3e02f0d5be69a4c7U, 0x3e8397c2be369345U, 0xbf4f0483bfa7a228U,
  0xbe39d0a5bd8ad245U, 0x3ee94c513da09600U, 0xbe8a2b9abe9a2c11U, 0xbfcfbfa33f9f5a7cU,
  0x3f0c3108bd2ac29fU, 0x3e2cedd03f03d5e0U, 0x3f0775c2bdaed0b2U, 0x3e04bb59bfe62fb4U,
  0xbf95d7d63f3a1591U, 0x3ecd4c123e275daaU, 0xbf61e394bebf1676U, 0x3f13abe33f923718U,
  0x3eb3d2f93f888d20U, 0xc00cf462be163311U, 0x3f6d58e0be83cf7bU, 0x3f1e4c853d6db239U,
  0xbe71c8ee3efc5007U, 0x3f4e329bbec0e46dU, 0x3cd02a163e5aa6dbU, 0xbdac2d153f2eea55U,
  0x3c21787abdf168f6U, 0xbd8f351bbeb55417U, 0x3ebd20ffbe8e66c3U, 0x3f1c491e3e72a0bcU,
  0x3dea45ebbf500485U, 0xbf34f2523dbaa5fbU, 0xbe8817ccbf2ecd4fU, 0x3e9a7b863d995607U,
  0x3f50ce533b68a9daU, 0x3f9fb066bde395f5U, 0xbf23feb5be886750U, 0xbefed8b0bf28effbU,
  0x3f9d2dbbbf852b65U, 0x3fc62b803f0e9d8cU, 0xbb05358abf38796fU, 0xbe9c989b3dcdc98cU,
  0x4028f9a3be9a29c6U, 0x405ef8ad40813003U, 0x405474553fe9dcd1U, 0x407a298b409dfe6fU,
  0x3fead826be846d29U, 0x4128519440b9cfd3U, 0x40d1305bbea5de69U, 0xbed5362b4003897aU,
  0x40c46d4ec0c6d578U, 0xbf8394e3c001cf2eU, 0x40060dbdbefb8b63U, 0xc191be814103b401U,
  0x40c749c5c067cc8eU, 0x4052aa49414cc415U, 0x401b822ebf052c66U, 0x40630cea3ea670aaU,
  0xbfbdf98c9e867d1aU, 0xbeb2b021bd86583eU, 0xbd8dacd64146e7fdU, 0xbed754e9bece6d5eU,
  0xc143d64d3d827facU, 0xbf0427e3c109fbfeU, 0x4142792f1e729db1U, 0x1ef41d84bf1e5c17U,
  0xc00e002c1e4ed75bU, 0x410a2a013eb7ff7dU, 0x3f82534b40cebe37U, 0x3d95712240155a46U,
  0xbf6f00873dba2f52U, 0xc08d97c8413f35a7U, 0x402f193d1edcb647U, 0xa03563aebfb41010U,
  0xbd25fffb1d859c5aU, 0xbfae3bacbe7c4b58U, 0x3d6eb765c0c194f9U, 0xbed3c76d3fa0627eU,
  0x3e190b983d6eeb09U, 0xbe3f4387bff480c8U, 0x414a50f11e30b729U, 0x9d8f31f7bf66526bU,
  0xbe0afcb29e1f4323U, 0xc0bf7dd0bf8a803fU, 0x3f6fe7a14074a47aU, 0x3ed6db63404fb7d3U,
  0x40377cc73cc81deaU, 0x3fd473e9bd89eb1aU, 0xbb9845489def6e0dU, 0x9eebcc2b3ee1f045U,
  0x40110b9e9c3357f0U, 0x3fcfb927bfcbcd30U, 0x3fb2bbeac03ae7fbU, 0x3eb87e0b40cad93fU,
  0xc0535f1ebd33fef0U, 0xbf404ae73f75a88aU, 0xbf11b9d09e7cc0b1U, 0x1eff76493dd808d5U,
  0xbfc67ebb9ddb4cffU, 0xbd3a0e96bfa0badcU, 0xbffe9b67bfd076beU, 0x3f69c50fbf0af97cU,
  0x3f6e1b943ce3d8bdU, 0xc06bfe95becc7700U, 0xbe9918e99eb106d6U, 0x9ff39b6f41297380U,
  0x3f9d57739e205275U, 0x3ef493263ec0dbe7U, 0xbfa94cea403e53cdU, 0xbf15d729bf9fce65U,
  0xc0d4d282bce73ff7U, 0x407ea7b340e49abdU, 0x40fbee741dca954bU, 0x1f22e10240699f9eU,
  0x3f4008a41d9784ffU, 0x40a343d3bef461a8U, 0x3d5b021f3ec6aaa6U, 0x3f122f9a3f5f73f0U,
  0x40387d6a3d1279d9U, 0x40434029bffbd52fU, 0xbe96878e1d5d317dU, 0x9f0718c03ff0a9a1U,
  0x3d4d0468bccb2162U, 0xbd9df302bbe2f975U, 0xbc9051eebd116258U, 0xbd5ae0d6bcd4107eU,
  0x3bbb64e9bc0ead64U, 0x3d75d6af3be215faU, 0xbd1742a93c6a5625U, 0x3d0dca00ba7ebc6cU,
  0x3d0fd4d1bcf9e5f7U, 0xbc5a5834bd5fbaebU, 0xbd35b7e2bcd8b573U, 0xbdc8bf8a3d341e06U,
  0x3d9313e03d6595a0U, 0x3c1a0ad9bd9cefcdU, 0xba29f7dc3bf9d422U, 0xbe0a249e3d1c5b67U,
  0x3c6eb55bbc01dbaaU, 0x3d26fc39bd5afcbeU, 0x3d043cb43cb6e101U, 0xbd39616bbd3966dcU,
  0xbd80c33d3df7abb9U, 0x3d25055a3c4ffb25U, 0x3da6859dbb4d89bbU, 0x3c5c59fbbd569e27U,
  0xbd6871953d294685U, 0xbdaf30473c6a005fU, 0xbcaeaf423b9275a2U, 0xbc6993b7bc73e182U,
  0xbc2e4d2a3da63e83U, 0x3d3dfcac3d858216U, 0x3cf1dde0bc3ac5a8U, 0x3dbc8dfb3ca75f6bU,
  0x3d2b5552bd7d59deU, 0x3d0a91893caa2eccU, 0xbc70adc53c83100cU, 0x3d126df43b964cfaU,
  0x3c80cc0f3bdabc97U, 0xbcb1f3b93c909278U, 0xbc19c87fbdd33496U, 0x3cab816abc880e7bU,
  0x3d7bf5f53ceb3a83U, 0xbacf01333e0c28abU, 0x3d9f59143cb6e3cdU, 0x3daab261bda90ea6U,
  0x3db653dcbd88d836U, 0xbd311024bd0918b7U, 0xbd3b5e963d63f750U, 0x3d28ba5ebe0869c3U,
  0xbce872c33c14155aU, 0xbd3b3faf3d2a1311U, 0x3b8b21593c394d35U, 0x3d1e1a7ebc9c9062U,
  0xbd32d575bcd0c1bcU, 0xbc108a023ccf2f49U, 0x3d1e080abadd4878U, 0x3ceaba5dbb9eaf94U,
  0x3de94f583d2a1ef9U, 0xbd9e4d6fbc6b57f5U, 0x3b813d7a3dcb1fe4U, 0xbd66cd403b69e1f4U,
  0x3dcfd72d3dee6d79U, 0x3c08c17cbd10ed4fU, 0xbd097f903ce3da46U, 0x3d4b5a0d3d57f4d6U,
  0xbd247f283c02d70dU, 0xbd4109003c1dabccU, 0xbcfbeeee3c83f02dU, 0xbd12838f3bda800dU,
  0x3d1411e73c03c7efU, 0xbc4b56373d10d126U, 0x3d8a75323c20248fU, 0x3d0a815f3d33c351U,
  0xbd0063623badd481U, 0x3df8cf99bc08f69eU, 0xb93e353b3d1c5055U, 0xbd6000283d3e364aU,
  0x3dbee1e8bd435f8bU, 0xbc2a87c73cff8206U, 0xbd45a8cbbbe9edd6U, 0xbc707328bc75a8dcU,
  0x3c10383fbb86943dU, 0xbd71be4bbcc7ad41U, 0x3b815c8b3b8160d3U, 0x3c8d7260bbba3b2cU,
  0xbca7df603ca5d321U, 0xbc1da4bb3c46419dU, 0xbc8da613bc25252bU, 0x3c77fbffba887292U,
  0x3c371aba3b83ecd7U, 0xbcaa1d633cd96c6cU, 0xbcd0002b3d6f774eU, 0xbd2f6db13d815bf8U,
  0x3cf2701bbd889408U, 0x3c8f6cfabb2ec5bcU, 0x3db34278b8fb01dfU, 0xbc8f6f61bd3f1496U,
  0xbbbd66e03d8a62faU, 0xbc919b5fbd9438a1U, 0xbd16e9563d02870eU, 0x3c5fbcca3c99b205U,
  0x3d2c30a23bb8e22aU, 0xbd1b1804bd5a5a83U, 0x3da2d8f1bccad162U, 0x3d1871f2bbf31a43U,
  0x3d0bd80abd522263U, 0x3c961510bdaa56d6U, 0xbef71f213ce4bba3U, 0x3d4d5f16bc3aada7U,
  0xbcb89abe3c13ab77U, 0xbcc46b7a3c6fc09aU, 0xbd4b01843d44cb4bU, 0x3d5d2af53caf1eb3U,
  0xbca804563c8a0b87U, 0xbc9682283d42833aU, 0x3b0d6fe13d000f1bU, 0xbd36b2e4bd64f000U,
  0xbce85807bbaa8026U, 0x3c8324923c9439a4U, 0xbce4e9223b89ae36U, 0xbc6fc992bc42bca8U,
  0x3c538846bd217870U, 0xbc9c6417bc48f6e7U, 0x3b2e49f2ba7d4c7bU, 0x3d11a1b83d96b4e1U,
  0x3c698387bc8e1bc8U, 0xbbbe38c13d24377cU, 0x3d14d0d53c637820U, 0x3a4a8e0c3cec5694U,
  0x3ca04a003b344052U, 0x3d1575063d378855U, 0x3c375066bc03c192U, 0x3ce1369f3d00537eU,
  0xb7566f2ebce2852cU, 0x3b2a76d5bcab1bf7U, 0x3bee1ce93ab2e163U, 0xbd056f793b73fa86U,
  0xbda2624fbcda1ea8U, 0x3c93e62cbbe07409U, 0xbcafcd03bd52a98bU, 0x3c43d78fbd3a632aU,
  0xbca10da8bdcd80ccU, 0xbd249be23bff4468U, 0x3ce35e58ba4b1981U, 0xbccb8b663d312b55U,
  0x3d5988093ab63208U, 0x3d8a6faf3c7346b4U, 0x3b66b0893d6f5d19U, 0xb9e63e433ca7cedaU,
  0x3d547b033d94fef9U, 0xbd230540bd16da69U, 0x3e06feb83cc82d48U, 0x3cfa57523d84ce94U,
  0xbd03332a3cb45423U, 0x3b3ecd1b3d24c2e5U, 0xbaca3b8f3d844a48U, 0xbd4b3919bd8a5165U,
  0xbd50cb69bdae5e12U, 0xbdd026b0bd1a8197U, 0xbd137178bca0af4aU, 0xbca812823c14bea0U,
  0xbc00632a3d025ad9U, 0xbc7ca80abc7a920cU, 0xbd2f5f7f3c0b03f3U, 0x3c0c2db43b3a84c8U,
  0x3c96acaabcdaa16eU, 0xbc44f8eabd2e740fU, 0xbb1cf1793bbf13e5U, 0x3b9951013b9f0e45U,
  0x3a1fdf553ca302e2U, 0xbb7e7fec3c8a0de1U, 0xbabddeda3ab04d05U, 0x3cca08593a45c299U,
  0xbc9d146fba9bcbf1U, 0x3bc79da73c551412U, 0x3cc46f513b4f05eaU, 0x3c9210653b3fc5fdU,
  0x3c03ca6dbc4a43c6U, 0x3d40f44cbc99fe92U, 0x3bdf63edbce905daU, 0x3c9e2d443cfb3cfbU,
  0x3c0748ae3b4d5412U, 0x3cbc0ca23a1c19d6U, 0x3bedf4e5bbbba4eeU, 0x39c9d18c3c711193U,
  0x3c4f96f53c2b0c16U, 0xbcd29c1f3cab6c5cU, 0x3c0f9d883c5f44dcU, 0x3cb3152cbc0f67dcU,
  0xbb9790f73bb605d9U, 0x3a1679033c2291dfU, 0xbc3f6fccbbe9c9a3U, 0xbadd11fbbd16cfc4U,
  0x3c8ae678bd6e4b9eU, 0xbc33b90f3c1592faU, 0x3d5c6a473a6be37dU, 0xbba6e9993c6f637dU,
  0x390e3deabb2c4108U, 0x3978f7263d5d2a04U, 0x3c3e1c51bd2336faU, 0xbc49c5cb3ced15a5U,
  0x3d1b3a813cfb3762U, 0x3d32b33f3c8aa12dU, 0x3c8858913c54c1c6U, 0xbda7e0b13db351a8U,
  0xbe41fe95ba85e046U, 0xbcadb8e5bc75fdbcU, 0xbd1e1080bc7414f5U, 0x3cbf26b83cdbe533U,
  0x3c3b565bbd8b100eU, 0x3bca42dc3c81ce48U, 0xbd04dc07bda6ad54U, 0xbd823703bd928ee4U,
  0xbd75d9d2be7a76d5U, 0xbdbf5472bbd4672bU, 0x3e8936cf3ca8373dU, 0x3e07f05dbdbfa3b1U,
  0x3cca94a7bc310e31U, 0x3d8d14943b267c32U, 0xbce6bc233d0b579dU, 0xbd0fa389bc9c9b8fU,
  0x3b8893303d72c2aeU, 0x3b808af2bcc1c2bcU, 0x3e033fcc3bc583f4U, 0x3c31646aba5c8f08U,
  0x3d0479923c66e670U, 0x3cf506763d248500U, 0xbbcba5843d92ecccU, 0x3caca8333cad1e7bU,
  0xbc3316d0bd550807U, 0xbcb003a1bceadfdeU, 0x3d4fea793c1c6ad1U, 0xbc85e4673ca7046cU,
  0xbc4b684d3c1ed22fU, 0x3c5a0bdb3c55b235U, 0xbc0082fa3ce075e7U, 0x3d01a09d3c39cf6bU,
  0xbbd9f3bebcf13f19U, 0xbe0e3d99bcbf0cf4U, 0xbca240423b64f70dU, 0x3c269626bc4ccb60U,
  0x3d45b33fbbea2d1bU, 0x3d114dffbcbf9b1aU, 0xbc5472bebca08a36U, 0xbd909f763ccabb55U,
  0x3d08ab45bcde4c9fU, 0xbb93e18abc43e472U, 0x3c930ec13d044421U, 0x3d4925a13d23f4a5U,
  0xbcacb5a5bd19290fU, 0xbd368228bc699b32U, 0x3caca3debb4187f9U, 0xbd9f6bc1bd11f0aaU,
  0x3d4f48f13cc62db1U, 0xbdae91e43a94db1eU, 0xbd3da3bdbd0214a4U, 0x3c790a6d3b45ae5fU,
  0xbd52830bbd912536U, 0x3d10f7f5bb69f343U, 0x3c8de69e3ccd6680U, 0x3af43ecbbba7e6f7U,
  0xbcf9944bbac13fd3U, 0x3d03deabbd783f69U, 0x3b136ace3d22c289U, 0x3d2af7843d0de1daU,
  0xbc8e5197bbb16361U, 0xbc49000cbcd93026U, 0xbbc5fe38bd5c606dU, 0x3c2c2c00bd5847dbU,
  0x3c8b2f0f3d3052daU, 0xbd222a9f3bf47d0eU, 0xbdb97fb13cbd9ad0U, 0x3cd3b58a3daacd0eU,
  0xbc1de5e33d0ea8a0U, 0x3cb32d1e3d460f0dU, 0x3ca840b53d015ebfU, 0x3d8b82d6bd35dc63U,
  0xbd385aa3bd884148U, 0x3cb92dc33d8087fdU, 0xbb783de23ba7031cU, 0x3dd4a5b6bc25a1adU,
  0x3cc5ec3ebd03b564U, 0x3bf53cafbd6b6582U, 0x39b11f8bbce1e44fU, 0xbd95ed173caa3778U,
  0x3d154cfe3d8399bcU, 0x3c984183bcffbf80U, 0x3ad09898bbd9a369U, 0xbdb0c2b83d21a7c6U,
  0x3c1b1e61bc8aaf16U, 0x3d60c3853996ad2fU, 0x3c6763843ba77bfdU, 0x3c14b2c73d5493a5U,
  0x3c36625cba0d1be0U, 0x3aec2023bbd429b3U, 0x3c7bc00ebbf73a5cU, 0xbccc5a1abcb9aa75U,
  0xbc29a136bb563ed0U, 0xbd0655b73a33dfc2U, 0x3b4fb98fbb8c6fd5U, 0xbce79584bca98cf9U,
  0xbc2fd58cbd0d0b76U, 0x3a9175503ba8e14aU, 0xbd7b1434bb1f1954U, 0xbcb2eada3d10fdf8U,
  0x3daa881b3d6513ebU, 0xbd3aff6fba9b202fU, 0xbc13d57e3e025d95U, 0xbd164a3d3d061b2cU,
  0x3da7dadc3dd55d48U, 0xbc2c1a77bcf655f9U, 0xbcfbc2133cdfada2U, 0x3c98ac3d3d68777cU,
  0x3d339cf4bd0f3c78U, 0xbde6f9c7bc8ec0faU, 0x3c2f3b18bccfd5bbU, 0x3cbdd47cbd3b34ffU,
  0xbd94cc823d3a5bdaU, 0xbc3853afbc91181bU, 0x3d912c8f3bf69a35U, 0x3cab2be33d3ee7c8U,
  0xbc681e01bbad4fc6U, 0xbd0ed7593b3e4a8aU, 0x384650a0bbb1b782U, 0xbc82f7c3bba77749U,
  0xbb9729cdbd219859U, 0xbba656663a9f86beU, 0xbd1ff2aebbfe0e54U, 0xbce252013d0f2fefU,
  0xbcbbd18ebc3f3f42U, 0xbd10af00bd7e7685U, 0xbc8ab4f0bbca3304U, 0xbbcc7b113cdd5e33U,
  0x3b64776bbcd9382eU, 0x3bb29bd1bd20084eU, 0x3ca3122bbe3a650bU, 0x3d04751e3cd06c34U,
  0x3d9ac0833dc0c75bU, 0xbc1782e3bcb48d5fU, 0xbd03f078bd5a9782U, 0xbd1d2897bc931d34U,
  0x3ca8d3a03b948d83U, 0xbd2e8dd73d7e718fU, 0x3d20c73abd448508U, 0xbdbb3fd03d8a445aU,
  0x3d64be6bbc571425U, 0x3bc3212dbd3b98f9U, 0xbbf3c0a63ca6975eU, 0xbca84ab03d504d7eU,
  0x3d0e6dad3ceae05bU, 0x3ba07874bc8db929U, 0xbd5fa4b63c758939U, 0xbcfb8c75bd0baa13U,
  0xbc5842b8bc535001U, 0xbd5f8e603cc43c2aU, 0xbb9eef5d3d918126U, 0xbe0f5c70bdb7a82fU,
  0x3a701c65bce1d8faU, 0xbbc29c983bad364eU, 0xbd3089aabb53c5e5U, 0xbd5f3d993d84c455U,
  0x3d1173483b646d77U, 0xbcff0ec5bd8c0cc3U, 0xbd39a42b3cc862e0U, 0xbd1d49963c00c52cU,
  0x3cddb418bb3f6cf1U, 0xbd710502bb6917a9U, 0xbc88579e3c717a70U, 0xbb7606763cdcc6c3U,
  0xbba934c93b12210fU, 0xbd62148bbc76376eU, 0x3c1f1804bc3ec858U, 0xbcadcfb13c2e36c5U,
  0xbc91e5c2bd97562fU, 0x3c5262b33c1cab65U, 0xbda1bdf6bbffb82cU, 0xbcbd96b33d4781d5U,
  0x3d164c4f3c53112fU, 0xbbf48c9c3c85bbf3U, 0xbbd78af53dbb7b9eU, 0x3c5f6331bc946b9dU,
  0x3cf353c7bd23a26fU, 0x3c599861ba8c4b1dU, 0xb7cc11a73bea8de6U, 0xbc9519033d9d1bcfU,
  0xbd489ba3bdbcaf2aU, 0x3ca55aa7bc50f8c3U, 0x3be94d333d60b6e9U, 0xbc6668b63c0f0c5dU,
  0xbbdbdbf9bbb7d02aU, 0x3cc2d334bdb0f08dU, 0x3b1d6f163d52e274U, 0x3d32e52b3d6369bfU,
  0x3c2137833ba0388aU, 0x3d33f6dd3d712edbU, 0xbb976ce93d902bc9U, 0x3c9a49223ce348a1U,
  0xbcce2878bd9e1671U, 0xbd52142bbcbfbd53U, 0x3d8af7cc3c2e7d8aU, 0xbce277cf3c68cb4bU,
  0xbc0cf4ea3bb76bb5U, 0x3c851d51bd9a0890U, 0xbda1cb623d1f329eU, 0xbb8e2250bcf25dcdU,
  0x3ba30290bbbd1be2U, 0xbd4ae312bc02511cU, 0xbb9338aa3cff0d17U, 0xb85391e4baddde4aU,
  0x3cc68329ba6d28c1U, 0x3c425ebe3cbc6300U, 0x3bfbba763c97708aU, 0x3c9cacab3b4d6adcU,
  0x3cdf5390bd846c88U, 0xbd62900f3bf2f7ecU, 0xbd7776213b657711U, 0x3d436792bc8ca243U,
  0x3d6479553b5640ccU, 0x3d95818cbc3db9b4U, 0x3ac19a343d2c10d5U, 0x3d28e5e33cec171aU,
  0x3dc051ff3db49674U, 0xbd59e77abce4fc1fU, 0x3e222be83d2fd711U, 0x3c7dc24f3da090e9U,
  0xbd01534cbb1fd62bU, 0xbc1e5f30bc326724U, 0xbc142acebd5ac763U, 0x3a8f2d83bd610032U,
  0x3c76ae393cda8227U, 0xbd14b86f3c0add51U, 0xbd90347e3c860f13U, 0x3c203e993da03c32U,
  0xbc9553193d6c5047U, 0xbc08c386bcfdc4b4U, 0x3d87260b3dd6f21dU, 0xbd251278bdde3e0bU,
  0x3b80883ebdb04318U, 0xbdb0af34bd1bdf6aU, 0xbd4198893b69a64eU, 0xbcdaab0abbab04b0U,
  0xbb17430e3d07885cU, 0x3c171063baa066f5U, 0xbcdc30cc3d0da0bcU, 0xbdde4ffebd888cbcU,
  0xbd74c93cbcde680eU, 0x3c20814cbd392aa0U, 0xbcdeb9f8bc02369eU, 0xbbbc980c3ccd9f70U,
  0x3c61b105bc8b5fbdU, 0xbd0d59aa3d0a3f2fU, 0xbd15ffcabc08ee1cU, 0x3d9dea84bdef65cbU,
  0x3e2b07c8bc96cfefU, 0xbcc633b4bc034230U, 0x3b3dce183d0dca71U, 0x3c3146c8bba8128bU,
  0x3d0d9c5e3c0936a5U, 0xbcb5020bbd11c45bU, 0xbd42dc25bd2d81bdU, 0x3d9ed2823ddb670aU,
  0x3d089ffebd09f4b1U, 0xbc56a245bc9fb780U, 0x3c78eb183d055c7dU, 0xba68b60e3dd32ad8U,
  0x3c453b393d4dca87U, 0x3d1d6b7abe13c5b4U, 0x3ddc350e3d96bf4dU, 0x3cfeba4abd110f0aU,
  0xbd33bbd9bdd4221aU, 0x3c45b09cbb009c25U, 0x3cd4030dbcb3c90fU, 0xbca5394e39cb6308U,
  0x3d0678b6bd5d50f4U, 0x3c718c6b3d4e131fU, 0xbd016952bd2d46d0U, 0x3d81acc53d7f7c51U,
  0x3a91dd373c532a2fU, 0xbbba55c83c92f88cU, 0x3c08af5c3c022a42U, 0xbac371443d1d7cccU,
  0xbc9eb666bc4185b7U, 0x3af3dad5be05bf9bU, 0xbe9a60283d15ef0aU, 0xbcdd8982bd8c15b3U,
  0xbd45228fbc88db8dU, 0xbd344dff3b6ba858U, 0xbd23f5123d3e3895U, 0x3c3148783c157698U,
  0xbc4f40303cff307aU, 0x3e0f81f33d1df2c4U, 0x3cd7990d3dc59ef8U, 0x3c865a7e3d16b364U,
  0x3b026314bdf013a5U, 0x3d1d3fa33c91d591U, 0x3ce37d11bc998952U, 0xbd78e7d83d00c94dU,
  0x3da0a517bcddfb56U, 0xbd1b4a0d3c3cf772U, 0xbc07db03bca40422U, 0x3d068eb7bd2c1c7eU,
  0xbd18b671bc8c135aU, 0xbd1c2603bd6456f0U, 0xbd881f4ebbb2dcdbU, 0xbcb37056bd09eabaU,
  0x3d15b734bd470b3aU, 0x3e1167e6bcee3611U, 0x3c5488f3bdad9001U, 0xbd1156bfbd953744U,
  0xbcae7aebbd9462daU, 0xbd492f88bcde9285U, 0x3d920bea3cdca601U, 0x3d2289f43d1dec40U,
  0x3ba89d873c9f1fe9U, 0x3d83d1e83c27544cU, 0x3c4bb32f3c28042bU, 0x3df7a711bcd24adfU,
  0x3c2f4d073d495cdeU, 0xbda60bdbbcd27cadU, 0xbe4977ddbc560edfU, 0xbbbb2ba23dae721cU,
  0xbd0019a1bc67b164U, 0xbdba75d23acf370dU, 0xbcf93ff33ca6abc4U, 0xbcf754f73cf43684U,
  0x3ceb3617bacf2e97U, 0xbd92dc183c2f84c1U, 0x3bbbfc35bc6966edU, 0xbd0e7bb63ca635d5U,
  0xbc1b87423baa5771U, 0xbac0f3793c4e0f79U, 0x3af4440bbb0abb1bU, 0x3cb5dd74bb11be6bU,
  0xbc96b5db3b58ac4cU, 0x3c2cf7b63c38a3d2U, 0x3d04dde23aa17d80U, 0x3c848d403c0c6ae0U,
  0x3cfe9cbb3b731aeaU, 0xbd8f323cbb1051ccU, 0xbb7eb5e3bb084fecU, 0x3ca6fe51bcf29979U,
  0xbd3d9ba03d22f7a6U, 0xbbf44f61bc98e96cU, 0x3d200d643c86226eU, 0x3cb4b4383d0951b8U,
  0x3d0fa323bd013cfbU, 0x3c80625e3e1d6e20U, 0xbbe273263c7da883U, 0xbb06c73abb828816U,
  0xbc862134bd73955bU, 0xbd620afabd03a966U, 0xbcbeb3223cbdf556U, 0xbcfd55c53dde5871U,
  0x3db55e103e04fd5bU, 0x3bc3ec49bc2f986eU, 0xbd4aa1dcbd8db3c7U, 0xbd061b73bcb8e8c6U,
  0x3cfb7c5fba438d0dU, 0xbd86ff563d9ef368U, 0x3d832356bd575beaU, 0xbdc08e553d6c8917U,
  0x3a35c1213cac4a61U, 0xbb384de6bd16a01dU, 0x3c9e6e29bca4d78cU, 0x3da3a54b3d17de5bU,
  0x3d55e639bc914332U, 0x3c0be139bc9d6376U, 0x3d2970293b8d1962U, 0x3bed7646bc975f16U,
  0x3b6bd3623be6e33eU, 0x3b8e5655baeb10bbU, 0xbd5845013bc8ea7cU, 0x3c8b58453ab57aa9U,
  0x3c85b39fbcfdd570U, 0xbb1e7e65bd706ab8U, 0xbba493d6bdb3ea6bU, 0x3d07722c3cd5e890U,
  0x3cca3ede3c29e737U, 0x3d27ac8cbe854703U, 0x3ceb2c813b8c2254U, 0x3e2878763d437da9U,
  0xbd84c7fbbd88d9c6U, 0xbac7950d3cd18699U, 0x3d26ecfa3d0c425dU, 0x3c08b82db99fb25cU,
  0x3cca3fa5bd2f9926U, 0xba07a18a3d13bd71U, 0xbd1451fd3d422c8fU, 0xbde3210bbd6b742aU,
  0xbd6474723c5cee70U, 0xbcc1b9e33cda165eU, 0xbd3a245e3c224c39U, 0xbc87deb03cc8cecfU,
  0x3ce2207a3b11d59dU, 0x3dbb73c03cf75916U, 0xbc2cbb473c954c60U, 0x3d7c68bfbd76057aU,
  0x3c962268bd5e9e51U, 0x3cdc2669bd22b56dU, 0xbdb86a813c9c9980U, 0xbd8b28383cc8334dU,
  0x3cd9cd4239122e21U, 0x3a110c35bcb3c163U, 0xbbb5beef3c5aace6U, 0xbb7cc0f43c69a092U,
  0x3c86268b3d6b4359U, 0xbbda2b85bc352030U, 0x3d6207273c3d29d6U, 0x3ba9636bbce66396U,
  0xbbf6275cbba0b0b9U, 0x3c87afeabb753c1dU, 0xbc10a6bc3a59016dU, 0x3d3bef10bc68b4d7U,
  0xbcb655f93c539985U, 0xbdbd85b5bc4e6343U, 0xbb5ad689bad287c0U, 0x3c09fdb63c049463U,
  0x3c02821abb7fc38dU, 0x3d16e014bbd753b2U, 0x3bf2d67cbc53b859U, 0x3ce17e653cadf6baU,
  0x3c09bda73bd55592U, 0x3c56db8639915e38U, 0xbb0f7510bb940e75U, 0xbb5af7dcbb823566U,
  0xbbb9b66bb7a65814U, 0xbd00e14c3b74cf16U, 0xbb8ad7ae3bcba63aU, 0x3c0a6f9dbbfad79dU,
  0xbc957b0c3c1b7419U, 0xbb8003e33bc8552bU, 0x3d0a24073bad376eU, 0x3c2d08783c059195U,
  0xbd6e0cc3bc274583U, 0xbd1551eebd1748daU, 0xbb1436cebd445fa8U, 0xbd239dcf3c88ff10U,
  0x3c18bc133d9205d3U, 0x3d10997d3c652048U, 0x3ced2cf43b72a876U, 0xbd01e6d53cc5fb8eU,
  0x3b3b6b4abc23c16eU, 0xbd12c5b43d569f8cU, 0xbc8049313c0f422fU, 0xbd06f2e63bad71a7U,
  0x3ca2f995bcf32079U, 0xbd364b7fbc98789dU, 0x3d078f9e3c5085b6U, 0xbc68af213cf01bacU,
  0x3cdcf42abcdd563eU, 0x3c3f825cbd6a8af7U, 0xbd6dc0963d08e7d4U, 0x3ce815ffbc143fc6U,
  0xbc9e390abbb1ab19U, 0xbbc31d933cf3642eU, 0xba47a13b3c5563e2U, 0xbb49ddfc3b598b80U,
  0xbbc443f53d78c738U, 0x3804d3fa3b6f5c1aU, 0xbd58b6543c023f16U, 0x3bef355abc312031U,
  0xbba48fddbc3a0b5eU, 0xbba4633ebd4486c4U, 0x3aab004d3d2a0050U, 0x3c89554abb9d4891U,
  0x3d2dde7ebc6af4c2U, 0xbd13a416bd62fbc2U, 0xbc5eb33ebc61556eU, 0xbd77a0c73cb6c0abU,
  0x3d0293943cea8511U, 0xbd89c01dbcf40596U, 0x3ce216643c80cf94U, 0x3d4b1acc3cc90bffU,
  0x3c745b47bc013e84U, 0xbc6114d13ce14cdbU, 0xbbd109133bb2dbaaU, 0xbd224fdc3ca105cbU,
  0x3c9cb81bbc88d6f5U, 0xbccd35a1bbd9f038U, 0x3c66e42e3c2e968bU, 0x3af080ee3c99cccfU,
  0x3dcfb1dabd93df73U, 0xbdb44c753c4c6f4aU, 0xbcb1311abd82b5feU, 0xbbd08ad2bcb80407U,
  0xbbf5204bbd284e1eU, 0x3cc22949bd507f5aU, 0xbc0b63fd3bc50c76U, 0xbcd94476bd8d7a95U,
  0x3c69c98fbba7c63eU, 0x3c28d10bbd3a5720U, 0xbd099fedbd32d066U, 0x3d31c3b83e569773U,
  0xbd6b32ca3d056f5dU, 0x3d1f955b3c22654dU, 0x3d7f6ea93c5f80b4U, 0xbd2599a63dcfc79bU,
  0xbc939226bc0da505U, 0xbd785dd93b7b8d73U, 0xbca391c13bce00b7U, 0xbc059e5e3cb7ac3bU,
  0x3c525e9ebbc8b6a6U, 0xbd901f20bc14a102U, 0xba6c3a0bbbb2a4aaU, 0xbc8a7ae53b661ddaU,
  0xbc01e42c3cd61460U, 0xbbfa439a3c62df9dU, 0xbd04df763bd62a93U, 0x3b882781bb176b8bU,
  0x3c40875bbc37b9cfU, 0xbc932459bd078dcdU, 0x3c3955373c1d421fU, 0x3af109873ca2b023U,
  0xbcfd70a43ceff1b3U, 0xbda0f357bd63d94eU, 0xbcad435e3d1f8a70U, 0xbca0095bbd3ff671U,
  0x3cb876e6bd8f32deU, 0xbdedee853d40b480U, 0xbc2106fd3e1b0492U, 0xbd54824e3d0c5495U,
  0xbd3a698ebc0d3620U, 0xbd1a3e5a3c9d873eU, 0x3ab5af013d2c2957U, 0x3d61cec6bd4c506eU,
  0xbd62d1073d3b0879U, 0xbc16fe3fbc9bef1cU, 0x3dabe3c8bc315036U, 0xbdbb674b3c8f0f14U,
  0xbc0ebb60bd054d16U, 0xbce57e56bc9f6174U, 0xbc2cd2903bfc41d3U, 0xbd843994bcb8da6fU,
  0x3d1273433c1c58b7U, 0xbd9d2830babcc9b7U, 0xbbfdc0e0bcc99824U, 0x3b5d74133bb64693U,
  0x3c1f44f7bca65774U, 0x3ca7aabb3d00a88fU, 0xbddf13f7b89d249dU, 0xbaca05a13c57b559U,
  0xbca367103b43243bU, 0xbc21b308388fa4b9U, 0xbc5fe5c53b927530U, 0x3b87af003ca16d4eU,
  0xbcf3d6f93d5d8a1fU, 0xbc2564923e17488eU, 0x3d3992c9bd81cbf1U, 0xbd4c315c3ca27fb9U,
  0x3d233770bd571baaU, 0xbd2b8854bdd9a8acU, 0xbb78df8cbc48dc09U, 0x3cb9b4673d2be6c2U,
  0x38dfa9883ce1a351U, 0xbcb1a951bc4f5e35U, 0xbbb9bb283ca698f5U, 0xbbce05eebca4804eU,
  0xbca0d790bd0311f4U, 0xbd6b5d763c7d843cU, 0xbc0f7fee3df9f096U, 0xbcf0eb4c3d0f10eeU,
  0x3d3adf673d533bb8U, 0x3c90d17a3a4d1b13U, 0xbb6ef394bd2fb253U, 0x3a71df9fbd0c5439U,
  0xbc3fa2fdbc2e4efbU, 0xbc441a9c3d4a74b5U, 0x3c6bc70abcc3b259U, 0xbd095a423d1b3418U,
  0xc2be23063ef2774cU, 0xc139fbe9c14e02cbU, 0xc074d231c1ff41a1U, 0xc1f1b2a1c221e4e6U,
  0x3fc9d2b9bf1f4ddcU, 0x3f67caf2401905cfU, 0xbfbc1455bf87adeaU, 0x3f3957a340541888U,
  0xbf2a0a5f3f1b5244U, 0xbd8061613ffd1faaU, 0x40362549c0236607U, 0x3f95988440449317U,
  0x3fba48ae3fee0630U, 0xbfd68fd3bff81ff2U, 0x402d20a43f20e515U, 0x3fd55a0640440ea7U,
  0x3efb1c0e3e4d17d6U, 0x3f8976a7403f18ebU, 0xbffaaa8a3f07f653U, 0xbf49311e3fbd34eaU,
  0x3f94b570bd817054U, 0x3e4dee913bfdd086U, 0x3f87f7903ff2b086U, 0x3fe2f2d6bf1b2ea4U,
  0x4024f74a3fa293e5U, 0x401440223fc06f5cU, 0x3f8226173ff666a9U, 0x400aeab33efed97eU,
  0xbfa6d36a3fade8e1U, 0x3dab505dbfc89c08U, 0xbea2e0a1be1e3ce9U, 0xbccdb1e23f4b51efU,
  0xbe8269a63de300c4U, 0x3feb7e22bfc30897U, 0x3f23b445bf411964U, 0xbf460054be851dc6U,
  0x3ff3f350bfeec87fU, 0x3ed29dcc400abb3cU, 0x3eaea154bf92f9a5U, 0x3f0624e93ec7e86bU,
  0xbed83dc63facdf7fU, 0x400b25193e343bf7U, 0x3fedbbe4be0eccdeU, 0xbe48d3fa3fe95733U,
  0x3eac20ca3fbed34bU, 0x3e887a5dbd98630cU, 0x4018a6363fe9f5f9U, 0x3ea044e54015cf1fU,
  0x4002c6ba3f31b644U, 0xbffeca7cbdce3a17U, 0xbf8146953e5c46dfU, 0xbec60c09bf233ec9U,
  0xbe23e3943c6422ceU, 0xbd3f9bf53d54748aU, 0xbcd4efc03cd4abfeU, 0x3cf289aabd5d982bU,
  0x3d77ee1b3d66f364U, 0xbda3f8e2bcdcba6eU, 0xbc9c66b23c3b485dU, 0x3dec4b9ebd8a29dcU,
  0x3c32738d3caac003U, 0x3daea666bccd3513U, 0x3d987da13d1c2b26U, 0x3d7be4303cc51b99U,
  0x3d1d89363d2e75a4U, 0x3da00f2cbd499101U, 0xbb84e77abd6c9bc7U, 0x3c44285b3a50269aU,
  0xbd6cf5b3bca3176eU, 0x3becfef73d290998U, 0x3c5bc66fbaf3bcdbU, 0xbd959b49bcb6192fU,
  0x3b710b263c126e49U, 0x3cf0bd22bcac5110U, 0xbc91b52cb9bd5ee7U, 0x3da43ae33cc49c0dU,
  0xbc0dab9c3d03fe1dU, 0xbd8b8a25bdc66a51U, 0x3c4d404a3d84cb6aU, 0xbcc718893d1baeffU,
  0x3d57d6253eb2b4c5U, 0xbd89ed8b3d73aee6U, 0xbccc460a3d937400U, 0xbe3354d33e673d46U,
